/* Copyright 2018 The TensorFlow Authors. All Rights Reserved.

Licensed under the Apache License, Version 2.0 (the "License");
you may not use this file except in compliance with the License.
You may obtain a copy of the License at

    http://www.apache.org/licenses/LICENSE-2.0

Unless required by applicable law or agreed to in writing, software
distributed under the License is distributed on an "AS IS" BASIS,
WITHOUT WARRANTIES OR CONDITIONS OF ANY KIND, either express or implied.
See the License for the specific language governing permissions and
limitations under the License.
==============================================================================*/

// Automatically created from a TensorFlow Lite flatbuffer using the command:
// xxd -i tiny_conv.tflite > tiny_conv_simple_features_model_data.cc
// See the README for a full description of the creation process.

#include "tiny_conv_micro_features_model_data.h"

// We need to keep the data array aligned on some architectures.
#ifdef __has_attribute
#define HAVE_ATTRIBUTE(x) __has_attribute(x)
#else
#define HAVE_ATTRIBUTE(x) 0
#endif
#if HAVE_ATTRIBUTE(aligned) || (defined(__GNUC__) && !defined(__clang__))
#define DATA_ALIGN_ATTRIBUTE __attribute__((aligned(4)))
#else
#define DATA_ALIGN_ATTRIBUTE
#endif

const unsigned char
    g_tiny_conv_micro_features_model_data[] DATA_ALIGN_ATTRIBUTE = {
        0x1c, 0x00, 0x00, 0x00, 0x54, 0x46, 0x4c, 0x33, 0x00, 0x00, 0x12, 0x00,
  0x1c, 0x00, 0x04, 0x00, 0x08, 0x00, 0x0c, 0x00, 0x10, 0x00, 0x14, 0x00,
  0x00, 0x00, 0x18, 0x00, 0x12, 0x00, 0x00, 0x00, 0x03, 0x00, 0x00, 0x00,
  0x64, 0x66, 0x00, 0x00, 0x10, 0x00, 0x00, 0x00, 0x1c, 0x00, 0x00, 0x00,
  0x2c, 0x00, 0x00, 0x00, 0x0c, 0x00, 0x00, 0x00, 0x01, 0x00, 0x00, 0x00,
  0xc0, 0x00, 0x00, 0x00, 0x01, 0x00, 0x00, 0x00, 0x94, 0x00, 0x00, 0x00,
  0x0f, 0x00, 0x00, 0x00, 0x54, 0x4f, 0x43, 0x4f, 0x20, 0x43, 0x6f, 0x6e,
  0x76, 0x65, 0x72, 0x74, 0x65, 0x64, 0x2e, 0x00, 0x0a, 0x00, 0x00, 0x00,
  0x60, 0x00, 0x00, 0x00, 0x54, 0x00, 0x00, 0x00, 0x48, 0x00, 0x00, 0x00,
  0x40, 0x00, 0x00, 0x00, 0x38, 0x00, 0x00, 0x00, 0x30, 0x00, 0x00, 0x00,
  0x24, 0x00, 0x00, 0x00, 0x1c, 0x00, 0x00, 0x00, 0x10, 0x00, 0x00, 0x00,
  0x04, 0x00, 0x00, 0x00, 0xc6, 0x9a, 0xff, 0xff, 0x38, 0x00, 0x00, 0x00,
  0xce, 0x9a, 0xff, 0xff, 0x48, 0x01, 0x00, 0x00, 0x7c, 0x9a, 0xff, 0xff,
  0xda, 0x9a, 0xff, 0xff, 0x00, 0x60, 0x00, 0x00, 0x88, 0x9a, 0xff, 0xff,
  0x8c, 0x9a, 0xff, 0xff, 0x90, 0x9a, 0xff, 0xff, 0xee, 0x9a, 0xff, 0xff,
  0x1c, 0x64, 0x00, 0x00, 0xf6, 0x9a, 0xff, 0xff, 0xa8, 0x64, 0x00, 0x00,
  0xa4, 0x9a, 0xff, 0xff, 0x05, 0x00, 0x00, 0x00, 0x31, 0x2e, 0x35, 0x2e,
  0x30, 0x00, 0x00, 0x00, 0x08, 0x00, 0x0c, 0x00, 0x04, 0x00, 0x08, 0x00,
  0x08, 0x00, 0x00, 0x00, 0x08, 0x00, 0x00, 0x00, 0x09, 0x00, 0x00, 0x00,
  0x13, 0x00, 0x00, 0x00, 0x6d, 0x69, 0x6e, 0x5f, 0x72, 0x75, 0x6e, 0x74,
  0x69, 0x6d, 0x65, 0x5f, 0x76, 0x65, 0x72, 0x73, 0x69, 0x6f, 0x6e, 0x00,
  0xc0, 0x9c, 0xff, 0xff, 0x20, 0x00, 0x00, 0x00, 0x14, 0x00, 0x00, 0x00,
  0x08, 0x00, 0x00, 0x00, 0x74, 0x64, 0x00, 0x00, 0x01, 0x00, 0x00, 0x00,
  0x05, 0x00, 0x00, 0x00, 0x01, 0x00, 0x00, 0x00, 0x03, 0x00, 0x00, 0x00,
  0x08, 0x00, 0x00, 0x00, 0x5c, 0x63, 0x00, 0x00, 0xdc, 0x63, 0x00, 0x00,
  0x74, 0x5e, 0x00, 0x00, 0xf4, 0x61, 0x00, 0x00, 0x64, 0x62, 0x00, 0x00,
  0xcc, 0x62, 0x00, 0x00, 0xd4, 0x5e, 0x00, 0x00, 0x04, 0x00, 0x00, 0x00,
  0x4e, 0x9c, 0xff, 0xff, 0x00, 0x00, 0x00, 0x03, 0x10, 0x00, 0x00, 0x00,
  0x08, 0x00, 0x00, 0x00, 0x14, 0x00, 0x00, 0x00, 0x48, 0x00, 0x00, 0x00,
  0x02, 0x00, 0x00, 0x00, 0x06, 0x00, 0x00, 0x00, 0xa0, 0x0f, 0x00, 0x00,
  0x31, 0x00, 0x00, 0x00, 0x77, 0x65, 0x69, 0x67, 0x68, 0x74, 0x73, 0x5f,
  0x71, 0x75, 0x61, 0x6e, 0x74, 0x5f, 0x31, 0x2f, 0x46, 0x61, 0x6b, 0x65,
  0x51, 0x75, 0x61, 0x6e, 0x74, 0x57, 0x69, 0x74, 0x68, 0x4d, 0x69, 0x6e,
  0x4d, 0x61, 0x78, 0x56, 0x61, 0x72, 0x73, 0x2f, 0x74, 0x72, 0x61, 0x6e,
  0x73, 0x70, 0x6f, 0x73, 0x65, 0x00, 0x00, 0x00, 0x64, 0x9d, 0xff, 0xff,
  0x30, 0x00, 0x00, 0x00, 0x24, 0x00, 0x00, 0x00, 0x18, 0x00, 0x00, 0x00,
  0x04, 0x00, 0x00, 0x00, 0x01, 0x00, 0x00, 0x00, 0x87, 0x00, 0x00, 0x00,
  0x00, 0x00, 0x00, 0x00, 0x00, 0x00, 0x00, 0x00, 0x01, 0x00, 0x00, 0x00,
  0x5d, 0xaf, 0xe2, 0x39, 0x01, 0x00, 0x00, 0x00, 0x18, 0x25, 0x54, 0x3d,
  0x01, 0x00, 0x00, 0x00, 0xe5, 0xae, 0x6d, 0xbd, 0xc0, 0x5d, 0x00, 0x00,
  0x64, 0x6f, 0x92, 0x89, 0xb0, 0x8b, 0x86, 0x8f, 0x6f, 0x64, 0x8e, 0x83,
  0x79, 0x8d, 0x40, 0x73, 0x9e, 0x8f, 0x7f, 0x77, 0x53, 0x6e, 0x57, 0x87,
  0x5c, 0x64, 0x7c, 0x67, 0x70, 0xb4, 0x4e, 0x70, 0x79, 0x9f, 0xa4, 0x5b,
  0x73, 0x9e, 0x5b, 0x79, 0x79, 0x9a, 0x7e, 0x7d, 0x59, 0x94, 0x73, 0xa8,
  0x76, 0x73, 0x85, 0x9b, 0x95, 0xa8, 0x4f, 0x72, 0x69, 0x90, 0x68, 0x7d,
  0x7c, 0xa0, 0x6a, 0x80, 0x63, 0x8d, 0x7c, 0x6b, 0x6a, 0x7e, 0x39, 0x64,
  0x75, 0x7b, 0x7b, 0x64, 0x80, 0x9e, 0x5c, 0x93, 0x96, 0x8b, 0x79, 0x86,
  0x69, 0x9c, 0x5d, 0x8d, 0x79, 0x96, 0xa3, 0x8c, 0x5c, 0xc9, 0x55, 0x77,
  0x99, 0x7b, 0x97, 0x99, 0x8f, 0x95, 0x3e, 0x93, 0x6e, 0xa1, 0x84, 0x8c,
  0x6e, 0xc0, 0x5e, 0x9d, 0x6a, 0xa6, 0x97, 0xa0, 0x66, 0xb1, 0x45, 0x97,
  0x7e, 0xa1, 0xa1, 0x7c, 0xaa, 0x84, 0x66, 0x7c, 0x6c, 0x67, 0x8a, 0x83,
  0x74, 0x80, 0x5c, 0x6e, 0x99, 0x64, 0x99, 0x73, 0x8d, 0x7a, 0x66, 0x90,
  0x82, 0x80, 0x79, 0x8f, 0x7c, 0x9d, 0x7e, 0x89, 0x6d, 0x8b, 0x9d, 0xba,
  0x8f, 0x6c, 0x8c, 0x9b, 0x77, 0x89, 0xa3, 0x7a, 0x9f, 0x99, 0x7e, 0xa2,
  0x7b, 0x76, 0x8b, 0x7d, 0x90, 0x94, 0x51, 0x8a, 0x72, 0xa5, 0x74, 0x83,
  0x7d, 0x95, 0x74, 0x80, 0x7a, 0x73, 0x75, 0x7c, 0x9b, 0xa4, 0x69, 0x87,
  0x79, 0x8a, 0x86, 0xa5, 0x80, 0xa4, 0x74, 0x80, 0x8e, 0x96, 0x7e, 0x73,
  0x8c, 0xa5, 0x7a, 0x81, 0x7c, 0x76, 0x75, 0x9d, 0x95, 0xa1, 0x6b, 0xa6,
  0x83, 0x71, 0x91, 0x9a, 0x7c, 0x97, 0x73, 0x6d, 0x80, 0x9f, 0x91, 0x7b,
  0x64, 0x7b, 0x8e, 0x93, 0x7b, 0x99, 0x9e, 0x95, 0x87, 0x88, 0x80, 0x8d,
  0x65, 0x9d, 0x88, 0x98, 0x8f, 0xb8, 0x66, 0x7f, 0x69, 0x9e, 0x7b, 0x8d,
  0x74, 0x9d, 0x6c, 0x82, 0x68, 0x9e, 0xa3, 0x7a, 0x6a, 0xa1, 0x96, 0x71,
  0x90, 0xb2, 0x84, 0x96, 0x7d, 0xc0, 0x8a, 0x90, 0x7a, 0xa4, 0xa4, 0x89,
  0xa5, 0xb3, 0x88, 0x80, 0x8c, 0x9b, 0x9e, 0x75, 0x6a, 0xa9, 0x81, 0x96,
  0x76, 0x85, 0x8c, 0x8c, 0x81, 0xb2, 0x6c, 0x75, 0x8e, 0x8e, 0x92, 0x8d,
  0x75, 0x99, 0x71, 0x82, 0x74, 0xa3, 0x7a, 0xad, 0x6b, 0x9b, 0xa1, 0x9e,
  0x5f, 0x6e, 0x63, 0xbf, 0x4f, 0x66, 0x75, 0x86, 0xc0, 0x89, 0x9e, 0x7b,
  0xd0, 0x96, 0x83, 0x6d, 0xa5, 0x62, 0x97, 0xa7, 0x88, 0xa0, 0xa8, 0x84,
  0xa3, 0x5e, 0x7a, 0x9e, 0x73, 0x81, 0x8f, 0x95, 0x6d, 0x54, 0x93, 0x66,
  0x65, 0x90, 0xa7, 0x8a, 0x86, 0x4c, 0xa4, 0x80, 0x7f, 0x89, 0xb2, 0x7a,
  0x85, 0x87, 0x7f, 0x71, 0xa0, 0x7d, 0xa5, 0x8e, 0x7e, 0x58, 0xa6, 0x57,
  0xb2, 0x9d, 0x91, 0x86, 0x7e, 0x7e, 0x8f, 0x87, 0x6d, 0x9d, 0x78, 0x77,
  0x8b, 0x71, 0x56, 0x7c, 0xa1, 0x97, 0xae, 0x61, 0x8d, 0x7d, 0x6d, 0x7c,
  0x76, 0x7f, 0xaf, 0x97, 0x8b, 0x5c, 0xa6, 0x9a, 0x81, 0x97, 0x90, 0x7b,
  0x8d, 0x5f, 0x90, 0x89, 0x68, 0xab, 0x94, 0xb2, 0xb2, 0x7d, 0xb3, 0x8d,
  0x77, 0xa9, 0x98, 0x78, 0xa8, 0x93, 0xa7, 0x99, 0x8d, 0xaf, 0x8d, 0x83,
  0x88, 0x8b, 0x9e, 0x7d, 0x69, 0xb4, 0x96, 0x7a, 0xa6, 0x8e, 0xa7, 0x9c,
  0x60, 0xa4, 0x97, 0x8b, 0x7e, 0x80, 0xa3, 0x7d, 0x84, 0xaa, 0xa6, 0xa0,
  0x98, 0x75, 0x77, 0x8a, 0x7c, 0xa5, 0xa3, 0x83, 0x79, 0xa5, 0xa5, 0x8d,
  0x81, 0x91, 0x96, 0x73, 0x89, 0x80, 0x9a, 0xae, 0x6e, 0xa7, 0x95, 0x7c,
  0xa3, 0x8b, 0x9f, 0x7b, 0xc2, 0x7e, 0x7d, 0x88, 0x9a, 0x5c, 0x8f, 0x77,
  0x68, 0x82, 0x95, 0x75, 0x93, 0x83, 0x87, 0x67, 0x6c, 0x6f, 0xb1, 0x8b,
  0x73, 0x6b, 0xa4, 0x81, 0x7d, 0x6a, 0x9b, 0x7c, 0x71, 0x69, 0x80, 0x70,
  0x84, 0x6c, 0x74, 0x78, 0xb2, 0x85, 0x8c, 0x4e, 0x83, 0x73, 0x87, 0x7c,
  0x7c, 0x46, 0x8e, 0x7d, 0x70, 0x6f, 0xaf, 0x91, 0x90, 0x89, 0x7f, 0x69,
  0xa5, 0x7a, 0x7a, 0x7f, 0x9d, 0x68, 0x75, 0x75, 0x67, 0x77, 0xa0, 0x6f,
  0xa4, 0x7e, 0x91, 0x7f, 0x64, 0x79, 0x9e, 0x9c, 0x92, 0x7c, 0x8b, 0x9c,
  0x87, 0x86, 0x8e, 0x87, 0x8b, 0x56, 0x78, 0x6f, 0xa3, 0x93, 0x9e, 0x79,
  0x93, 0x8a, 0xb3, 0x93, 0xaf, 0x7a, 0xa1, 0x9e, 0xb9, 0x76, 0x8a, 0x9c,
  0x7d, 0x91, 0xad, 0x74, 0xbb, 0x94, 0x81, 0x7a, 0x73, 0xb4, 0xab, 0xa8,
  0x83, 0x90, 0x89, 0x8e, 0x7d, 0x9c, 0x8d, 0xa5, 0xb3, 0x80, 0x96, 0x66,
  0x93, 0x76, 0x92, 0x5e, 0x99, 0x94, 0x7f, 0x81, 0x65, 0x82, 0xa8, 0x64,
  0x99, 0xa8, 0x6b, 0x90, 0x80, 0x99, 0x61, 0x9a, 0x76, 0x81, 0x86, 0x9b,
  0x7b, 0xa0, 0x96, 0x8e, 0x8d, 0x89, 0x9a, 0x6e, 0xbd, 0x72, 0x85, 0x94,
  0x88, 0x68, 0x92, 0x8b, 0x9f, 0x88, 0x9f, 0xad, 0x91, 0x55, 0x9c, 0x8b,
  0x83, 0x80, 0x8b, 0xad, 0x74, 0x51, 0x54, 0x6b, 0x93, 0x58, 0xb9, 0x94,
  0xb7, 0x6c, 0x54, 0x71, 0xac, 0x62, 0xa1, 0x83, 0x84, 0x62, 0x87, 0x61,
  0x86, 0x52, 0x96, 0x94, 0xbd, 0x5f, 0x7f, 0x63, 0x93, 0x77, 0xb1, 0x79,
  0xa2, 0x83, 0x60, 0x62, 0x6d, 0x55, 0xa0, 0x8f, 0xae, 0x5d, 0x5e, 0x7c,
  0x7d, 0x6d, 0x75, 0x8f, 0xaa, 0x6b, 0x81, 0x60, 0x8a, 0x77, 0x89, 0xa1,
  0x8e, 0x72, 0x64, 0x89, 0x87, 0x76, 0x9f, 0x94, 0xbc, 0x52, 0x88, 0x90,
  0x8a, 0x63, 0xae, 0x79, 0xa7, 0x86, 0x7d, 0xa0, 0xa0, 0x7e, 0xc7, 0x7e,
  0x9a, 0x87, 0x9d, 0x7e, 0x70, 0x87, 0x97, 0x79, 0x89, 0x80, 0xab, 0x66,
  0x9b, 0x9f, 0x81, 0x7a, 0xa9, 0x8e, 0x81, 0x87, 0xab, 0x87, 0x8f, 0x9c,
  0x8a, 0x98, 0x62, 0x91, 0x94, 0x93, 0x9a, 0x86, 0x83, 0x8e, 0xa2, 0x5d,
  0x84, 0x8b, 0xa4, 0x72, 0x9a, 0xa2, 0x69, 0x8c, 0x91, 0xa8, 0xa8, 0x77,
  0x91, 0x7b, 0x8e, 0xa3, 0xa9, 0x8a, 0x6d, 0x63, 0x8c, 0x84, 0xa6, 0x9f,
  0xaa, 0x62, 0x7f, 0x85, 0x83, 0x6b, 0x99, 0x8f, 0x6f, 0x62, 0x82, 0x7d,
  0xa1, 0x81, 0x81, 0x80, 0x95, 0x81, 0x87, 0x76, 0x7c, 0x69, 0x6f, 0x59,
  0x8b, 0x5e, 0x7b, 0x81, 0x9e, 0x51, 0x91, 0x72, 0xaf, 0x59, 0x9d, 0x86,
  0xad, 0x4d, 0x55, 0x8c, 0xa6, 0x55, 0xb7, 0x89, 0xa4, 0x84, 0x4d, 0x7d,
  0x82, 0x8d, 0x99, 0x74, 0x99, 0x5e, 0x6f, 0x66, 0x97, 0x76, 0x9b, 0x96,
  0xa4, 0x87, 0x63, 0x8e, 0xa3, 0x71, 0x8e, 0x83, 0x80, 0x6a, 0x73, 0x84,
  0x93, 0x8a, 0x73, 0x8f, 0x84, 0x71, 0x70, 0x8d, 0x8b, 0x79, 0xc2, 0x8f,
  0x9b, 0x83, 0x75, 0x8c, 0x96, 0x90, 0xb6, 0x69, 0xbf, 0x81, 0x77, 0x63,
  0x60, 0x61, 0xa2, 0x81, 0xa4, 0xa3, 0x7d, 0x7c, 0x94, 0x86, 0x95, 0x75,
  0x77, 0x94, 0x8e, 0x95, 0x7f, 0x83, 0x84, 0x7a, 0x8a, 0x8e, 0x7b, 0x77,
  0x9b, 0x7e, 0x88, 0x94, 0x94, 0x9b, 0x6d, 0x6c, 0x92, 0x96, 0xa9, 0x8b,
  0xac, 0xb6, 0x80, 0x66, 0x8e, 0x7b, 0x8d, 0x86, 0xa0, 0x82, 0x62, 0xa7,
  0x84, 0x8e, 0x7d, 0x8e, 0x77, 0x99, 0x88, 0xad, 0xa9, 0x96, 0x8b, 0x72,
  0x6f, 0x7e, 0x90, 0x8c, 0xa8, 0x5e, 0x8f, 0x9a, 0xa8, 0x72, 0x99, 0x8a,
  0x86, 0x65, 0x9a, 0xb0, 0x6f, 0x70, 0x86, 0x6c, 0x7b, 0x59, 0xa5, 0x6d,
  0x8f, 0x7f, 0x5c, 0x5a, 0xa5, 0x5e, 0xa0, 0x9c, 0x8b, 0x59, 0x6b, 0x5b,
  0x8d, 0x54, 0xa2, 0x9e, 0xae, 0x5e, 0x58, 0x6e, 0x6e, 0x5e, 0xbb, 0x84,
  0x99, 0x75, 0x64, 0x6a, 0x8a, 0x77, 0x88, 0xa3, 0xb7, 0x5e, 0x72, 0x7a,
  0xa6, 0x4f, 0x99, 0x62, 0x91, 0x51, 0x69, 0x6f, 0xa2, 0x78, 0x98, 0x7a,
  0x84, 0x4a, 0x5d, 0x74, 0x8f, 0x74, 0x9a, 0xa7, 0xa5, 0x8c, 0x87, 0x78,
  0x87, 0x82, 0xb7, 0x5e, 0x80, 0x65, 0x83, 0x68, 0x80, 0x99, 0x98, 0x97,
  0x8f, 0x8c, 0x7a, 0x8c, 0x75, 0x8f, 0xad, 0x93, 0x91, 0x79, 0xa4, 0x7a,
  0xb6, 0x96, 0x8c, 0x9c, 0x87, 0x93, 0x93, 0x6b, 0xab, 0x79, 0x91, 0xa0,
  0x99, 0x99, 0x6d, 0x93, 0x6d, 0x88, 0x92, 0x6e, 0xb3, 0x7f, 0x7c, 0x98,
  0x8a, 0x99, 0x94, 0x71, 0xa0, 0x9d, 0x93, 0x68, 0x9c, 0x74, 0xa6, 0x73,
  0xb7, 0x87, 0x77, 0x99, 0x8e, 0x92, 0x8f, 0x85, 0x90, 0x8c, 0xa6, 0xa1,
  0x89, 0x84, 0x89, 0xa6, 0x86, 0x6d, 0x8e, 0x87, 0xa8, 0x50, 0x95, 0x9a,
  0x94, 0x63, 0x7c, 0x6b, 0x7e, 0x55, 0x93, 0x85, 0xb1, 0x65, 0x8b, 0x5f,
  0x7a, 0x61, 0x9f, 0x5d, 0xaf, 0x59, 0x7b, 0x40, 0x93, 0x75, 0x8d, 0x9c,
  0x9c, 0x5e, 0x6d, 0x54, 0x88, 0x57, 0x81, 0x5c, 0xac, 0x55, 0x86, 0x63,
  0x81, 0x51, 0x9c, 0x76, 0xaa, 0x3e, 0x75, 0x7d, 0x90, 0x6f, 0xa7, 0x7c,
  0xa5, 0x64, 0x58, 0x74, 0xa3, 0x8e, 0xa0, 0x5c, 0xab, 0x58, 0x5e, 0x78,
  0x97, 0x6f, 0x91, 0x68, 0x91, 0x83, 0x5a, 0x6f, 0x7c, 0x99, 0x97, 0x74,
  0x90, 0x62, 0x7e, 0x80, 0x98, 0x88, 0xa7, 0x70, 0x8b, 0x72, 0x87, 0x8c,
  0xae, 0x79, 0x86, 0xa0, 0x95, 0x72, 0x9d, 0x72, 0x9f, 0x6d, 0xb4, 0x8a,
  0x98, 0x95, 0x94, 0x74, 0x7f, 0x9c, 0x91, 0x7b, 0x89, 0xa2, 0xa3, 0x88,
  0x8f, 0x7e, 0xb5, 0x85, 0xb9, 0x80, 0x66, 0x64, 0x95, 0x72, 0xa5, 0x89,
  0xaa, 0xa3, 0x5e, 0x8d, 0xa4, 0x71, 0xac, 0x6e, 0xa3, 0x80, 0x8c, 0x6b,
  0x6a, 0x6c, 0xa8, 0x6a, 0xb6, 0x9c, 0x66, 0x9c, 0xc1, 0x99, 0x75, 0x99,
  0xaf, 0x9a, 0x84, 0x99, 0x83, 0x8a, 0x8b, 0x9f, 0x74, 0x68, 0x99, 0x87,
  0xa5, 0x50, 0x8d, 0x8c, 0x93, 0x35, 0x85, 0x78, 0x6e, 0x49, 0x86, 0x7c,
  0xa0, 0x56, 0x74, 0x49, 0x7f, 0x58, 0xae, 0x99, 0xa9, 0x56, 0x77, 0x63,
  0xaf, 0x43, 0x9a, 0x9a, 0xb7, 0x70, 0x5f, 0x59, 0xb4, 0x6c, 0x8c, 0x62,
  0xa8, 0x60, 0x5e, 0x70, 0x98, 0x57, 0x81, 0x60, 0xb4, 0x5c, 0x7a, 0x89,
  0x9c, 0x68, 0x9b, 0x7f, 0xba, 0x6a, 0x6d, 0x50, 0xc3, 0x77, 0x95, 0x8d,
  0xa3, 0x54, 0x5e, 0x9b, 0x6e, 0x5d, 0x93, 0x73, 0xa3, 0x7b, 0x39, 0x94,
  0x92, 0x88, 0x87, 0x5e, 0x90, 0x79, 0x6d, 0xa4, 0x98, 0x78, 0x9b, 0x6e,
  0xb4, 0x52, 0x84, 0x70, 0xa0, 0x90, 0xaa, 0x9a, 0x92, 0x85, 0x85, 0x84,
  0x86, 0x75, 0xba, 0x96, 0xa4, 0x84, 0x69, 0x8f, 0x95, 0x73, 0xa4, 0x99,
  0x94, 0x71, 0x5d, 0x7d, 0x9a, 0x8a, 0xb3, 0x89, 0xae, 0x92, 0x6d, 0x65,
  0x97, 0x5c, 0x89, 0x66, 0x9e, 0x91, 0x88, 0x85, 0x79, 0x7b, 0xa2, 0x7d,
  0xab, 0x83, 0x74, 0x7c, 0x7c, 0x8e, 0x98, 0xa6, 0xb0, 0x7e, 0x6a, 0x91,
  0x9c, 0x8e, 0x79, 0x9f, 0x86, 0xa4, 0x69, 0xaa, 0x9c, 0x7d, 0x86, 0x8c,
  0x95, 0x64, 0x85, 0x7a, 0x95, 0x31, 0x90, 0xa5, 0x8b, 0x59, 0x8b, 0x94,
  0x82, 0x2b, 0xa0, 0x8d, 0x93, 0x5a, 0x98, 0x67, 0x7b, 0x6d, 0x99, 0x8d,
  0x89, 0x6b, 0x5b, 0x6d, 0x9a, 0x61, 0xac, 0x89, 0xa1, 0x2b, 0x73, 0x51,
  0xaf, 0x67, 0x83, 0x57, 0xc5, 0x44, 0x87, 0x8b, 0xa7, 0x72, 0xa0, 0x80,
  0xa1, 0x5c, 0x5f, 0x93, 0x99, 0x85, 0x87, 0x75, 0xaf, 0x45, 0x6f, 0x84,
  0xa6, 0x55, 0xa2, 0x7b, 0x9c, 0x66, 0x5d, 0x65, 0x89, 0x69, 0x75, 0x72,
  0xa9, 0x6a, 0x67, 0x64, 0x89, 0x96, 0xaf, 0x7a, 0x8f, 0x6f, 0x69, 0x7b,
  0x77, 0x76, 0x97, 0x7d, 0x87, 0x84, 0x59, 0x7a, 0x98, 0xa2, 0x9d, 0x94,
  0x82, 0x77, 0x85, 0xa2, 0x70, 0x79, 0x99, 0x7f, 0x9d, 0x82, 0x9d, 0x93,
  0xb8, 0x75, 0xa8, 0x7c, 0x9b, 0x67, 0x51, 0x78, 0x96, 0x7c, 0x98, 0x9d,
  0xae, 0x64, 0x7e, 0x8b, 0xb7, 0x5e, 0x90, 0x62, 0xa5, 0x75, 0x66, 0x95,
  0x65, 0x89, 0x88, 0x84, 0xae, 0x8a, 0x75, 0x59, 0xba, 0x69, 0x96, 0x75,
  0xbd, 0x75, 0x86, 0x9c, 0x9e, 0x9f, 0xc5, 0x88, 0xc4, 0x6c, 0xa8, 0x90,
  0x92, 0x95, 0x8a, 0xa5, 0xa1, 0x6b, 0x7a, 0x7b, 0xba, 0x31, 0x83, 0xb5,
  0xac, 0x56, 0x7f, 0x94, 0x80, 0x1b, 0x9b, 0x8f, 0x7b, 0x75, 0xa1, 0x56,
  0x87, 0x5c, 0x92, 0xb3, 0x94, 0x53, 0x6c, 0x4d, 0xbf, 0x51, 0xa3, 0x9a,
  0x82, 0x35, 0x60, 0x7c, 0xaa, 0x67, 0x92, 0x72, 0xbb, 0x60, 0x3c, 0x62,
  0x7d, 0x45, 0x86, 0x62, 0xa2, 0x6d, 0x7c, 0x75, 0x7f, 0x9a, 0x9f, 0x53,
  0x9b, 0x5c, 0x62, 0x77, 0xab, 0x68, 0x9c, 0x6e, 0xc3, 0x5a, 0x63, 0x78,
  0x9d, 0x6e, 0x8b, 0x76, 0x95, 0x7e, 0x63, 0x9b, 0x66, 0x7f, 0xad, 0x81,
  0x8c, 0x61, 0x62, 0x90, 0x7d, 0x94, 0x9d, 0x6b, 0xa2, 0x70, 0x92, 0x91,
  0x90, 0x71, 0x92, 0x81, 0x9d, 0x7c, 0x6b, 0x91, 0x61, 0x61, 0x9c, 0x94,
  0xb7, 0x7f, 0x88, 0x72, 0x88, 0x74, 0xa0, 0xae, 0xab, 0x87, 0x68, 0x6c,
  0x8e, 0x72, 0x84, 0x73, 0xae, 0x76, 0x86, 0x97, 0x7a, 0x75, 0x99, 0x8b,
  0xce, 0x91, 0x89, 0x5e, 0x99, 0x7a, 0x92, 0x98, 0xa1, 0x77, 0x83, 0x87,
  0x9e, 0x9a, 0xb8, 0x8f, 0x9c, 0x66, 0x64, 0x9a, 0xb1, 0x7e, 0xa3, 0xa4,
  0xb3, 0x9a, 0x78, 0x99, 0xb5, 0xbe, 0x69, 0x90, 0xa1, 0x5b, 0x90, 0x83,
  0xa9, 0x1c, 0x99, 0xa0, 0x9d, 0x3f, 0x6b, 0x69, 0x80, 0x20, 0x82, 0x9a,
  0xa3, 0x5c, 0x88, 0x71, 0x8a, 0x68, 0x8c, 0x82, 0x9f, 0x54, 0x4a, 0x5d,
  0xb5, 0x61, 0xa7, 0x84, 0x7e, 0x35, 0x66, 0x6d, 0x77, 0x80, 0x86, 0x72,
  0x98, 0x68, 0x74, 0x59, 0x94, 0x52, 0x8d, 0x57, 0xa4, 0x7a, 0x5e, 0x8a,
  0x81, 0x53, 0x7c, 0x81, 0xcd, 0x5c, 0x7e, 0x87, 0x96, 0x62, 0x9f, 0x62,
  0xbf, 0x3d, 0x46, 0x7d, 0x70, 0x5c, 0x97, 0x77, 0xb7, 0x62, 0x5e, 0x81,
  0x7d, 0x69, 0x9a, 0x59, 0xa9, 0x5a, 0x5d, 0xaf, 0x79, 0x87, 0x94, 0x9a,
  0xba, 0x6f, 0x8f, 0x99, 0x96, 0x6e, 0x90, 0xa2, 0xbe, 0x5c, 0x6f, 0x95,
  0x77, 0x5c, 0xa2, 0x96, 0xa3, 0x75, 0x7f, 0x84, 0x7a, 0x6b, 0xa5, 0x85,
  0x92, 0x72, 0x6d, 0xa6, 0xa2, 0x6f, 0x93, 0x82, 0xa9, 0x96, 0x64, 0x8c,
  0x7b, 0x7a, 0x96, 0x87, 0xbb, 0x71, 0x49, 0x7d, 0x67, 0x7d, 0xa5, 0x83,
  0xb6, 0x80, 0x7e, 0x90, 0x9a, 0x7c, 0xa7, 0x6d, 0x81, 0x6e, 0x5e, 0x91,
  0x9f, 0x6c, 0xb1, 0x80, 0xb8, 0x9c, 0x91, 0xab, 0x87, 0x82, 0x6f, 0x91,
  0x93, 0x3c, 0x7e, 0x93, 0xad, 0x1d, 0x8c, 0xb2, 0xa9, 0x60, 0x6b, 0x7a,
  0x7c, 0x14, 0x86, 0xcb, 0xaa, 0x65, 0x8e, 0x68, 0x93, 0x39, 0xa3, 0x9f,
  0x99, 0x5e, 0x67, 0x4a, 0xb1, 0x3c, 0x8a, 0x73, 0xaf, 0x40, 0x6f, 0x69,
  0x8c, 0x5b, 0x7f, 0x74, 0xba, 0x47, 0x63, 0x7d, 0x88, 0x63, 0x82, 0x77,
  0xb7, 0x72, 0x51, 0x79, 0x78, 0x6a, 0x94, 0x73, 0xc4, 0x5e, 0x67, 0x82,
  0x81, 0x72, 0x92, 0x80, 0x90, 0x62, 0x49, 0x87, 0x8e, 0x55, 0x8a, 0x55,
  0xb1, 0x62, 0x79, 0x8f, 0x73, 0x5b, 0x98, 0x73, 0x8f, 0x74, 0x68, 0x94,
  0x82, 0x7d, 0x93, 0x87, 0x9e, 0x65, 0x58, 0xa0, 0x6f, 0x7a, 0x98, 0x5e,
  0xbd, 0x9b, 0x72, 0x83, 0x96, 0x9d, 0x9e, 0xb1, 0xaa, 0x72, 0x8e, 0x98,
  0x83, 0x7a, 0xa5, 0x6f, 0x9e, 0x6a, 0x72, 0x6b, 0xa6, 0x70, 0x9c, 0x85,
  0xa6, 0x96, 0x67, 0x73, 0x8a, 0x95, 0x7b, 0xa6, 0xa2, 0x71, 0x93, 0x80,
  0x7d, 0x71, 0x93, 0x97, 0xa3, 0x7d, 0x52, 0x5f, 0x95, 0x7d, 0xb4, 0x94,
  0x93, 0x6c, 0x62, 0xa4, 0x8f, 0x97, 0xb3, 0x8f, 0xbd, 0xa0, 0x86, 0xa9,
  0xa5, 0x91, 0xaa, 0x69, 0x98, 0x41, 0x85, 0x7b, 0xa9, 0x13, 0x95, 0x97,
  0x96, 0x5e, 0x6e, 0x8d, 0x92, 0x17, 0x86, 0x81, 0xa2, 0x55, 0x74, 0x61,
  0x8b, 0x55, 0xac, 0x5e, 0x9f, 0x44, 0x40, 0x50, 0x90, 0x45, 0xa9, 0x41,
  0xa6, 0x5a, 0x63, 0x7b, 0xa6, 0x4d, 0x9b, 0x51, 0xa4, 0x52, 0x57, 0x82,
  0x6d, 0x6c, 0x98, 0x6b, 0xab, 0x51, 0x5e, 0x69, 0x7b, 0x74, 0x94, 0x79,
  0xbd, 0x63, 0x3f, 0x5b, 0x82, 0x75, 0x7b, 0x68, 0xba, 0x5f, 0x38, 0x66,
  0x82, 0x66, 0xa3, 0x63, 0xaf, 0x59, 0x7f, 0x9c, 0x84, 0x8c, 0x80, 0x78,
  0xaf, 0x62, 0x64, 0x82, 0x80, 0x93, 0x8e, 0x50, 0xb6, 0x74, 0x6d, 0x7f,
  0x92, 0x8b, 0x97, 0x6b, 0xca, 0x6a, 0x6f, 0x7b, 0x70, 0x6d, 0xa1, 0x8c,
  0xa1, 0x70, 0x79, 0x97, 0x88, 0x63, 0x99, 0x82, 0xaf, 0x8a, 0x85, 0x94,
  0x8a, 0x86, 0x75, 0x75, 0xb2, 0x99, 0x4a, 0x89, 0x88, 0x5a, 0x98, 0x71,
  0xb7, 0x64, 0x65, 0x59, 0x6a, 0x6a, 0xa8, 0x77, 0x8d, 0x71, 0x8a, 0x6d,
  0x86, 0x75, 0xaf, 0xa3, 0x90, 0x88, 0x7a, 0x7e, 0x7a, 0x7b, 0xae, 0x74,
  0x7c, 0x78, 0x65, 0xa4, 0x90, 0x8b, 0x81, 0x7b, 0xb3, 0x35, 0x6f, 0x6a,
  0xb4, 0x25, 0x9c, 0xc2, 0x9d, 0x61, 0x82, 0x5f, 0x9b, 0x28, 0x95, 0x8b,
  0x93, 0x60, 0x72, 0x6c, 0x89, 0x5c, 0xa3, 0x9f, 0x7f, 0x5e, 0x7c, 0x4c,
  0xb3, 0x68, 0xa1, 0x7f, 0x9f, 0x5b, 0x53, 0x8b, 0x9d, 0x52, 0x92, 0x3c,
  0x94, 0x58, 0x5b, 0x5b, 0x9e, 0x53, 0x81, 0x6b, 0xaa, 0x5a, 0x6f, 0x99,
  0xa4, 0x44, 0xb0, 0x71, 0x9c, 0x51, 0x5f, 0x7e, 0xac, 0x60, 0x90, 0x74,
  0x9b, 0x46, 0x5a, 0x76, 0x86, 0x9d, 0x72, 0x5b, 0x9d, 0x6d, 0x53, 0xa5,
  0x6d, 0x87, 0x79, 0x44, 0xa7, 0x50, 0x86, 0x8a, 0x63, 0x8f, 0xb6, 0x5c,
  0xa0, 0x6b, 0x68, 0x78, 0xac, 0x5d, 0xa4, 0x8c, 0xa8, 0x83, 0x69, 0xa1,
  0x74, 0x62, 0x8e, 0x88, 0x96, 0x73, 0x70, 0xa7, 0x9e, 0x81, 0xb0, 0x7c,
  0x89, 0x72, 0x6c, 0x86, 0xa8, 0x81, 0xa4, 0x90, 0xb7, 0x7d, 0x5b, 0x73,
  0x74, 0x78, 0x8a, 0x98, 0xa6, 0x97, 0x78, 0x7d, 0x79, 0x89, 0x92, 0x8f,
  0xb9, 0x87, 0x64, 0x5e, 0x81, 0x9c, 0xa6, 0x76, 0xaf, 0x85, 0x68, 0x98,
  0x95, 0x7b, 0x9a, 0x94, 0xb5, 0x87, 0x75, 0xb0, 0x9d, 0x83, 0x95, 0x73,
  0xad, 0x54, 0x84, 0x7f, 0xbf, 0x2f, 0xa8, 0xba, 0x9c, 0x58, 0x70, 0x71,
  0x94, 0x18, 0xa5, 0x9d, 0x7b, 0x63, 0x9a, 0x52, 0x97, 0x4f, 0x9e, 0x90,
  0x97, 0x5f, 0x52, 0x52, 0xba, 0x41, 0x8c, 0x46, 0x76, 0x2b, 0x4c, 0x79,
  0x98, 0x64, 0x99, 0x47, 0x9d, 0x4c, 0x3f, 0x74, 0x8b, 0x7c, 0x95, 0x5b,
  0x9f, 0x41, 0x5f, 0x6c, 0x86, 0x88, 0x7c, 0x76, 0x99, 0x70, 0x56, 0x9c,
  0x88, 0x6f, 0x98, 0x76, 0x97, 0x3b, 0x5a, 0x7c, 0x88, 0x6b, 0x87, 0x72,
  0xb8, 0x80, 0x72, 0x86, 0x84, 0x78, 0x84, 0x68, 0x91, 0x58, 0x6f, 0x89,
  0x91, 0x7f, 0x82, 0x67, 0x9b, 0x64, 0x8a, 0x8a, 0xa1, 0x81, 0x88, 0x64,
  0xb9, 0x79, 0x76, 0xb0, 0x90, 0x71, 0x9d, 0x8d, 0xaf, 0x76, 0x7a, 0x85,
  0x7e, 0x83, 0xa0, 0x90, 0xb0, 0x77, 0x78, 0x6e, 0x8e, 0x7d, 0x87, 0x50,
  0xd5, 0x71, 0x5c, 0x8d, 0x8e, 0x8a, 0x87, 0x57, 0x9e, 0x78, 0x83, 0x63,
  0x8e, 0x87, 0xa6, 0x5c, 0xba, 0x5d, 0x64, 0x94, 0x85, 0x6e, 0xb1, 0x9f,
  0xae, 0xa7, 0x5f, 0x96, 0x78, 0x8f, 0x9b, 0xa4, 0x9e, 0x91, 0x73, 0xa5,
  0x86, 0x87, 0x8a, 0x8a, 0x9a, 0x4e, 0x8e, 0x6d, 0xc4, 0x2b, 0x9b, 0x93,
  0x81, 0x6c, 0x68, 0x81, 0x94, 0x0f, 0xb2, 0x93, 0xa3, 0x56, 0x62, 0x4f,
  0x7e, 0x61, 0xa8, 0x8d, 0xa6, 0x4e, 0x5d, 0x30, 0x92, 0x52, 0x91, 0x6c,
  0x8c, 0x49, 0x57, 0x68, 0xc5, 0x79, 0xa3, 0x31, 0xac, 0x51, 0x43, 0x74,
  0x95, 0x45, 0x79, 0x5b, 0xb2, 0x57, 0x8b, 0x73, 0x85, 0x5e, 0x99, 0x3e,
  0x91, 0x3b, 0x70, 0x51, 0xab, 0x6b, 0x83, 0x4d, 0xa2, 0x48, 0x4d, 0x7a,
  0xb2, 0x8a, 0x8d, 0x60, 0xbc, 0x5b, 0x48, 0x85, 0xa9, 0x65, 0x82, 0x74,
  0xa2, 0x76, 0x53, 0x8e, 0x77, 0x81, 0x7e, 0x4c, 0xa6, 0x61, 0x6a, 0x6f,
  0x7d, 0x8a, 0xa6, 0x78, 0xbe, 0x74, 0x8f, 0x9e, 0x89, 0x67, 0xa3, 0x88,
  0xb5, 0x7f, 0x73, 0xa3, 0x82, 0x66, 0xa8, 0x82, 0xbb, 0x77, 0x62, 0x96,
  0x74, 0x7e, 0xa3, 0x45, 0xbe, 0x61, 0x71, 0x8f, 0x66, 0x8b, 0x79, 0x7f,
  0x9d, 0x98, 0x82, 0x77, 0x82, 0x92, 0xa9, 0x8b, 0x96, 0x7a, 0x68, 0x7d,
  0x71, 0x72, 0xb1, 0x52, 0x96, 0xa3, 0x93, 0x94, 0x9c, 0x78, 0x94, 0x7f,
  0xa2, 0x68, 0x6a, 0xa5, 0x89, 0xa9, 0x71, 0x62, 0xa3, 0x4f, 0x90, 0x8d,
  0xb2, 0x08, 0xad, 0xc2, 0x9c, 0x55, 0x6d, 0x85, 0x91, 0x11, 0x99, 0xa9,
  0x95, 0x4d, 0x7e, 0x4b, 0x9d, 0x62, 0xb8, 0x94, 0x6f, 0x3b, 0x49, 0x4f,
  0xb5, 0x35, 0xa3, 0x88, 0xa0, 0x41, 0x58, 0x59, 0xd0, 0x67, 0x93, 0x60,
  0x8e, 0x4c, 0x51, 0x7c, 0x92, 0x6e, 0x97, 0x45, 0xc0, 0x35, 0x5f, 0x76,
  0x6e, 0x5c, 0x81, 0x70, 0x92, 0x57, 0x50, 0x77, 0x9d, 0x63, 0xa3, 0x57,
  0x99, 0x70, 0x5b, 0x6e, 0xa8, 0x6f, 0x71, 0x45, 0xbe, 0x57, 0x67, 0x7b,
  0xa5, 0x86, 0x8f, 0x43, 0xad, 0x89, 0x7f, 0x8e, 0x72, 0x95, 0x96, 0x64,
  0xab, 0x8c, 0x7f, 0x6f, 0x95, 0x62, 0x9b, 0x89, 0x97, 0x89, 0x6f, 0x93,
  0xa0, 0x83, 0xaa, 0x8e, 0x9c, 0x6c, 0x60, 0x8a, 0x96, 0x78, 0xb4, 0x84,
  0xa4, 0x6f, 0x9b, 0x78, 0x91, 0x63, 0xae, 0x82, 0xaf, 0xa0, 0x81, 0x7b,
  0x86, 0x69, 0x90, 0x65, 0xaa, 0x6c, 0x64, 0x75, 0x76, 0x7c, 0x9b, 0x5d,
  0xc4, 0x7c, 0x7b, 0x7b, 0x8a, 0x88, 0x9f, 0x6a, 0x9f, 0x81, 0x82, 0x7d,
  0x94, 0x88, 0xa5, 0x6e, 0x91, 0x77, 0x83, 0xb2, 0x7e, 0x8b, 0x96, 0x99,
  0x9b, 0x48, 0x85, 0x95, 0xc7, 0x3b, 0xad, 0xd0, 0xab, 0x38, 0x6b, 0x58,
  0x94, 0x24, 0x96, 0xaf, 0x95, 0x6d, 0x79, 0x60, 0xa0, 0x67, 0xae, 0x87,
  0x86, 0x50, 0x5a, 0x47, 0xb3, 0x52, 0xc3, 0x4d, 0x73, 0x54, 0x4c, 0x84,
  0xb0, 0x68, 0xaa, 0x5b, 0xa3, 0x5a, 0x6a, 0x46, 0x7d, 0x74, 0x89, 0x53,
  0xab, 0x56, 0x5e, 0x5f, 0x90, 0x80, 0xa3, 0x5f, 0xc8, 0x52, 0x60, 0x54,
  0x97, 0x6c, 0xa8, 0x6f, 0xa6, 0x49, 0x4b, 0x57, 0x98, 0x7b, 0x85, 0x34,
  0x94, 0x73, 0x78, 0x86, 0x6c, 0x95, 0x90, 0x36, 0xa9, 0x6c, 0x6a, 0x82,
  0x86, 0x7e, 0x9b, 0x5e, 0xa9, 0x62, 0x55, 0x7d, 0x92, 0x74, 0x9a, 0x8d,
  0xa4, 0x51, 0x6e, 0x93, 0x9c, 0x82, 0xbe, 0x7f, 0xa0, 0x8c, 0x65, 0x77,
  0x91, 0x99, 0x9a, 0x70, 0x95, 0x7e, 0x8c, 0xa0, 0x84, 0x72, 0x96, 0x5a,
  0xae, 0x66, 0x56, 0x9b, 0x8f, 0x5c, 0x9f, 0x7d, 0xa7, 0x87, 0x66, 0x6b,
  0x6b, 0x7a, 0xa8, 0x69, 0xa0, 0x70, 0x7b, 0x7d, 0x71, 0x84, 0xa5, 0x70,
  0x8b, 0x89, 0x8a, 0x80, 0x7c, 0x76, 0x98, 0x84, 0xad, 0x98, 0xb0, 0xab,
  0xa4, 0x6e, 0x6d, 0xa5, 0x9c, 0x50, 0x9a, 0x80, 0xcc, 0x32, 0xb4, 0xb7,
  0xac, 0x55, 0x6e, 0x85, 0xb1, 0x29, 0xb5, 0xb6, 0x8c, 0x68, 0x9e, 0x56,
  0x94, 0x6b, 0xad, 0x93, 0x71, 0x36, 0x57, 0x4f, 0xdb, 0x41, 0xa8, 0x62,
  0x93, 0x34, 0x48, 0x72, 0xb0, 0x71, 0x90, 0x1d, 0xa1, 0x38, 0x67, 0x6a,
  0x9c, 0x5f, 0x8c, 0x5e, 0xaf, 0x3d, 0x6c, 0x67, 0x6e, 0x6f, 0xa8, 0x5f,
  0x8f, 0x6a, 0x70, 0x48, 0xad, 0x86, 0x7d, 0x6f, 0xa3, 0x7b, 0x5b, 0x57,
  0x95, 0x83, 0x9e, 0x3e, 0xb2, 0x4e, 0x62, 0x76, 0x89, 0x87, 0x91, 0x60,
  0x8c, 0x5e, 0x7a, 0xa5, 0x75, 0x8f, 0x9c, 0x4f, 0x98, 0x7b, 0x93, 0x61,
  0x8a, 0x83, 0xa1, 0x60, 0xa4, 0x5f, 0x6f, 0xa1, 0x84, 0x9a, 0xbd, 0xa5,
  0x93, 0x81, 0x81, 0x74, 0x88, 0x81, 0xb1, 0x74, 0x99, 0x90, 0x86, 0x77,
  0xa8, 0x78, 0xad, 0x4a, 0xbd, 0x7b, 0x60, 0x90, 0x70, 0x79, 0x9a, 0x4b,
  0xa8, 0x9b, 0x8f, 0x74, 0x6e, 0x82, 0x9f, 0x5c, 0xcb, 0x6f, 0x8b, 0x9d,
  0x6b, 0x78, 0xaa, 0x69, 0xb0, 0x98, 0x7a, 0x99, 0x7e, 0x66, 0xaf, 0x8c,
  0xa0, 0x84, 0x98, 0xab, 0x7d, 0x7e, 0x86, 0x94, 0xa5, 0x4d, 0x9a, 0x8d,
  0xdf, 0x3b, 0x9c, 0xb5, 0x96, 0x43, 0x7b, 0x69, 0x9f, 0x1a, 0x9d, 0xc4,
  0xa1, 0x62, 0xa4, 0x4f, 0x87, 0x79, 0x8c, 0x95, 0x8b, 0x4c, 0x55, 0x26,
  0xd8, 0x68, 0x79, 0x4a, 0x9c, 0x4c, 0x33, 0x54, 0xc2, 0x54, 0x93, 0x2c,
  0x8e, 0x51, 0x4b, 0x44, 0xae, 0x5f, 0x9d, 0x50, 0xa1, 0x57, 0x4d, 0x4d,
  0x6c, 0x58, 0x82, 0x49, 0x9f, 0x58, 0x3f, 0x76, 0x8f, 0x8c, 0x7b, 0x3d,
  0x8d, 0x61, 0x55, 0x45, 0xab, 0x82, 0x99, 0x75, 0x9b, 0x63, 0x6a, 0x8b,
  0x93, 0x89, 0x99, 0x42, 0xa2, 0x6a, 0x65, 0x6b, 0x6a, 0x96, 0x8a, 0x43,
  0x96, 0x7a, 0x49, 0x79, 0x77, 0x7f, 0xa4, 0x75, 0xa9, 0x6c, 0x85, 0x97,
  0x92, 0x71, 0x9e, 0x73, 0xb1, 0x78, 0x9e, 0x7f, 0x89, 0x80, 0xa3, 0x7c,
  0x93, 0x85, 0x9c, 0x7e, 0x89, 0x8a, 0x86, 0x6b, 0xa6, 0x74, 0x99, 0x7a,
  0x88, 0x7f, 0x82, 0x62, 0xc0, 0x88, 0x92, 0x70, 0x60, 0x7b, 0x89, 0x6c,
  0xc5, 0x82, 0x5c, 0x89, 0x73, 0x7b, 0xb3, 0x70, 0x97, 0x95, 0x5e, 0x96,
  0x7b, 0x8f, 0x93, 0x71, 0xb4, 0x73, 0x74, 0xa9, 0xa1, 0x8d, 0x73, 0x77,
  0xa8, 0x46, 0xa8, 0x71, 0xe9, 0x4d, 0x7b, 0xd3, 0x98, 0x54, 0x7c, 0x64,
  0x85, 0x24, 0x88, 0xc8, 0x79, 0x49, 0x86, 0x4f, 0x81, 0x4e, 0x8b, 0xa8,
  0x7b, 0x5e, 0x5a, 0x23, 0xaf, 0x51, 0x81, 0x64, 0x90, 0x47, 0x3e, 0x56,
  0xba, 0x69, 0x7a, 0x5a, 0xb6, 0x38, 0x41, 0x51, 0x85, 0x4f, 0x8b, 0x52,
  0x9d, 0x58, 0x58, 0x5c, 0x7f, 0x5f, 0x85, 0x5b, 0x96, 0x60, 0x5f, 0x55,
  0xb7, 0x5a, 0x86, 0x50, 0xa6, 0x48, 0x44, 0x4c, 0xa4, 0x89, 0x6c, 0x6c,
  0xbd, 0x78, 0x5c, 0x74, 0x92, 0x7f, 0x74, 0x48, 0x96, 0x44, 0x80, 0x8d,
  0x72, 0x98, 0x82, 0x55, 0x92, 0x6b, 0x74, 0x7d, 0x90, 0x97, 0x96, 0x85,
  0xa5, 0x49, 0x74, 0x82, 0x81, 0x80, 0x9f, 0x97, 0xc1, 0x95, 0x8c, 0x87,
  0x86, 0x7a, 0xad, 0x82, 0xa9, 0x84, 0x6e, 0x70, 0x9a, 0x6d, 0x7a, 0x65,
  0xad, 0x8f, 0x65, 0x60, 0x96, 0x98, 0x85, 0x78, 0xaa, 0x87, 0x4f, 0x79,
  0x77, 0x8c, 0x8c, 0x74, 0xaf, 0x72, 0x85, 0x7b, 0x72, 0x5c, 0xad, 0x5c,
  0xaf, 0x8e, 0x8d, 0x76, 0x93, 0x76, 0x8e, 0x67, 0xbb, 0x80, 0x93, 0xb6,
  0x9d, 0x81, 0x8b, 0x7e, 0x9f, 0x8a, 0xc4, 0x7d, 0xf0, 0x15, 0x78, 0xbd,
  0x8f, 0x4a, 0x90, 0x72, 0xac, 0x0d, 0x88, 0x94, 0x78, 0x4a, 0xad, 0x4c,
  0xcb, 0x4d, 0xbe, 0x9c, 0xaa, 0x5a, 0x5f, 0x21, 0xbc, 0x4c, 0xa2, 0x90,
  0x96, 0x3c, 0x7a, 0x6e, 0xad, 0x5e, 0x7a, 0x59, 0xaa, 0x56, 0x6f, 0x6a,
  0xc9, 0x65, 0x7a, 0x4f, 0x88, 0x50, 0x5f, 0x68, 0xb1, 0x54, 0x80, 0x67,
  0x97, 0x52, 0x52, 0x5a, 0xb9, 0x77, 0x8e, 0x61, 0xae, 0x2b, 0x58, 0x4c,
  0xb1, 0x6a, 0x7b, 0x42, 0xa9, 0x5a, 0x4f, 0x79, 0x8b, 0x67, 0x71, 0x45,
  0x9e, 0x53, 0x5d, 0x7e, 0xaf, 0xa9, 0x88, 0x7d, 0xae, 0x70, 0x96, 0x61,
  0x8e, 0x87, 0x8d, 0x63, 0xbb, 0x75, 0x87, 0x8d, 0x83, 0x70, 0x90, 0x92,
  0xa2, 0x8d, 0x68, 0x97, 0x8f, 0xa1, 0x82, 0x76, 0xb0, 0x82, 0x78, 0x7d,
  0xa9, 0x66, 0x96, 0x68, 0xb8, 0x89, 0x63, 0x64, 0xa6, 0x7a, 0x76, 0x6e,
  0xad, 0x78, 0x6a, 0x66, 0x95, 0xad, 0xab, 0x79, 0xc3, 0x8e, 0x62, 0x72,
  0x81, 0x89, 0xb7, 0x75, 0x9a, 0xac, 0x96, 0x7f, 0x76, 0x8a, 0xa1, 0x9a,
  0xb2, 0x92, 0x8a, 0xb1, 0x81, 0x8c, 0x88, 0x7c, 0x81, 0x9d, 0xc0, 0x79,
  0xfc, 0x20, 0x95, 0xde, 0xa1, 0x80, 0xa7, 0xb1, 0x90, 0x33, 0xab, 0xb6,
  0x9d, 0x5c, 0xa9, 0x91, 0x80, 0x66, 0x99, 0xa5, 0x9e, 0x50, 0x97, 0x6e,
  0x88, 0x55, 0x91, 0x9e, 0x80, 0x52, 0x9e, 0x9a, 0x76, 0x6c, 0x9c, 0x7a,
  0x79, 0x37, 0x8c, 0x98, 0x71, 0x66, 0x61, 0x63, 0x8f, 0x61, 0x72, 0xad,
  0x92, 0x7a, 0x84, 0x5b, 0x7d, 0x64, 0x5c, 0x74, 0x6a, 0x7f, 0x7c, 0x91,
  0x8f, 0x61, 0x6a, 0x86, 0x71, 0x93, 0x72, 0x73, 0x75, 0x79, 0x7a, 0x7a,
  0x7d, 0x95, 0x98, 0x86, 0x87, 0x72, 0x8f, 0x90, 0x82, 0x85, 0x81, 0x5d,
  0x84, 0x79, 0x7b, 0x91, 0x86, 0x8a, 0x8b, 0x5c, 0x8e, 0x92, 0x86, 0xba,
  0x84, 0x67, 0xa8, 0xa3, 0x9d, 0x9f, 0x94, 0xc3, 0x86, 0x8a, 0x94, 0x7b,
  0xbb, 0x92, 0x9a, 0x81, 0x8a, 0x94, 0xa1, 0x85, 0xac, 0x8e, 0x8b, 0x73,
  0x97, 0x95, 0xa1, 0x81, 0x91, 0x7c, 0x82, 0x82, 0x84, 0x81, 0xbb, 0x75,
  0xa2, 0x97, 0x93, 0x7f, 0x57, 0x79, 0x97, 0x6f, 0xa0, 0x98, 0x86, 0xa4,
  0x85, 0xb9, 0x83, 0x90, 0xa6, 0x6c, 0x72, 0xbd, 0x88, 0x84, 0x7e, 0x97,
  0x74, 0x90, 0x98, 0xb4, 0xc6, 0x59, 0x7e, 0xd6, 0x4e, 0x6d, 0x75, 0xee,
  0x69, 0x1c, 0x70, 0x8d, 0x78, 0x64, 0xba, 0xb3, 0x85, 0x52, 0x92, 0xa3,
  0x6c, 0x4e, 0x6f, 0xbb, 0xb5, 0x52, 0x69, 0x64, 0x8b, 0x6e, 0x93, 0xcf,
  0x85, 0x37, 0x69, 0x73, 0x9a, 0x5d, 0x75, 0xd6, 0x72, 0x7c, 0x5c, 0x71,
  0x4b, 0x74, 0x6a, 0xd3, 0x73, 0x69, 0x73, 0x5b, 0x83, 0x6c, 0x88, 0xaf,
  0xa6, 0x59, 0x56, 0x9c, 0x78, 0x57, 0x69, 0xa0, 0x9b, 0x5e, 0x96, 0x6e,
  0x61, 0x8c, 0x69, 0xbe, 0x67, 0x4c, 0x85, 0x75, 0x7e, 0x7e, 0x74, 0xd6,
  0x7a, 0x5a, 0x63, 0x76, 0x69, 0x74, 0x8e, 0xcd, 0x82, 0x8a, 0x76, 0x8c,
  0xa5, 0x91, 0x65, 0xbb, 0x83, 0x82, 0x75, 0xa5, 0x60, 0x93, 0x8d, 0xd1,
  0x99, 0x71, 0x9f, 0x9e, 0x67, 0x84, 0x7f, 0xb6, 0x8b, 0x89, 0x94, 0x6d,
  0x8b, 0x90, 0x91, 0xa5, 0xa4, 0x6c, 0x8a, 0x7e, 0x85, 0xb5, 0x8e, 0xb8,
  0x9a, 0x93, 0x93, 0x77, 0x7e, 0x9c, 0x92, 0xa8, 0xac, 0x93, 0x6d, 0x73,
  0x77, 0xa6, 0x5e, 0xbd, 0x64, 0x71, 0xa8, 0x9a, 0x84, 0x8d, 0x7b, 0xc6,
  0xa1, 0x9d, 0x9b, 0x78, 0x98, 0x81, 0x78, 0x68, 0x7e, 0x8a, 0x8c, 0x70,
  0x79, 0x93, 0x9a, 0x8e, 0x9c, 0x87, 0x94, 0x8a, 0x8e, 0x9b, 0x71, 0x9b,
  0x6d, 0x7a, 0x8f, 0x80, 0xa1, 0x8f, 0x62, 0x8a, 0x91, 0x94, 0x80, 0x72,
  0x96, 0x91, 0xa4, 0x9a, 0x64, 0x84, 0x8c, 0x72, 0x92, 0xb3, 0xa1, 0x67,
  0x92, 0x7e, 0x88, 0x7c, 0x86, 0x7b, 0x68, 0xa8, 0x5e, 0x91, 0x85, 0x8b,
  0x9b, 0x7f, 0x78, 0x96, 0x6b, 0xa2, 0x9c, 0x90, 0xa5, 0x77, 0x89, 0x98,
  0xaf, 0x87, 0x9f, 0x88, 0x81, 0x66, 0x81, 0xa4, 0x81, 0x84, 0x9e, 0x8b,
  0x91, 0x93, 0xb1, 0x7b, 0x7d, 0x95, 0x88, 0x8c, 0x8a, 0x6e, 0x77, 0x81,
  0x9e, 0x82, 0x9e, 0x94, 0x74, 0x60, 0x7d, 0x84, 0x5e, 0x6c, 0x98, 0x9b,
  0x91, 0xb6, 0x62, 0x76, 0x7e, 0x80, 0x90, 0x81, 0x89, 0x93, 0x89, 0x9e,
  0x8d, 0x8a, 0xac, 0x82, 0x7b, 0x82, 0x89, 0x86, 0x75, 0xa0, 0x99, 0x9b,
  0x84, 0x8d, 0x89, 0xa2, 0x8c, 0x78, 0x98, 0x79, 0x8d, 0x88, 0x84, 0xa8,
  0x83, 0x9b, 0x8c, 0x63, 0x7c, 0x98, 0x7f, 0x9f, 0x97, 0x7d, 0x92, 0x87,
  0x92, 0x76, 0x92, 0x7b, 0x8c, 0x9e, 0x87, 0xa5, 0x6f, 0x7d, 0xa1, 0x89,
  0x7a, 0x9a, 0x8b, 0x79, 0x9a, 0x85, 0x83, 0x8d, 0x7d, 0x96, 0x74, 0x95,
  0x74, 0x81, 0x85, 0x85, 0x88, 0x8e, 0x8b, 0x8c, 0x98, 0x7a, 0x92, 0xa6,
  0x65, 0x85, 0x95, 0x82, 0x93, 0x99, 0xa0, 0x7e, 0x8f, 0x7a, 0x8f, 0x7b,
  0x6c, 0x59, 0x95, 0x7b, 0x7a, 0x7e, 0x88, 0x96, 0x7d, 0x92, 0x7e, 0x60,
  0x85, 0x7e, 0x7f, 0x78, 0xa3, 0x68, 0xb3, 0x7a, 0x77, 0x6f, 0x81, 0x7b,
  0x83, 0x6c, 0x7c, 0x79, 0x88, 0x90, 0x91, 0x97, 0x88, 0x8b, 0x8e, 0xa7,
  0xa1, 0x7c, 0x97, 0x79, 0x8c, 0x73, 0x96, 0xa9, 0x7f, 0x7e, 0x88, 0x82,
  0x76, 0x7b, 0xac, 0x98, 0x8c, 0x99, 0xa0, 0x72, 0x81, 0x74, 0x93, 0x65,
  0x94, 0x71, 0x95, 0x7f, 0x8d, 0x64, 0x64, 0x7e, 0x82, 0x80, 0x9d, 0x6a,
  0x99, 0x94, 0x8d, 0x7e, 0x6c, 0x74, 0x86, 0x7d, 0x8a, 0x93, 0xa4, 0x91,
  0x81, 0x7e, 0x87, 0x81, 0x7c, 0x7c, 0x73, 0x72, 0x8c, 0x88, 0x9e, 0x69,
  0x71, 0x88, 0x86, 0x6e, 0xa4, 0x6b, 0x91, 0x90, 0x82, 0x80, 0x7f, 0x97,
  0x65, 0x77, 0x7d, 0x8a, 0x6a, 0xa9, 0xa6, 0x94, 0x90, 0x9d, 0x61, 0x88,
  0x97, 0x83, 0xab, 0x80, 0x80, 0xa7, 0x8c, 0x7a, 0x6c, 0x8b, 0x8a, 0x7b,
  0x7a, 0xa8, 0x76, 0x8d, 0x82, 0x76, 0x8b, 0x90, 0xa8, 0x9a, 0x88, 0x87,
  0xa3, 0xaa, 0x97, 0x68, 0x64, 0x83, 0x8b, 0x81, 0x87, 0x87, 0x76, 0x6c,
  0x8f, 0x83, 0x94, 0x85, 0x7b, 0x90, 0x97, 0x76, 0x7e, 0x6b, 0x78, 0x98,
  0x8d, 0x9a, 0x96, 0x79, 0x61, 0x88, 0x78, 0xaf, 0x89, 0x80, 0x97, 0x9f,
  0x6c, 0x84, 0x79, 0x88, 0x72, 0x8d, 0x61, 0x98, 0x95, 0x81, 0xa0, 0x77,
  0x7e, 0x96, 0x76, 0x79, 0xa0, 0x78, 0x80, 0x89, 0x7c, 0x88, 0x7c, 0x77,
  0x79, 0x8a, 0x96, 0x79, 0x8d, 0x97, 0x86, 0x6c, 0x84, 0x8c, 0x84, 0x82,
  0x6f, 0x8d, 0x7a, 0x77, 0x95, 0x80, 0x73, 0x94, 0x7a, 0x9d, 0x82, 0x7d,
  0x85, 0x8f, 0x8a, 0x8d, 0x73, 0x6e, 0x95, 0x6a, 0x70, 0x84, 0x93, 0x68,
  0x67, 0x7d, 0x80, 0xa7, 0xa1, 0x80, 0xaa, 0x81, 0x88, 0x7f, 0x62, 0x96,
  0x7e, 0x74, 0x88, 0x69, 0x98, 0x82, 0x63, 0x8a, 0x6c, 0x8a, 0x91, 0x89,
  0x87, 0x92, 0x91, 0xa1, 0x7f, 0x83, 0x7d, 0xaa, 0x73, 0x7f, 0xb0, 0xa7,
  0x78, 0x79, 0x9f, 0x7e, 0x9a, 0x9c, 0xa8, 0x85, 0x87, 0x8f, 0x83, 0x84,
  0x6f, 0x89, 0x7b, 0x6c, 0x69, 0x90, 0x83, 0x88, 0x81, 0xa1, 0x71, 0xa6,
  0xb6, 0x8a, 0x7e, 0xa7, 0x70, 0x98, 0x82, 0x89, 0x89, 0x83, 0x7b, 0xa4,
  0x92, 0x8d, 0x7d, 0x8a, 0x8b, 0x86, 0x7a, 0x93, 0x8b, 0x92, 0x70, 0x92,
  0x6e, 0x90, 0x6c, 0x6e, 0x83, 0x85, 0x8a, 0x9c, 0xa9, 0x7f, 0x73, 0x99,
  0x8a, 0x8a, 0x7f, 0xa7, 0x91, 0x89, 0x80, 0xa3, 0x77, 0x87, 0x9b, 0xb2,
  0x78, 0x98, 0x9d, 0x83, 0x8d, 0x7e, 0x63, 0x89, 0x68, 0x94, 0x9a, 0x8c,
  0x8a, 0x81, 0x83, 0x75, 0x8f, 0x8e, 0x8a, 0x8d, 0x85, 0x6c, 0xb0, 0xa6,
  0x5e, 0x93, 0x80, 0x8c, 0x83, 0x7c, 0x97, 0x81, 0x83, 0x90, 0x89, 0x6b,
  0x78, 0x77, 0x86, 0x88, 0x5b, 0x7f, 0x75, 0xa3, 0xa2, 0x6f, 0x7e, 0x8b,
  0x7e, 0x92, 0x98, 0x8b, 0x66, 0x9c, 0x72, 0x73, 0x82, 0x8f, 0x98, 0x67,
  0x6f, 0x82, 0x86, 0xa5, 0x72, 0x71, 0x92, 0x76, 0x79, 0x98, 0xa5, 0x73,
  0x68, 0x8a, 0x9d, 0x75, 0x80, 0xad, 0x89, 0x99, 0x92, 0x92, 0x77, 0x7b,
  0x84, 0xa7, 0x8d, 0x90, 0x96, 0x82, 0x8c, 0x73, 0x7b, 0x9e, 0x9e, 0x7b,
  0x87, 0x8e, 0x86, 0x83, 0x80, 0x94, 0x86, 0x90, 0x6d, 0x9e, 0x83, 0x7e,
  0x7d, 0x90, 0x85, 0xb3, 0xa8, 0xaa, 0x8a, 0x7c, 0xa4, 0x83, 0x7d, 0xa1,
  0x59, 0x91, 0x8f, 0x73, 0x8d, 0x9d, 0x81, 0x8f, 0xa3, 0x74, 0x7f, 0x85,
  0x62, 0x82, 0x9e, 0x92, 0x82, 0x68, 0x76, 0x8e, 0xa1, 0x8f, 0x8a, 0x7f,
  0x80, 0x86, 0x80, 0x84, 0x7a, 0x7e, 0x8d, 0xa5, 0xac, 0x99, 0x83, 0x66,
  0x73, 0x85, 0x85, 0xae, 0x89, 0x8c, 0x95, 0x5a, 0x8a, 0x87, 0x80, 0x85,
  0x7f, 0x8c, 0x9d, 0x86, 0x7a, 0x84, 0x78, 0x91, 0x9a, 0x82, 0x92, 0x8c,
  0x94, 0x66, 0x87, 0xae, 0x7b, 0x7b, 0x7d, 0x89, 0x80, 0x76, 0x7c, 0x8c,
  0x98, 0x83, 0x78, 0x7e, 0x84, 0x90, 0x86, 0x83, 0x57, 0x8a, 0x74, 0x85,
  0x81, 0x79, 0x8c, 0x87, 0x9b, 0xa3, 0x98, 0x94, 0x68, 0x84, 0x85, 0x99,
  0x7b, 0x91, 0x9c, 0x6e, 0x91, 0x6c, 0x72, 0x97, 0x69, 0x90, 0x86, 0x9e,
  0x89, 0x94, 0x74, 0x82, 0x88, 0x9f, 0x81, 0x74, 0x95, 0xb1, 0x72, 0x91,
  0x78, 0xa0, 0x6e, 0x73, 0x61, 0x84, 0x91, 0x99, 0x84, 0x7d, 0x88, 0x5d,
  0x72, 0x94, 0xa2, 0x83, 0x7d, 0x92, 0x85, 0x74, 0x86, 0x87, 0x85, 0x90,
  0x92, 0x8e, 0x84, 0x76, 0x7b, 0x9e, 0x82, 0x9c, 0x73, 0xa9, 0x74, 0x8f,
  0x71, 0x90, 0x7c, 0xba, 0x97, 0x91, 0x73, 0x93, 0x88, 0x82, 0x71, 0x91,
  0x90, 0x61, 0x7f, 0x73, 0x8e, 0x81, 0x9b, 0x7c, 0x6f, 0x93, 0x60, 0x92,
  0x7b, 0x98, 0x90, 0xab, 0x6f, 0x90, 0x5b, 0x80, 0xa9, 0x88, 0xb3, 0x97,
  0x76, 0x9c, 0x7f, 0x99, 0x78, 0x98, 0x9f, 0xba, 0x8c, 0x93, 0x86, 0x97,
  0x92, 0x83, 0x60, 0x83, 0x86, 0x81, 0x94, 0x74, 0x9a, 0x83, 0x81, 0x87,
  0x81, 0x86, 0x89, 0xa9, 0x78, 0x79, 0x8e, 0xb8, 0x6d, 0x88, 0x87, 0x96,
  0x9e, 0x82, 0x7c, 0xa1, 0x8b, 0x99, 0x63, 0x83, 0x91, 0x75, 0x8a, 0x8d,
  0x70, 0x8d, 0x83, 0x77, 0x72, 0x73, 0x80, 0xb0, 0x81, 0x8b, 0x76, 0x61,
  0x78, 0x89, 0x7d, 0x90, 0x9f, 0xa1, 0x89, 0x7c, 0x84, 0x8c, 0x54, 0xa4,
  0x6f, 0x8f, 0x98, 0x7c, 0x76, 0x93, 0x77, 0x9e, 0x86, 0xa9, 0x7a, 0x7f,
  0x93, 0x9e, 0x8b, 0x9f, 0x74, 0x8c, 0x8e, 0x8e, 0x8d, 0x91, 0x80, 0x9f,
  0x86, 0x8d, 0xa3, 0x89, 0x65, 0x8d, 0x90, 0x8f, 0x7c, 0x97, 0x92, 0x88,
  0x91, 0x84, 0x8a, 0x9e, 0x55, 0x9f, 0x8e, 0x64, 0x71, 0xa0, 0x7e, 0x9e,
  0x8e, 0x9b, 0x89, 0x87, 0x91, 0x8a, 0x96, 0xae, 0x85, 0x85, 0x86, 0x8c,
  0x7e, 0x9a, 0x7f, 0x99, 0x7f, 0x83, 0x73, 0xa0, 0x87, 0x87, 0x9a, 0xa2,
  0x85, 0x7b, 0x62, 0x72, 0x6d, 0x90, 0xac, 0x91, 0x9d, 0x90, 0x67, 0x81,
  0x7c, 0x9b, 0xa3, 0xb5, 0x8e, 0xa6, 0x7a, 0x6b, 0x7e, 0x98, 0x9e, 0xbc,
  0xa4, 0x93, 0x95, 0x6c, 0x8d, 0x62, 0x84, 0xa4, 0x6f, 0x95, 0xab, 0x6b,
  0x80, 0x77, 0x9b, 0x95, 0x86, 0x84, 0x9b, 0x91, 0x8a, 0x8d, 0x9e, 0xaa,
  0x84, 0x92, 0x77, 0x76, 0x80, 0x5f, 0x6d, 0xb2, 0x82, 0x85, 0x7f, 0x8d,
  0xa2, 0x6c, 0x7c, 0xa0, 0x68, 0x9f, 0x71, 0x8e, 0x78, 0x77, 0x87, 0xa8,
  0x69, 0x99, 0x91, 0x89, 0x80, 0x6d, 0x9e, 0x99, 0x98, 0xb2, 0x82, 0x88,
  0x6a, 0x81, 0x6c, 0x98, 0x73, 0xa4, 0x88, 0x98, 0x7e, 0xa2, 0x8e, 0xbd,
  0x7f, 0x99, 0x73, 0x7a, 0x83, 0xa8, 0x90, 0x8f, 0x8c, 0x8e, 0x71, 0x90,
  0x6d, 0x80, 0x66, 0x99, 0x73, 0x80, 0x81, 0x8e, 0x76, 0x87, 0x89, 0x81,
  0x7f, 0x97, 0x96, 0x80, 0x95, 0x8c, 0x7c, 0xbd, 0x6a, 0xa7, 0x83, 0x6c,
  0x7c, 0x91, 0x99, 0x93, 0xa0, 0xaf, 0x7f, 0x93, 0x79, 0x95, 0x8b, 0xa4,
  0x66, 0x8b, 0x87, 0x79, 0x74, 0x80, 0x8e, 0xb5, 0x8b, 0x82, 0x65, 0x9d,
  0x8f, 0x71, 0x83, 0xa2, 0x70, 0x87, 0x65, 0xa2, 0x82, 0x6e, 0x9e, 0x9c,
  0x70, 0xa4, 0x6b, 0x78, 0x99, 0x9b, 0xba, 0xae, 0x82, 0xab, 0x82, 0x95,
  0x9c, 0x95, 0xa2, 0xba, 0x6d, 0x8d, 0x8f, 0x89, 0x7b, 0x76, 0x84, 0x8d,
  0x92, 0x7f, 0xae, 0x79, 0x9b, 0x80, 0x88, 0x87, 0x81, 0x80, 0x97, 0x9f,
  0x78, 0x85, 0xa7, 0xaa, 0x86, 0xa2, 0x82, 0xa1, 0x76, 0x69, 0x72, 0xad,
  0x75, 0x90, 0x79, 0x79, 0xa6, 0x65, 0x80, 0x84, 0x70, 0x97, 0x76, 0x94,
  0x75, 0x78, 0x76, 0x95, 0x52, 0xa6, 0x99, 0x82, 0x71, 0x6f, 0x8c, 0x9b,
  0x98, 0xc4, 0x8c, 0x8e, 0x7c, 0x7b, 0x6a, 0xa8, 0x7a, 0x97, 0x96, 0x9d,
  0x71, 0x84, 0x85, 0xb1, 0x8e, 0xa7, 0x7e, 0x80, 0x66, 0xac, 0x72, 0x98,
  0x93, 0x93, 0x7d, 0x68, 0x6c, 0x92, 0x77, 0x8c, 0x87, 0xa5, 0x8c, 0x86,
  0x69, 0x88, 0x95, 0x8f, 0x7c, 0xac, 0x97, 0x86, 0x77, 0x7b, 0x68, 0xa6,
  0x7e, 0xa9, 0x93, 0x68, 0x87, 0x90, 0xa3, 0x8d, 0x88, 0xae, 0x7f, 0x97,
  0x7d, 0x9e, 0x95, 0xac, 0x7b, 0x7e, 0x85, 0x84, 0x96, 0x89, 0x7c, 0xb1,
  0x91, 0x96, 0x74, 0x86, 0x77, 0x64, 0x70, 0x96, 0x6c, 0x8a, 0x67, 0x82,
  0x8d, 0x78, 0xb1, 0xb8, 0x6a, 0xa3, 0x72, 0x8b, 0x89, 0x97, 0xb7, 0xa7,
  0x89, 0xab, 0x86, 0x76, 0x95, 0x91, 0xa8, 0xb7, 0x6e, 0x9e, 0x95, 0x6d,
  0x7a, 0x7c, 0x97, 0xa8, 0x5c, 0x86, 0xa8, 0x6f, 0x83, 0x77, 0x98, 0x8e,
  0x83, 0x89, 0x91, 0xb1, 0x91, 0x6c, 0x9e, 0x9c, 0x7c, 0x9c, 0x8b, 0xa4,
  0x7f, 0x71, 0x98, 0xb0, 0x73, 0x97, 0x79, 0x92, 0x80, 0x67, 0x88, 0xa3,
  0x8e, 0x84, 0x7c, 0xa7, 0x83, 0x7b, 0x91, 0xa8, 0xa0, 0x9d, 0x88, 0x7c,
  0x7c, 0x74, 0x92, 0xa5, 0xa7, 0xbe, 0x8b, 0x9d, 0x77, 0x52, 0x77, 0xa1,
  0x6f, 0xc3, 0x86, 0x93, 0x80, 0x8a, 0x77, 0x8f, 0x76, 0xaf, 0x7e, 0x84,
  0x80, 0xb3, 0x70, 0x8d, 0x95, 0x8d, 0x8d, 0x77, 0x73, 0x89, 0x81, 0xa1,
  0x86, 0x7c, 0x9b, 0xa2, 0x7e, 0xa1, 0x82, 0x77, 0x74, 0x91, 0x9f, 0x8e,
  0x70, 0x7d, 0x88, 0xa0, 0x75, 0x9a, 0x92, 0x7c, 0x93, 0xac, 0x9e, 0xa1,
  0x94, 0x9c, 0x95, 0xa8, 0x80, 0x81, 0x85, 0xa8, 0x84, 0x83, 0x80, 0x8d,
  0x86, 0x75, 0x8c, 0xa8, 0x94, 0x8a, 0x7f, 0x83, 0x8e, 0x7c, 0x87, 0x9f,
  0x79, 0x83, 0x67, 0x8c, 0xaa, 0x7a, 0xb5, 0xaa, 0x79, 0xa6, 0x6a, 0x83,
  0x89, 0x82, 0xcf, 0xb1, 0x7c, 0xa6, 0x74, 0x81, 0x7b, 0x87, 0x85, 0xae,
  0x65, 0x8d, 0xa6, 0x8a, 0x75, 0x6c, 0x8e, 0x9a, 0x70, 0x85, 0xa8, 0x72,
  0x76, 0x85, 0x96, 0x8e, 0x65, 0xa1, 0x86, 0x87, 0x92, 0x71, 0x82, 0xad,
  0x68, 0xac, 0x7c, 0x99, 0x80, 0x62, 0x8d, 0xb1, 0x85, 0x8e, 0x81, 0x91,
  0x6a, 0x5a, 0x8d, 0xa6, 0x70, 0x90, 0x78, 0x84, 0x79, 0x6f, 0x8e, 0xae,
  0x84, 0x9a, 0x8c, 0xa7, 0x54, 0x78, 0x9b, 0xbf, 0x82, 0xc2, 0x8b, 0x9a,
  0x68, 0x65, 0x80, 0xa5, 0x90, 0xc1, 0x6c, 0xaf, 0x63, 0x8e, 0x71, 0x97,
  0x82, 0x9f, 0x7b, 0x8e, 0x7d, 0xa2, 0x72, 0x94, 0x8c, 0x9a, 0x75, 0x93,
  0x6f, 0x8f, 0x58, 0x89, 0x70, 0x83, 0xac, 0x8d, 0x63, 0x94, 0x84, 0x9e,
  0x90, 0x9f, 0x88, 0x95, 0x87, 0x83, 0x86, 0x93, 0x89, 0x8c, 0x9e, 0x62,
  0x7a, 0xa2, 0xa6, 0x94, 0x98, 0x9a, 0x8a, 0x9c, 0xa3, 0x9c, 0xb8, 0xac,
  0x7d, 0x89, 0x78, 0x7d, 0xac, 0x81, 0x8e, 0x97, 0x6f, 0x7f, 0x86, 0x86,
  0x94, 0x73, 0x8f, 0xaa, 0x6e, 0x83, 0x6a, 0xad, 0x84, 0x68, 0xa9, 0xa3,
  0x7a, 0x83, 0x89, 0x93, 0x98, 0x75, 0xd4, 0xa3, 0xa0, 0xa2, 0x7a, 0x79,
  0x7d, 0x85, 0x94, 0xb8, 0x8a, 0x98, 0xad, 0x7f, 0x72, 0x73, 0x9a, 0xa5,
  0x58, 0x80, 0xae, 0x99, 0x8a, 0x76, 0x9f, 0xa8, 0x76, 0x9a, 0x95, 0x9a,
  0x75, 0x81, 0xad, 0x99, 0x8c, 0x9c, 0x7d, 0xa7, 0x8a, 0x68, 0x82, 0x93,
  0x76, 0x8a, 0x8c, 0x9b, 0x92, 0x6a, 0x7c, 0x8d, 0x7b, 0x8a, 0x85, 0x95,
  0x5b, 0x77, 0x91, 0xa8, 0x83, 0xb5, 0x7d, 0x83, 0x7c, 0x82, 0x93, 0xb1,
  0x9b, 0xba, 0x93, 0x88, 0x5d, 0x64, 0x86, 0xa0, 0x65, 0x98, 0x7d, 0x7a,
  0x65, 0x80, 0x87, 0xb1, 0x94, 0xaa, 0x87, 0xaf, 0x79, 0x90, 0x70, 0x84,
  0x8b, 0x96, 0x84, 0x7d, 0x6f, 0x9f, 0x93, 0x8f, 0x82, 0x8f, 0x7e, 0x93,
  0x60, 0x86, 0x8d, 0xa9, 0x87, 0x83, 0xa3, 0x92, 0x7a, 0x8b, 0x7d, 0xb0,
  0x89, 0x93, 0x84, 0x88, 0xa4, 0x91, 0xbb, 0x9a, 0x8d, 0xab, 0x8c, 0xa9,
  0x95, 0x82, 0xa4, 0xbc, 0x61, 0x8a, 0x87, 0x93, 0xb3, 0x84, 0xad, 0xb0,
  0x70, 0x73, 0x77, 0x7f, 0xa3, 0x70, 0x9c, 0x8b, 0x6c, 0x89, 0x69, 0x89,
  0x91, 0x4f, 0xba, 0xae, 0x76, 0x9b, 0x68, 0xa0, 0x9b, 0x92, 0xd4, 0xa8,
  0x89, 0x9e, 0x94, 0x85, 0x6f, 0x7b, 0xa0, 0xa7, 0x67, 0x9c, 0x96, 0x89,
  0x7a, 0x68, 0x89, 0xa3, 0x5e, 0x97, 0x9e, 0x6f, 0x75, 0x79, 0x92, 0x9c,
  0x82, 0x97, 0x93, 0x8f, 0x71, 0x72, 0xa9, 0xb6, 0x97, 0xa4, 0x89, 0xa1,
  0x73, 0x68, 0x9e, 0xa4, 0x7b, 0x7a, 0x7a, 0x99, 0x6a, 0x6d, 0x82, 0x97,
  0x7c, 0x86, 0x7d, 0xa9, 0x7a, 0x72, 0x98, 0xac, 0x69, 0x89, 0x79, 0x8d,
  0x5b, 0x72, 0xa4, 0xb0, 0x84, 0xb7, 0x82, 0x9f, 0x5f, 0x57, 0x8d, 0xa6,
  0x6e, 0x9e, 0x95, 0x8a, 0x52, 0x8d, 0x6d, 0xa5, 0x8d, 0xa6, 0x8f, 0xa8,
  0x75, 0x8e, 0x6f, 0x8c, 0x8c, 0x99, 0x80, 0x7c, 0x67, 0x9d, 0x86, 0xa2,
  0x89, 0x85, 0x81, 0x71, 0x6c, 0x87, 0x87, 0x8d, 0x7c, 0x8f, 0x94, 0x9e,
  0x89, 0x7d, 0x7d, 0xaa, 0x71, 0x9e, 0x96, 0x89, 0x9e, 0xaa, 0x9d, 0xa9,
  0x98, 0xa8, 0x86, 0x7f, 0x98, 0x84, 0xab, 0xaf, 0x6e, 0x77, 0x89, 0xb0,
  0x97, 0x77, 0xae, 0xa5, 0x6a, 0x7a, 0x85, 0x94, 0x97, 0x7f, 0x9d, 0x99,
  0x87, 0x8d, 0x68, 0x89, 0x97, 0x6b, 0xbe, 0xb0, 0x8d, 0x91, 0x78, 0xac,
  0x9b, 0x7c, 0xd3, 0xa7, 0x93, 0x8a, 0x81, 0x71, 0x71, 0x8b, 0x9e, 0xac,
  0x7e, 0x9c, 0x9a, 0x80, 0x87, 0x74, 0xa0, 0xa8, 0x72, 0x82, 0xa2, 0x8b,
  0x64, 0x76, 0xb0, 0x91, 0x6a, 0x86, 0x8e, 0x81, 0x6f, 0x6d, 0xb4, 0xb1,
  0x7c, 0xab, 0x84, 0x9b, 0x70, 0x72, 0x8b, 0xb3, 0x93, 0x89, 0x7b, 0x97,
  0x6c, 0x73, 0x85, 0x94, 0x9d, 0x75, 0x78, 0x9c, 0x70, 0x72, 0x96, 0xaa,
  0x6d, 0xa3, 0x7d, 0x93, 0x6c, 0x7b, 0xb7, 0xa8, 0x91, 0xbb, 0x7b, 0x9f,
  0x64, 0x46, 0x87, 0xb3, 0x89, 0x9a, 0x8a, 0x7c, 0x5e, 0x8e, 0x7a, 0xa2,
  0xa1, 0xae, 0x91, 0x94, 0x6c, 0x96, 0x43, 0x95, 0x8f, 0x9a, 0x96, 0x8b,
  0x76, 0x91, 0x78, 0x9c, 0x83, 0x7f, 0x9e, 0x7f, 0x76, 0x76, 0x89, 0x8a,
  0x84, 0x94, 0x93, 0x94, 0x6f, 0x7d, 0x92, 0xbf, 0x6e, 0xa2, 0x98, 0x7e,
  0x9a, 0xaa, 0xab, 0x97, 0x5d, 0x99, 0xa8, 0x9e, 0x99, 0x7d, 0x9f, 0xa9,
  0x94, 0x87, 0x86, 0xab, 0x99, 0x7c, 0xb6, 0xa1, 0x67, 0x73, 0x70, 0x89,
  0x9e, 0x75, 0xb2, 0x8b, 0x7b, 0x8c, 0x7f, 0x97, 0x79, 0x6e, 0xc1, 0xa0,
  0x6a, 0x95, 0x77, 0x95, 0x8d, 0x7e, 0xbf, 0xa3, 0x84, 0x8f, 0x79, 0x8c,
  0x8a, 0x89, 0xb1, 0xb9, 0x80, 0xa0, 0x8d, 0x86, 0x74, 0x68, 0x92, 0xb2,
  0x4d, 0xa0, 0xb5, 0x90, 0x85, 0x74, 0x91, 0x8f, 0x5e, 0x95, 0x8f, 0x83,
  0x78, 0x74, 0xa1, 0xa6, 0x99, 0xa3, 0x68, 0xa5, 0x88, 0x6b, 0x77, 0x99,
  0x73, 0x7a, 0x79, 0x9d, 0x8d, 0x6d, 0x9a, 0x87, 0x81, 0x81, 0x74, 0x9c,
  0x73, 0x79, 0xab, 0xb3, 0x86, 0x96, 0x7c, 0x82, 0x58, 0x80, 0x85, 0xab,
  0x8c, 0xb4, 0x9e, 0x94, 0x50, 0x5d, 0x9b, 0x98, 0x69, 0x9c, 0x99, 0x91,
  0x5a, 0x7c, 0x84, 0x9c, 0x99, 0xa9, 0x9a, 0xab, 0x6a, 0x97, 0x63, 0x89,
  0x77, 0x98, 0x8d, 0x89, 0x5d, 0x93, 0x96, 0x96, 0x7c, 0x86, 0x99, 0x75,
  0x71, 0x74, 0x74, 0x77, 0x94, 0x8c, 0x9d, 0x9d, 0x74, 0x89, 0x8a, 0xb6,
  0x5b, 0xa9, 0xa2, 0x7b, 0xab, 0x98, 0xb0, 0x95, 0x81, 0x9a, 0x92, 0x9b,
  0x8c, 0x9c, 0x9f, 0xa6, 0x89, 0x86, 0x7c, 0xa9, 0x94, 0x7f, 0x92, 0xc3,
  0x75, 0x79, 0x71, 0x81, 0x75, 0x85, 0xb6, 0x96, 0x8d, 0x7f, 0x74, 0x90,
  0x91, 0x7e, 0xb9, 0xae, 0x8d, 0x7d, 0x86, 0x91, 0x88, 0x81, 0xbb, 0xa1,
  0x9f, 0x92, 0x92, 0x6d, 0x7b, 0x85, 0xaa, 0xae, 0x6c, 0xad, 0x89, 0x7e,
  0x7e, 0x70, 0x7b, 0xa5, 0x63, 0x9a, 0xa8, 0x91, 0x7d, 0x71, 0xa4, 0x9b,
  0x71, 0x7a, 0x8c, 0x9c, 0x6f, 0x93, 0xa7, 0xa6, 0x77, 0x99, 0x79, 0xad,
  0x6e, 0x75, 0x8c, 0x94, 0x6c, 0x86, 0x8a, 0x88, 0x70, 0x6e, 0x9c, 0x8f,
  0x8d, 0x81, 0x7c, 0x9b, 0x6b, 0x72, 0x8b, 0x96, 0x8c, 0x90, 0x96, 0x94,
  0x64, 0x82, 0x96, 0x8a, 0x8d, 0xac, 0x82, 0xa4, 0x51, 0x6d, 0x90, 0xb1,
  0x6a, 0xad, 0x92, 0x8d, 0x5a, 0x7f, 0x7b, 0x9b, 0x87, 0x8d, 0x8b, 0xa4,
  0x5d, 0x94, 0x77, 0x8c, 0x91, 0x7b, 0x87, 0x73, 0x6c, 0x88, 0x8f, 0xa4,
  0x71, 0x84, 0x91, 0x89, 0x60, 0x95, 0x85, 0xbb, 0x87, 0xa2, 0xaa, 0xa9,
  0x7f, 0x6f, 0x84, 0xa5, 0x6b, 0xb7, 0xa6, 0x6b, 0x8d, 0x98, 0xc0, 0x9c,
  0x7c, 0x98, 0xa0, 0xaa, 0x96, 0x9f, 0xb3, 0xba, 0x8b, 0x6e, 0x72, 0xa3,
  0x9b, 0x89, 0xa2, 0xad, 0x7d, 0x8b, 0x7f, 0x9f, 0x89, 0x79, 0xa7, 0x90,
  0x6f, 0x89, 0x68, 0x8b, 0x86, 0x77, 0xab, 0xa7, 0xa0, 0x9f, 0x88, 0xa9,
  0x8d, 0x8e, 0xc4, 0xc1, 0x84, 0xa2, 0x8a, 0x89, 0x77, 0x95, 0xa4, 0xa7,
  0x7b, 0x97, 0x7a, 0x6a, 0x93, 0x6b, 0x97, 0xb6, 0x57, 0x94, 0x80, 0x8e,
  0x90, 0x6e, 0x9d, 0x8f, 0x64, 0x93, 0x8f, 0x9a, 0x72, 0x78, 0xa0, 0xa2,
  0x80, 0xad, 0x7a, 0x8e, 0x64, 0x67, 0x82, 0xa2, 0x74, 0x81, 0x85, 0x97,
  0x77, 0x75, 0x93, 0x87, 0x96, 0x91, 0x76, 0x83, 0x5a, 0x75, 0x87, 0x9c,
  0x8f, 0x90, 0x8e, 0xa1, 0x68, 0x6e, 0x92, 0xae, 0x8b, 0xb2, 0x79, 0x8f,
  0x31, 0x63, 0x8c, 0x99, 0x79, 0xc1, 0x7f, 0xaf, 0x4e, 0x84, 0x84, 0x93,
  0x9b, 0x7e, 0x89, 0x92, 0x4a, 0x8e, 0x84, 0x91, 0x7d, 0x99, 0x7d, 0x64,
  0x79, 0x8b, 0x7d, 0x92, 0x70, 0x7e, 0x78, 0x7d, 0x69, 0x89, 0x98, 0x8b,
  0x8d, 0x95, 0x85, 0x7c, 0x94, 0x72, 0x8a, 0xac, 0x53, 0x9f, 0xa1, 0x8d,
  0x89, 0x93, 0xab, 0x9d, 0x71, 0xa1, 0x88, 0x7e, 0x9d, 0x8b, 0xb6, 0xaf,
  0x9b, 0x74, 0x73, 0x8d, 0xb3, 0x91, 0xa2, 0xb1, 0x99, 0x8f, 0x84, 0x93,
  0x88, 0x84, 0xad, 0xa2, 0x75, 0x8f, 0x63, 0xa1, 0x85, 0x78, 0xc0, 0x9e,
  0x8e, 0x9f, 0x84, 0x97, 0x9e, 0x88, 0xce, 0x9b, 0x9d, 0x85, 0x7d, 0x79,
  0x70, 0x8d, 0xab, 0xb4, 0x84, 0x90, 0x87, 0x8b, 0x8a, 0x6b, 0x87, 0xaf,
  0x75, 0x84, 0xa1, 0x8d, 0x7d, 0x84, 0x9b, 0xb1, 0x75, 0x83, 0x83, 0x70,
  0x78, 0x8e, 0xac, 0x9e, 0x8f, 0xa9, 0x7b, 0x7e, 0x70, 0x67, 0x75, 0x9d,
  0x8a, 0x86, 0x9c, 0x80, 0x87, 0x60, 0x75, 0x82, 0x7f, 0x79, 0x8c, 0xae,
  0x73, 0x6f, 0x9b, 0x9d, 0x7f, 0x93, 0x84, 0x94, 0x63, 0x89, 0x7e, 0xa0,
  0x7e, 0xa4, 0x83, 0xa2, 0x4c, 0x70, 0x92, 0xaf, 0x7e, 0xa2, 0x85, 0xa0,
  0x50, 0x8a, 0x72, 0x7a, 0x7c, 0x92, 0x84, 0x94, 0x52, 0x90, 0x5c, 0x9e,
  0x84, 0x84, 0x88, 0x75, 0x6c, 0x7f, 0x6e, 0x90, 0x79, 0x77, 0x7e, 0x7b,
  0x81, 0x88, 0x96, 0x8f, 0x70, 0xa3, 0x8e, 0x8d, 0x88, 0x68, 0x8c, 0xc2,
  0x3f, 0xa8, 0x8f, 0x6c, 0x80, 0x9f, 0xb2, 0x88, 0x4e, 0x96, 0x9c, 0x85,
  0x99, 0x8b, 0xb4, 0xb5, 0x92, 0x76, 0x7e, 0xb7, 0x8e, 0x8e, 0xaa, 0xb5,
  0xa6, 0x82, 0x6a, 0xb0, 0x80, 0x90, 0x9a, 0xa9, 0x66, 0x92, 0x6b, 0xb0,
  0x8d, 0x76, 0xc0, 0xa9, 0x84, 0xaa, 0x8c, 0xa2, 0x91, 0x81, 0xc9, 0xae,
  0x8f, 0x9d, 0x84, 0x7c, 0x9e, 0x94, 0xa9, 0xaa, 0xb0, 0x86, 0x88, 0x9f,
  0x75, 0x79, 0x8d, 0xb6, 0x5c, 0x8c, 0xac, 0x84, 0x6b, 0x73, 0xa0, 0xa5,
  0x67, 0x95, 0x8a, 0x8f, 0x6d, 0x71, 0x96, 0xa3, 0x9b, 0xa0, 0x76, 0x97,
  0x80, 0x6e, 0x8a, 0x94, 0x81, 0x95, 0x84, 0x93, 0x61, 0x72, 0x71, 0x96,
  0x83, 0x75, 0x9f, 0x93, 0x6d, 0x8d, 0x90, 0x84, 0x93, 0x9c, 0x95, 0x93,
  0x56, 0x8b, 0x8f, 0x9c, 0x8d, 0x94, 0x7d, 0xa7, 0x48, 0x84, 0x8f, 0xa7,
  0x7c, 0x94, 0x79, 0xb1, 0x39, 0x79, 0x7d, 0x8e, 0x89, 0x9f, 0x7b, 0xa5,
  0x60, 0x85, 0x5b, 0x84, 0x7b, 0x8d, 0x83, 0x7f, 0x56, 0x82, 0x7c, 0xa4,
  0x5e, 0x72, 0x89, 0xab, 0x67, 0x9a, 0x93, 0xa2, 0x75, 0xa4, 0x89, 0xb1,
  0x87, 0x62, 0x7f, 0xb4, 0x5d, 0xac, 0x96, 0x63, 0x90, 0x9d, 0xc9, 0x9e,
  0x75, 0x90, 0x9b, 0xc1, 0xb5, 0x8e, 0xa1, 0xa9, 0x81, 0x66, 0x80, 0xa2,
  0x93, 0x7f, 0xaf, 0xb6, 0x8c, 0x7c, 0x77, 0x83, 0x8b, 0x68, 0xad, 0x9c,
  0x7c, 0x88, 0x5f, 0x8c, 0x70, 0x76, 0xbb, 0xa3, 0x9f, 0xa5, 0x96, 0x9f,
  0x98, 0x84, 0xd7, 0x90, 0x8d, 0x92, 0x7f, 0x8c, 0x82, 0x99, 0xa8, 0xab,
  0x92, 0x98, 0x8a, 0x85, 0x74, 0x77, 0x94, 0xc6, 0x88, 0x88, 0x83, 0x7e,
  0x76, 0x83, 0xab, 0xbb, 0x6b, 0x9c, 0x93, 0x8c, 0x6c, 0x77, 0xa0, 0x99,
  0x81, 0xb5, 0x89, 0x73, 0x85, 0x6c, 0x99, 0x9e, 0x79, 0x81, 0x95, 0x82,
  0x6d, 0x7a, 0x7d, 0x82, 0x7d, 0x7c, 0x8f, 0x8c, 0x68, 0x72, 0x99, 0x9a,
  0x8c, 0x84, 0x89, 0xa4, 0x5d, 0x6f, 0x8e, 0xa9, 0x82, 0x85, 0x8d, 0x90,
  0x58, 0x5e, 0x89, 0x95, 0x77, 0x97, 0x89, 0x85, 0x4d, 0x84, 0x93, 0x9f,
  0x92, 0xa5, 0x8f, 0xa9, 0x52, 0x80, 0x68, 0x93, 0x76, 0x91, 0x65, 0x86,
  0x49, 0x71, 0x8a, 0x8e, 0x7f, 0x74, 0x7e, 0x76, 0x77, 0x9e, 0xac, 0xb5,
  0x6f, 0xa7, 0x97, 0x79, 0x72, 0x78, 0x85, 0xb6, 0x7c, 0xb1, 0xa9, 0x8a,
  0x8d, 0x9a, 0xb4, 0x9b, 0x66, 0x9d, 0x8b, 0xb5, 0xa3, 0x8b, 0xb6, 0xbc,
  0x6f, 0x65, 0x77, 0xaf, 0x85, 0x65, 0xa3, 0xa9, 0xb5, 0x7c, 0x86, 0xa8,
  0x86, 0x84, 0x93, 0xa8, 0x64, 0x89, 0x69, 0x93, 0x9a, 0x7f, 0xc7, 0xb2,
  0x9a, 0xce, 0x7e, 0x90, 0xa0, 0x8a, 0xe1, 0xa2, 0xa6, 0xa1, 0x69, 0x8e,
  0x89, 0x97, 0xa8, 0xae, 0x89, 0x8d, 0x85, 0x92, 0x78, 0x80, 0x9f, 0xb1,
  0x85, 0x7e, 0x94, 0x83, 0x8b, 0x7d, 0x9b, 0xbe, 0x77, 0x9d, 0x7e, 0x86,
  0x8c, 0x7a, 0xba, 0x90, 0x9f, 0xa8, 0x8f, 0x91, 0x95, 0x5b, 0xa0, 0xaa,
  0x80, 0x97, 0x92, 0xb1, 0x5a, 0x67, 0x90, 0x90, 0x68, 0x75, 0x92, 0x99,
  0x6e, 0x6a, 0x92, 0x91, 0x86, 0x93, 0x91, 0x8c, 0x5d, 0x74, 0x8c, 0xa1,
  0x82, 0x77, 0x78, 0xa6, 0x60, 0x66, 0x8f, 0xb1, 0x79, 0xa0, 0x77, 0x9e,
  0x61, 0x9b, 0x83, 0x7e, 0x87, 0xa3, 0x7a, 0x7e, 0x59, 0x8b, 0x5d, 0x98,
  0x79, 0x8a, 0x82, 0x9c, 0x72, 0x7d, 0x8a, 0x89, 0x55, 0x85, 0x7e, 0x61,
  0x68, 0x97, 0x98, 0x82, 0x8b, 0xaf, 0x80, 0x8a, 0x80, 0x7e, 0x84, 0x9c,
  0x58, 0xae, 0x74, 0x5e, 0x7d, 0x88, 0xc6, 0x9d, 0x81, 0x89, 0x84, 0xc9,
  0x9b, 0x84, 0xad, 0xac, 0x5d, 0x66, 0x79, 0xa0, 0x86, 0x83, 0x97, 0xaf,
  0xaf, 0x7b, 0x75, 0x99, 0x86, 0x71, 0xaa, 0xa5, 0x9e, 0x81, 0x62, 0x7b,
  0x75, 0x6e, 0xce, 0xaf, 0x79, 0x9f, 0x8d, 0x92, 0x95, 0x99, 0xd4, 0xac,
  0x94, 0xae, 0x7d, 0xa0, 0x8f, 0x9d, 0x9c, 0xb3, 0x98, 0x8d, 0x7f, 0x85,
  0x78, 0x80, 0xa1, 0xc5, 0x6b, 0x88, 0x96, 0x88, 0x67, 0x87, 0x9f, 0xb7,
  0x71, 0x9e, 0x89, 0x82, 0x8a, 0x8b, 0xa1, 0xa1, 0x77, 0x96, 0x6e, 0x7f,
  0x80, 0x67, 0x84, 0xa4, 0x6c, 0x7b, 0x84, 0xab, 0x67, 0x73, 0x87, 0x8c,
  0x63, 0x78, 0x9c, 0x8f, 0x71, 0x86, 0x94, 0xa6, 0x8d, 0x83, 0x74, 0x9a,
  0x5c, 0x6e, 0x8c, 0xb1, 0x86, 0x79, 0x73, 0x96, 0x5a, 0x7f, 0x96, 0xa4,
  0x7a, 0x9c, 0x7f, 0x8b, 0x66, 0x8d, 0x7a, 0x91, 0x78, 0xb3, 0x7b, 0x99,
  0x5c, 0x75, 0x84, 0x8a, 0x7b, 0x97, 0x7b, 0x91, 0x6c, 0x87, 0x5f, 0x83,
  0x76, 0x83, 0x79, 0x95, 0x86, 0xa2, 0xa8, 0x94, 0x6b, 0xc1, 0x85, 0x83,
  0x64, 0x6f, 0x82, 0xa1, 0x58, 0xaf, 0x91, 0xad, 0x8f, 0x9a, 0xba, 0xa0,
  0x6a, 0x9a, 0x8f, 0xb3, 0x9a, 0x85, 0xb7, 0xb1, 0x69, 0x6b, 0xa6, 0xd2,
  0x9b, 0x7b, 0x9a, 0x9d, 0xbd, 0x8c, 0x84, 0x8d, 0x8c, 0x7f, 0x8b, 0x9c,
  0x75, 0x75, 0x87, 0xa6, 0x99, 0x7e, 0xbe, 0xa4, 0x74, 0x8c, 0x7d, 0xb0,
  0x86, 0x9e, 0xc4, 0xad, 0x90, 0x84, 0xae, 0x98, 0x8f, 0x92, 0x9f, 0xaf,
  0xa3, 0x87, 0x79, 0x97, 0x92, 0x87, 0x96, 0xb0, 0x85, 0x79, 0x89, 0x8d,
  0x81, 0x8a, 0x95, 0xa6, 0x92, 0xa3, 0x90, 0x82, 0x6f, 0x8a, 0x97, 0x9a,
  0x85, 0xc2, 0x95, 0x8a, 0x85, 0x65, 0x83, 0x90, 0xa2, 0x7e, 0x72, 0x8c,
  0x83, 0x77, 0x8a, 0x92, 0x5f, 0x83, 0x82, 0x88, 0x62, 0x76, 0x85, 0xb5,
  0x8c, 0x83, 0x7c, 0x9a, 0x72, 0x74, 0x7a, 0xa4, 0x84, 0x80, 0x7c, 0x8e,
  0x56, 0x83, 0x81, 0xad, 0x7d, 0x76, 0x68, 0x9c, 0x63, 0x7c, 0x94, 0x82,
  0x6b, 0x89, 0x83, 0x89, 0x8c, 0x89, 0x6e, 0x78, 0x71, 0xbc, 0x6a, 0xa7,
  0x5c, 0x85, 0x8a, 0x95, 0x7a, 0x8d, 0x9d, 0x8b, 0x79, 0xb5, 0xac, 0x8f,
  0x77, 0xba, 0x88, 0x84, 0x65, 0x6f, 0x90, 0x9a, 0x5f, 0xbb, 0x82, 0x7c,
  0x72, 0x9d, 0xbd, 0x8c, 0x6d, 0x92, 0x8e, 0xd9, 0x87, 0x9c, 0xc4, 0xa9,
  0x80, 0x64, 0xa0, 0xd4, 0x93, 0x81, 0xa3, 0x99, 0xb7, 0x79, 0x83, 0x89,
  0x7a, 0x8a, 0x9e, 0xb7, 0x7c, 0x9e, 0x8e, 0x99, 0x97, 0x8f, 0xc2, 0xb5,
  0x80, 0xa0, 0x88, 0x8d, 0x9f, 0x98, 0xbb, 0xc4, 0xa0, 0x9d, 0x7c, 0x8d,
  0xa6, 0x8d, 0x9c, 0xbe, 0xb9, 0x8f, 0x7c, 0x8a, 0x9a, 0x93, 0x8b, 0xb1,
  0x87, 0x89, 0x83, 0x8b, 0x80, 0x9e, 0x8f, 0xaf, 0x89, 0x98, 0x98, 0x7f,
  0x7b, 0x8f, 0xa0, 0xa1, 0x7d, 0xa6, 0x7e, 0x69, 0x87, 0x77, 0x95, 0x9a,
  0x83, 0x84, 0x5e, 0x89, 0x78, 0x7b, 0x80, 0x93, 0x6f, 0x89, 0x83, 0x7c,
  0x80, 0x8a, 0x8d, 0xa0, 0x8d, 0x76, 0x7b, 0x7c, 0x74, 0x8a, 0x88, 0xc3,
  0x73, 0x78, 0x52, 0x8e, 0x76, 0x88, 0x93, 0xbc, 0x73, 0xa1, 0x6d, 0x7f,
  0x6c, 0x81, 0xa8, 0x8f, 0x8a, 0x9f, 0x63, 0x86, 0x65, 0x94, 0x72, 0x80,
  0x6c, 0xa1, 0x79, 0xa8, 0x78, 0x7c, 0x55, 0x8f, 0x72, 0x86, 0xa5, 0x7b,
  0x71, 0xb6, 0xae, 0x98, 0x78, 0x9f, 0x69, 0x6a, 0x72, 0x97, 0xa8, 0x82,
  0x6f, 0xc5, 0x8b, 0x66, 0x8b, 0xaa, 0xc1, 0x95, 0x87, 0x9a, 0x75, 0x8c,
  0x92, 0xaf, 0xaa, 0x9a, 0x64, 0x6d, 0xa2, 0xa0, 0x7b, 0x98, 0xbf, 0x99,
  0xb1, 0x8d, 0x8d, 0x9d, 0x9e, 0x7f, 0xa5, 0xa7, 0x6e, 0x9f, 0x5f, 0x88,
  0x83, 0x7a, 0xb7, 0xc6, 0x6c, 0xa4, 0x8c, 0x88, 0x9b, 0xa7, 0xbe, 0xab,
  0xa4, 0xaa, 0x7d, 0xa8, 0x8f, 0x95, 0x92, 0x9d, 0x9d, 0x74, 0x78, 0x78,
  0x9f, 0x8e, 0x9d, 0xa0, 0x86, 0x8e, 0xa2, 0x9b, 0x6d, 0x8b, 0x94, 0xaa,
  0x9d, 0x92, 0x97, 0x7c, 0x81, 0x9f, 0xa8, 0x98, 0x69, 0x88, 0x84, 0x79,
  0x81, 0x8e, 0x89, 0x9c, 0x8d, 0x7d, 0x71, 0x78, 0x6f, 0x95, 0x77, 0x9a,
  0x79, 0x90, 0x7f, 0x6e, 0x73, 0x88, 0x88, 0x98, 0x8d, 0x8d, 0x5a, 0x96,
  0x6a, 0x7f, 0x8c, 0xaa, 0xaf, 0x97, 0x8a, 0x7b, 0x5f, 0x8a, 0x8b, 0xb5,
  0xa5, 0x7e, 0x50, 0x7b, 0x7f, 0x90, 0x95, 0x92, 0x72, 0x7a, 0x98, 0x8f,
  0x76, 0x9d, 0x7b, 0x7e, 0x77, 0x8d, 0x7d, 0x79, 0x62, 0x7c, 0x8a, 0x94,
  0x76, 0x9b, 0x78, 0x8c, 0xa3, 0xb3, 0xaa, 0x7f, 0x78, 0x91, 0xa9, 0x80,
  0x8c, 0xb4, 0x95, 0x6c, 0x64, 0xb9, 0x80, 0x90, 0x98, 0xc6, 0xa7, 0x7e,
  0x7f, 0x83, 0xa5, 0xc0, 0xa7, 0xac, 0xbd, 0x9b, 0x8a, 0x97, 0x93, 0xdc,
  0x8c, 0xac, 0xab, 0x93, 0x72, 0xa5, 0x74, 0x87, 0x86, 0xb2, 0x70, 0xa7,
  0x9b, 0x96, 0x69, 0x9b, 0x95, 0xb6, 0xa6, 0xba, 0x94, 0x92, 0x7f, 0x9b,
  0x85, 0xa6, 0xae, 0xaf, 0x7a, 0xc0, 0x88, 0x9a, 0x6c, 0xa1, 0x8e, 0xa6,
  0x73, 0x8a, 0x85, 0x8b, 0x8f, 0xb6, 0x90, 0xa9, 0x7e, 0xac, 0x94, 0x99,
  0x7f, 0xa1, 0xa5, 0xbb, 0x80, 0x84, 0x7e, 0x79, 0x78, 0x96, 0x95, 0xc4,
  0xa9, 0x9a, 0xb6, 0x60, 0x9a, 0xa8, 0x7e, 0xa4, 0x84, 0x61, 0x96, 0x82,
  0x6b, 0xa9, 0x83, 0xa1, 0x83, 0x6c, 0x7e, 0x8d, 0x5b, 0x8e, 0x8e, 0xa9,
  0x83, 0x8f, 0xa0, 0x8a, 0x70, 0x7d, 0x91, 0xa6, 0xa5, 0x86, 0x8a, 0x75,
  0x75, 0x9d, 0x71, 0xac, 0x7a, 0x6e, 0x8c, 0x81, 0x9f, 0x89, 0x7f, 0x93,
  0x77, 0x7d, 0x71, 0x63, 0x90, 0x99, 0x86, 0x80, 0xa4, 0x98, 0x5f, 0x8d,
  0x86, 0xb0, 0x7f, 0x92, 0x9c, 0x82, 0x7c, 0x97, 0x89, 0x98, 0x94, 0x98,
  0x78, 0x89, 0x8d, 0x5f, 0x96, 0x82, 0x9e, 0x66, 0x8b, 0x82, 0x94, 0x75,
  0x84, 0x91, 0x6f, 0x73, 0x90, 0x79, 0xa9, 0xa4, 0x8b, 0x6c, 0x82, 0x6b,
  0x92, 0xaa, 0x98, 0xb4, 0x8c, 0x84, 0x6c, 0x6b, 0x82, 0x96, 0xb8, 0x88,
  0xa0, 0x91, 0x7f, 0xa8, 0xa5, 0x89, 0xa5, 0x94, 0x8e, 0x88, 0x80, 0x76,
  0x76, 0x9f, 0x9c, 0x7e, 0x95, 0x90, 0xa5, 0xa5, 0x6c, 0x8b, 0xab, 0xa3,
  0x90, 0x86, 0x7f, 0x7e, 0x88, 0x8c, 0x98, 0x9b, 0x88, 0x8c, 0x93, 0x78,
  0xa3, 0x8f, 0x98, 0x6a, 0x84, 0x85, 0xa1, 0x66, 0x9e, 0x96, 0x8e, 0x98,
  0x8d, 0x89, 0x75, 0x98, 0x77, 0x87, 0x9a, 0x9b, 0x97, 0x9d, 0x76, 0xb0,
  0x61, 0x7c, 0x90, 0x91, 0xb0, 0x8b, 0x58, 0x9e, 0x6c, 0x8a, 0x98, 0x8d,
  0xa5, 0x7f, 0x76, 0x8a, 0x8c, 0x95, 0x9f, 0x6c, 0x74, 0x73, 0x8e, 0x78,
  0x67, 0xa3, 0x90, 0x67, 0x80, 0xa9, 0x91, 0x81, 0x9b, 0x9a, 0x9d, 0x7b,
  0x89, 0x9b, 0xa1, 0x6f, 0x81, 0xa0, 0x9b, 0xa1, 0x8e, 0x92, 0x75, 0x82,
  0x74, 0x91, 0xa5, 0x85, 0x93, 0x8a, 0xa2, 0x7f, 0x7c, 0x90, 0x9b, 0x94,
  0x9c, 0x77, 0xa1, 0x7a, 0x7e, 0x99, 0x8d, 0x84, 0x8c, 0x83, 0xa5, 0x89,
  0x73, 0x94, 0x8c, 0x79, 0x8b, 0x94, 0x75, 0x5d, 0x8f, 0xac, 0x9d, 0x65,
  0x97, 0x92, 0x83, 0x6e, 0x8e, 0xad, 0xb6, 0x87, 0xa0, 0x9a, 0x84, 0xa5,
  0x9b, 0x9a, 0xb6, 0x75, 0x9b, 0xa3, 0x6b, 0x71, 0x7a, 0x92, 0x9b, 0x8c,
  0x8c, 0x8c, 0x8d, 0xa2, 0x71, 0xa7, 0x7b, 0xa5, 0x71, 0x92, 0x78, 0x9d,
  0x96, 0x8a, 0x88, 0x8e, 0x97, 0x8d, 0x79, 0x7d, 0x8e, 0x9f, 0x98, 0x74,
  0x6f, 0xb6, 0x56, 0x8e, 0x89, 0x84, 0x87, 0x96, 0x89, 0x91, 0x7a, 0x99,
  0x7c, 0x87, 0x7e, 0x85, 0x8f, 0x9c, 0x7e, 0xa1, 0x89, 0x82, 0x9f, 0x87,
  0x69, 0x91, 0x7d, 0xaa, 0x7e, 0x81, 0x99, 0x87, 0x91, 0x85, 0x86, 0x83,
  0x6e, 0x8e, 0x8f, 0x97, 0x85, 0x81, 0x68, 0x6b, 0x7b, 0x99, 0x82, 0x8b,
  0x6f, 0xa3, 0x96, 0x72, 0x7b, 0xa1, 0x8c, 0x83, 0x7e, 0x98, 0xa0, 0x6b,
  0x95, 0xa1, 0x87, 0xb0, 0x7b, 0x93, 0x7d, 0x96, 0xa5, 0xae, 0x93, 0x95,
  0x8a, 0x78, 0x8f, 0x8d, 0x9e, 0x75, 0x7b, 0x8c, 0x7f, 0xa9, 0x80, 0x94,
  0x8c, 0x6c, 0x88, 0x95, 0x75, 0x84, 0xa8, 0x80, 0x74, 0xad, 0x81, 0x85,
  0x5f, 0xb1, 0xa6, 0x88, 0x97, 0xa6, 0x7a, 0x81, 0x72, 0xc3, 0x87, 0x83,
  0x8f, 0x97, 0xad, 0x7d, 0x78, 0xd3, 0x7e, 0x9c, 0x5e, 0x88, 0xcd, 0x84,
  0x63, 0xaa, 0x67, 0xa7, 0x6a, 0x95, 0xd0, 0x8f, 0x84, 0xb0, 0x86, 0x80,
  0x79, 0x80, 0xae, 0x6d, 0x74, 0xb0, 0x8b, 0x88, 0xaf, 0xb1, 0x97, 0xa7,
  0x88, 0xab, 0x83, 0xa4, 0xa7, 0x94, 0x75, 0x6f, 0x9e, 0x99, 0x6b, 0xb1,
  0xa6, 0x8b, 0x96, 0x80, 0x80, 0x8d, 0x6c, 0xbc, 0x7f, 0x7e, 0x79, 0x7c,
  0x8f, 0x9b, 0x79, 0x86, 0x7a, 0x8e, 0xaa, 0x96, 0x6c, 0xa1, 0x76, 0x9d,
  0xa8, 0x97, 0x92, 0x8e, 0x89, 0xa6, 0x9a, 0x72, 0x7e, 0x96, 0x8b, 0x96,
  0x91, 0x89, 0x76, 0x77, 0xa9, 0x99, 0x96, 0x87, 0x74, 0x9c, 0x7c, 0xa1,
  0xa1, 0x8b, 0x78, 0x91, 0x70, 0x93, 0x87, 0x92, 0x96, 0x96, 0x83, 0xa3,
  0x6c, 0x8e, 0x7c, 0x80, 0x86, 0x8c, 0x83, 0x6f, 0xa8, 0x89, 0xaa, 0x8b,
  0x9d, 0x95, 0x6a, 0x7c, 0x8f, 0x93, 0xb1, 0x9b, 0x7c, 0x81, 0x86, 0x82,
  0x9d, 0x8f, 0x6d, 0x99, 0xa1, 0x7a, 0x95, 0x73, 0x84, 0x9e, 0xa6, 0x78,
  0x79, 0x93, 0x72, 0xa0, 0x5f, 0xce, 0xa4, 0xac, 0x88, 0x8e, 0x75, 0x97,
  0x7d, 0xbf, 0x8e, 0x6c, 0x86, 0x8e, 0xae, 0x90, 0x8d, 0xb8, 0x64, 0x96,
  0x7c, 0x76, 0xbf, 0x84, 0x75, 0x9b, 0x59, 0x86, 0x86, 0x8c, 0xbf, 0x96,
  0x80, 0xb0, 0x6d, 0xa6, 0x89, 0x8d, 0xa6, 0xa9, 0x81, 0xb9, 0x9d, 0x77,
  0x97, 0x88, 0x9e, 0x81, 0xa4, 0xa3, 0x98, 0xb3, 0x8a, 0x84, 0x97, 0x8f,
  0x97, 0x96, 0x74, 0x95, 0x69, 0x74, 0x82, 0x88, 0x6a, 0x86, 0x6b, 0x7b,
  0x93, 0x90, 0x85, 0xa1, 0x9f, 0x94, 0x4e, 0x9b, 0x89, 0x99, 0x93, 0x9f,
  0x81, 0x83, 0x76, 0x90, 0x78, 0x9b, 0x7f, 0x7e, 0x87, 0x8e, 0x80, 0x95,
  0x67, 0x93, 0x99, 0x83, 0x87, 0x87, 0x88, 0x81, 0x5b, 0x87, 0x8e, 0x81,
  0xa2, 0x8d, 0x95, 0x75, 0x9e, 0x92, 0x8c, 0x9e, 0x87, 0xa1, 0x81, 0x7a,
  0x5f, 0x8f, 0x89, 0x98, 0x8b, 0x95, 0x9f, 0x95, 0x6f, 0x81, 0x84, 0x7a,
  0xad, 0xa2, 0x7f, 0x75, 0x69, 0x9a, 0x83, 0x9d, 0x79, 0x9d, 0x78, 0x87,
  0x86, 0x85, 0x9b, 0x94, 0xb4, 0xa7, 0x67, 0x8c, 0x8d, 0x71, 0x8b, 0x75,
  0x61, 0xa7, 0x9b, 0x75, 0x82, 0x7e, 0x79, 0x7a, 0x95, 0xd2, 0xa6, 0x87,
  0x92, 0x94, 0x89, 0xa0, 0x6b, 0xc9, 0x91, 0x75, 0x8c, 0x8a, 0xb8, 0x88,
  0x8c, 0xb7, 0x3b, 0x8c, 0x92, 0x76, 0xd9, 0xab, 0x83, 0xb4, 0x53, 0x9b,
  0x73, 0x5b, 0xb8, 0xa7, 0x65, 0xab, 0x66, 0xa0, 0x91, 0x66, 0xaf, 0x80,
  0x5d, 0xa7, 0x79, 0x91, 0x94, 0x93, 0x9c, 0xb8, 0x9e, 0x9e, 0x6d, 0xb0,
  0x85, 0x85, 0x9e, 0x94, 0x98, 0x83, 0x5c, 0xa3, 0x55, 0x5e, 0x8a, 0x8b,
  0x8c, 0x89, 0x74, 0x80, 0xa5, 0x81, 0x90, 0xa0, 0x83, 0x8c, 0x60, 0x7c,
  0xb6, 0x71, 0x95, 0x83, 0x80, 0x84, 0x51, 0x86, 0xb7, 0x7f, 0x81, 0x70,
  0x95, 0x96, 0x72, 0x89, 0x71, 0x80, 0x95, 0xab, 0x8d, 0x9a, 0x7b, 0x8b,
  0x69, 0x6a, 0x8d, 0x95, 0x6d, 0x90, 0x81, 0x91, 0x8d, 0x91, 0x8c, 0x9d,
  0x78, 0xa2, 0x81, 0xa4, 0x9f, 0x8f, 0x7f, 0x9e, 0x8b, 0x91, 0x87, 0x8a,
  0x6f, 0x80, 0x77, 0x9d, 0x9c, 0xa1, 0x6d, 0x95, 0x86, 0x7f, 0x79, 0x82,
  0x8e, 0xa9, 0x88, 0x81, 0x82, 0x98, 0x6d, 0x76, 0x8a, 0x95, 0x83, 0x95,
  0x96, 0x7a, 0x89, 0x87, 0x79, 0xa9, 0xa3, 0x77, 0x81, 0x80, 0x7b, 0x88,
  0x82, 0xe3, 0xa3, 0x54, 0x7a, 0x80, 0x82, 0x74, 0x64, 0xe3, 0x67, 0x69,
  0x86, 0x6a, 0xa3, 0x89, 0xa0, 0xd7, 0x4c, 0x99, 0x81, 0x59, 0xb3, 0x93,
  0x7d, 0xa8, 0x4f, 0x9c, 0x8d, 0x34, 0xba, 0x8a, 0x95, 0x9c, 0x6f, 0x82,
  0x94, 0x70, 0x9d, 0x80, 0x83, 0xaa, 0x7a, 0x96, 0x70, 0x89, 0x98, 0x84,
  0x7e, 0x97, 0x6c, 0x9c, 0x84, 0x6d, 0x90, 0xa8, 0x99, 0x97, 0x70, 0xab,
  0x82, 0x51, 0x8c, 0x98, 0x8e, 0x9f, 0x61, 0x94, 0x94, 0x67, 0x82, 0x9f,
  0x91, 0x9a, 0x47, 0x7d, 0x82, 0x77, 0x93, 0x7d, 0x7e, 0x94, 0x59, 0x91,
  0x88, 0x87, 0x89, 0x83, 0x85, 0xa5, 0x8c, 0x76, 0x6f, 0x84, 0x7c, 0x66,
  0x8c, 0x93, 0x7a, 0x67, 0x8e, 0x72, 0x86, 0x7a, 0x76, 0x96, 0x83, 0x8e,
  0x98, 0x85, 0x6d, 0x58, 0x69, 0xaa, 0x78, 0x7c, 0x98, 0x74, 0x76, 0x82,
  0x77, 0x97, 0x87, 0x8b, 0x97, 0x72, 0x85, 0x91, 0x92, 0xac, 0x74, 0x85,
  0x97, 0x82, 0x70, 0x8b, 0x7c, 0x83, 0x8f, 0x9a, 0x91, 0x84, 0x6f, 0x67,
  0x8f, 0x95, 0x96, 0x9b, 0x85, 0x88, 0x90, 0x76, 0x7b, 0x99, 0x94, 0x98,
  0x80, 0x80, 0x7b, 0x8e, 0x92, 0xe9, 0xa7, 0x57, 0x95, 0x92, 0x93, 0x71,
  0x94, 0xf0, 0x61, 0x77, 0x9b, 0x5c, 0xb7, 0x86, 0x98, 0xd6, 0x42, 0x9e,
  0x7a, 0x43, 0xce, 0xa6, 0x8d, 0xc5, 0x43, 0x99, 0x81, 0x35, 0xa8, 0x93,
  0x85, 0xb1, 0x83, 0x88, 0x62, 0x6d, 0x9e, 0x73, 0x7d, 0xb2, 0x81, 0x9a,
  0x5a, 0x8a, 0x9a, 0x7b, 0x79, 0xa6, 0x6a, 0x93, 0x75, 0x66, 0xa4, 0x95,
  0x72, 0xa6, 0x5c, 0xac, 0x7c, 0x3f, 0x96, 0xab, 0x8f, 0x7d, 0x7f, 0x94,
  0x95, 0x7e, 0x8f, 0xb0, 0xa1, 0x90, 0x53, 0x70, 0xa6, 0x52, 0x9e, 0x6c,
  0x77, 0xa6, 0x62, 0x86, 0x97, 0x78, 0x85, 0x85, 0x7d, 0x94, 0x79, 0x8f,
  0x87, 0x69, 0x79, 0x6d, 0x95, 0x93, 0x6f, 0x79, 0xaa, 0x6f, 0x7d, 0x8f,
  0x70, 0xa1, 0x72, 0x83, 0x90, 0x6f, 0x88, 0x8c, 0x6c, 0x97, 0x97, 0x7d,
  0x6a, 0x81, 0x6b, 0x84, 0x72, 0xad, 0x8f, 0x78, 0x83, 0x7a, 0x75, 0xa6,
  0x78, 0xb8, 0x9e, 0x89, 0x96, 0x90, 0x7f, 0x95, 0x76, 0x9d, 0x6a, 0x80,
  0x83, 0x76, 0x90, 0x7b, 0x62, 0xa7, 0x8b, 0x92, 0x76, 0x80, 0x90, 0x6a,
  0x8e, 0x99, 0x87, 0x77, 0x7a, 0x7c, 0x80, 0x94, 0x92, 0xf9, 0x9e, 0x5f,
  0x8e, 0x87, 0x80, 0x72, 0xa8, 0xe4, 0x7a, 0x75, 0x6a, 0x63, 0xa6, 0x7f,
  0x82, 0xd5, 0x46, 0x89, 0x68, 0x45, 0xd0, 0xa3, 0x8d, 0xb8, 0x4c, 0xa0,
  0x95, 0x2d, 0xb5, 0x9a, 0x69, 0xa2, 0x6b, 0x86, 0x6d, 0x57, 0xa0, 0x8e,
  0x97, 0x9c, 0x81, 0x8e, 0x61, 0x87, 0xb2, 0x7c, 0x7d, 0x9b, 0x67, 0x99,
  0x55, 0x5a, 0xad, 0xc4, 0x98, 0xa5, 0x67, 0x93, 0x79, 0x50, 0x92, 0x99,
  0x92, 0x98, 0x75, 0x89, 0x99, 0x5d, 0x9c, 0x80, 0xa8, 0x9e, 0x44, 0x67,
  0x8a, 0x56, 0x91, 0x94, 0x78, 0xb3, 0x66, 0x97, 0x76, 0x7d, 0x83, 0x9b,
  0x7e, 0x9c, 0x82, 0x91, 0x61, 0x6a, 0x74, 0x81, 0x84, 0x91, 0x6a, 0x6d,
  0x8f, 0x6b, 0x73, 0x79, 0x7a, 0xa6, 0x6b, 0x68, 0x7b, 0x7a, 0x85, 0x92,
  0x6a, 0xa2, 0x81, 0x7e, 0x9f, 0x8b, 0x7c, 0x88, 0x73, 0xb5, 0x77, 0x7f,
  0x90, 0x62, 0x80, 0x86, 0x81, 0xa3, 0x96, 0x8f, 0x9a, 0x92, 0x72, 0x76,
  0x81, 0xac, 0x98, 0x8a, 0xa6, 0x7b, 0x7e, 0x7f, 0x68, 0x8e, 0x81, 0x89,
  0x84, 0xa2, 0x7b, 0x93, 0x79, 0xa5, 0x96, 0x8f, 0x77, 0x90, 0x80, 0x95,
  0x7f, 0xe6, 0x9c, 0x42, 0x92, 0x87, 0x94, 0x6a, 0x8d, 0xe7, 0x96, 0x5c,
  0x84, 0x62, 0xa5, 0x7f, 0x9d, 0xeb, 0x47, 0x8a, 0x89, 0x36, 0xc2, 0x97,
  0x82, 0xac, 0x21, 0xac, 0x94, 0x29, 0xbb, 0xb9, 0x61, 0x91, 0x63, 0x7a,
  0x7d, 0x63, 0x92, 0x8c, 0x98, 0x9d, 0x75, 0x86, 0x60, 0x8c, 0xa5, 0x7e,
  0x8d, 0xa7, 0x6b, 0x8f, 0x78, 0x53, 0xae, 0xa8, 0x91, 0xa5, 0x72, 0xb8,
  0x7e, 0x52, 0x97, 0x91, 0xa8, 0x9e, 0x6e, 0xa1, 0x8f, 0x5e, 0x96, 0x74,
  0x98, 0x9b, 0x64, 0x81, 0xa4, 0x5e, 0x94, 0x70, 0x9c, 0x89, 0x76, 0x92,
  0x74, 0x70, 0x8a, 0x82, 0x80, 0xa1, 0x85, 0x8b, 0x99, 0x7d, 0x8d, 0x8f,
  0x6c, 0x98, 0x71, 0x78, 0x80, 0x7b, 0x79, 0xac, 0x70, 0xa4, 0x7f, 0x73,
  0x8f, 0x61, 0x77, 0x77, 0x74, 0xa7, 0x74, 0x7d, 0xa3, 0x7f, 0x81, 0x96,
  0x74, 0xa1, 0x85, 0x6c, 0x85, 0x7e, 0x71, 0x90, 0x81, 0xad, 0x7e, 0x75,
  0x72, 0x8e, 0x79, 0x7d, 0x7c, 0xb3, 0x93, 0x86, 0x87, 0x6e, 0x92, 0x95,
  0x8a, 0x8f, 0xaf, 0x96, 0x98, 0x7b, 0x99, 0x80, 0x7e, 0x9a, 0x85, 0x5e,
  0x6c, 0x76, 0x82, 0xa3, 0x74, 0xfa, 0xab, 0x41, 0x8c, 0x7d, 0x7b, 0x65,
  0x81, 0xf6, 0x7b, 0x72, 0x84, 0x60, 0xb2, 0x93, 0x93, 0xdd, 0x40, 0x8e,
  0x71, 0x43, 0xd1, 0x82, 0x73, 0xad, 0x2e, 0x88, 0xa5, 0x19, 0xb0, 0xa3,
  0x7a, 0xac, 0x73, 0x75, 0x90, 0x50, 0x99, 0x89, 0x87, 0xa5, 0x94, 0x89,
  0x62, 0xa1, 0x9f, 0x8d, 0x7b, 0x9d, 0x8a, 0xac, 0x7b, 0x68, 0xab, 0xae,
  0x8e, 0x98, 0x62, 0xa2, 0x7e, 0x46, 0xa8, 0x7c, 0x93, 0x97, 0x5e, 0x8a,
  0x92, 0x63, 0xa2, 0x89, 0x84, 0x9b, 0x57, 0x97, 0x7f, 0x61, 0x95, 0x8d,
  0x8e, 0x9b, 0x6c, 0x9f, 0x7d, 0x7a, 0x8b, 0x6c, 0x8e, 0x9f, 0x76, 0xa1,
  0x83, 0x7c, 0x82, 0x7d, 0x64, 0x98, 0x5c, 0x78, 0x83, 0x7b, 0x70, 0x77,
  0x7a, 0x9b, 0x87, 0x88, 0xa9, 0x70, 0x80, 0x99, 0x5f, 0xa9, 0x7b, 0x91,
  0x93, 0x78, 0x84, 0x93, 0x59, 0xa8, 0x84, 0x75, 0xbe, 0x78, 0x69, 0x96,
  0x6f, 0xab, 0x86, 0x7a, 0xa2, 0x6f, 0x7a, 0xb0, 0x92, 0xa6, 0x8c, 0x86,
  0x90, 0x7f, 0x83, 0x9b, 0x93, 0x9c, 0x78, 0x86, 0x6d, 0x91, 0xa3, 0x5c,
  0x72, 0xa6, 0x7d, 0x8f, 0x8f, 0x83, 0x7a, 0x9b, 0x90, 0xee, 0xba, 0x37,
  0xa0, 0x74, 0x84, 0x7d, 0x91, 0xee, 0x9d, 0x55, 0x94, 0x67, 0xa8, 0x90,
  0xa9, 0xe2, 0x51, 0x85, 0x86, 0x3e, 0xcd, 0xa7, 0x75, 0xaf, 0x26, 0x87,
  0x80, 0x1d, 0xbf, 0xb6, 0x62, 0x95, 0x7a, 0x7c, 0x7f, 0x41, 0xaa, 0xb6,
  0x94, 0x9b, 0x8e, 0x78, 0x54, 0x80, 0xb5, 0xa7, 0x86, 0x99, 0x92, 0x93,
  0x79, 0x68, 0xae, 0xad, 0x96, 0xa2, 0x76, 0xb6, 0x94, 0x41, 0xa2, 0x9f,
  0x9c, 0x96, 0x81, 0x92, 0x6a, 0x5d, 0x8e, 0xa3, 0x9a, 0x8f, 0x70, 0xa7,
  0x8a, 0x61, 0x9f, 0x82, 0x8a, 0xa5, 0x6b, 0x94, 0xaa, 0x8a, 0x87, 0x8c,
  0x98, 0x9b, 0x66, 0x89, 0x7b, 0x86, 0x7e, 0x8e, 0x91, 0x99, 0x59, 0x6e,
  0x90, 0x70, 0x70, 0xa0, 0x60, 0xad, 0x81, 0x6e, 0x9a, 0x7f, 0x78, 0x97,
  0x7b, 0xa4, 0x70, 0x7d, 0xb7, 0x75, 0x8d, 0x8b, 0x68, 0xa2, 0x84, 0x87,
  0x9b, 0x60, 0x75, 0x98, 0x7e, 0x9e, 0x7c, 0x9b, 0x9d, 0x6a, 0x7e, 0x97,
  0x86, 0x9c, 0x84, 0x8a, 0x98, 0x70, 0x72, 0xa4, 0x7d, 0xae, 0xa1, 0x85,
  0x84, 0x87, 0x89, 0x93, 0x60, 0x92, 0x89, 0x50, 0x82, 0x64, 0x85, 0x95,
  0x90, 0xe6, 0xab, 0x45, 0x99, 0x7b, 0x77, 0x78, 0x83, 0xde, 0xaf, 0x6f,
  0x87, 0x75, 0xa7, 0x6d, 0x9d, 0xd4, 0x4a, 0x9c, 0x65, 0x40, 0xda, 0x84,
  0x76, 0xba, 0x32, 0x9f, 0x96, 0x12, 0xc0, 0xb4, 0x82, 0x93, 0x73, 0x65,
  0x89, 0x4b, 0xab, 0x9f, 0x90, 0x8e, 0x9a, 0x88, 0x6d, 0x82, 0xab, 0xa4,
  0x90, 0xa8, 0x97, 0xa6, 0x74, 0x7c, 0xb4, 0xa4, 0x95, 0x93, 0x8a, 0xaf,
  0x65, 0x54, 0xa0, 0x97, 0xa9, 0x95, 0x66, 0x82, 0xa2, 0x69, 0x91, 0x81,
  0x83, 0x9a, 0x53, 0xa3, 0x89, 0x6c, 0x9e, 0x79, 0x7e, 0x9b, 0x7a, 0xa9,
  0x9b, 0x81, 0x99, 0x83, 0x8b, 0x90, 0x82, 0x9b, 0x9d, 0x84, 0x80, 0x73,
  0x78, 0xa2, 0x56, 0x7d, 0xab, 0x80, 0x74, 0x83, 0x6a, 0xa3, 0x6f, 0x6a,
  0x85, 0x4f, 0x7a, 0x9b, 0x60, 0xab, 0x91, 0x84, 0x8c, 0x83, 0x87, 0x7d,
  0x6f, 0x9f, 0x87, 0x91, 0xb1, 0x64, 0x7e, 0x88, 0x65, 0xa6, 0x8a, 0x99,
  0x95, 0x66, 0x79, 0xab, 0x6f, 0x9d, 0x90, 0x8c, 0x89, 0x6d, 0x7d, 0x9c,
  0x60, 0x9c, 0x77, 0x9e, 0x73, 0x85, 0x80, 0x8f, 0x72, 0x93, 0x80, 0x71,
  0x76, 0x73, 0x7c, 0x97, 0x85, 0xea, 0xa3, 0x48, 0x90, 0x76, 0x90, 0x77,
  0x8e, 0xe8, 0xa0, 0x6e, 0x91, 0x7c, 0xac, 0x95, 0x9b, 0xcc, 0x3f, 0x8b,
  0x83, 0x39, 0xd1, 0x88, 0x7a, 0xa9, 0x32, 0x8a, 0x7f, 0x18, 0xd1, 0x8a,
  0x76, 0xa9, 0x5d, 0x81, 0x7a, 0x58, 0x9c, 0x80, 0x7a, 0x9e, 0x90, 0x7e,
  0x6d, 0x86, 0xa2, 0xa2, 0x95, 0x9c, 0x9c, 0x92, 0x62, 0x70, 0xa1, 0xa9,
  0x89, 0x9e, 0x80, 0xb9, 0x7c, 0x61, 0x9c, 0x92, 0x93, 0xa0, 0x72, 0x8f,
  0x89, 0x54, 0x93, 0x97, 0x90, 0x99, 0x83, 0x98, 0x99, 0x68, 0x9a, 0x8d,
  0x81, 0x8c, 0x73, 0xae, 0x8b, 0x86, 0x8f, 0x81, 0x85, 0x92, 0x73, 0x90,
  0x81, 0x87, 0x7e, 0x82, 0x73, 0x96, 0x64, 0x87, 0x8b, 0x6f, 0x78, 0x97,
  0x63, 0xa1, 0x6f, 0x7f, 0x95, 0x61, 0x89, 0x97, 0x75, 0xab, 0x8f, 0x75,
  0x91, 0x7e, 0x79, 0x99, 0x80, 0x93, 0x7b, 0x8f, 0xa6, 0x70, 0x7d, 0xa9,
  0x69, 0xac, 0x80, 0x97, 0x9d, 0x83, 0x82, 0x9b, 0x7e, 0x9c, 0x86, 0x95,
  0x90, 0x7f, 0xa4, 0x71, 0x76, 0xa9, 0xba, 0x97, 0x75, 0x88, 0x8b, 0x5e,
  0x78, 0x88, 0x85, 0x69, 0x83, 0x75, 0x7a, 0x81, 0x89, 0xe6, 0xb4, 0x57,
  0x9f, 0x87, 0x85, 0x5b, 0x78, 0xe4, 0x99, 0x67, 0x95, 0x68, 0xb9, 0x87,
  0x8e, 0xc2, 0x47, 0x86, 0x84, 0x52, 0xd7, 0x8a, 0x8c, 0xa0, 0x2e, 0x92,
  0x8d, 0x23, 0xc2, 0x9b, 0x64, 0x9c, 0x66, 0x7d, 0x8b, 0x6f, 0xb2, 0x87,
  0x95, 0x9a, 0x96, 0x86, 0x69, 0x68, 0xbc, 0x94, 0x75, 0xa4, 0x87, 0x9b,
  0x69, 0x5e, 0xa4, 0xa9, 0x9c, 0x97, 0x88, 0xba, 0x7a, 0x64, 0x9b, 0xb3,
  0x8b, 0x8d, 0x81, 0x81, 0x92, 0x65, 0x9e, 0x98, 0xa0, 0x8a, 0x6e, 0x94,
  0x97, 0x77, 0x9e, 0x84, 0x92, 0x8c, 0x6e, 0x95, 0x88, 0x8c, 0x88, 0x81,
  0x89, 0x98, 0x58, 0x86, 0x99, 0x7d, 0x7e, 0x84, 0x8e, 0x98, 0x62, 0x7e,
  0x7e, 0x7c, 0x6f, 0x9c, 0x72, 0x9f, 0x75, 0x8b, 0x9d, 0x71, 0x78, 0x94,
  0x71, 0xaa, 0x81, 0x78, 0xad, 0x78, 0x85, 0x8c, 0x70, 0x97, 0x8e, 0x7e,
  0x90, 0x64, 0x84, 0x9c, 0x62, 0x9b, 0x9b, 0x7d, 0x99, 0x7b, 0x8a, 0x9b,
  0x76, 0x9b, 0x83, 0x88, 0x7d, 0x7c, 0xa6, 0x7c, 0x82, 0x9f, 0x92, 0x8f,
  0x90, 0x87, 0x8a, 0x90, 0x7d, 0x8c, 0x6c, 0x5c, 0x88, 0x78, 0x84, 0x93,
  0x8b, 0xed, 0xa3, 0x6b, 0x9d, 0x89, 0x96, 0x70, 0x8f, 0xd7, 0xb0, 0x59,
  0x9b, 0x6d, 0xa8, 0x7e, 0x8a, 0xd9, 0x43, 0x83, 0x79, 0x4d, 0xd0, 0x7e,
  0x83, 0xaf, 0x2b, 0xa7, 0x68, 0x22, 0xcd, 0xab, 0x65, 0xaf, 0x59, 0x72,
  0x5c, 0x4e, 0xb9, 0x9e, 0x8e, 0xa3, 0x9a, 0x8d, 0x80, 0x63, 0xb1, 0x8f,
  0x6c, 0xa3, 0x93, 0x9c, 0x65, 0x6c, 0xa5, 0x9f, 0x8a, 0x9a, 0x81, 0xb4,
  0x80, 0x6c, 0x92, 0x97, 0x93, 0x92, 0x69, 0x80, 0x7b, 0x63, 0x97, 0x91,
  0x85, 0x89, 0x74, 0x8d, 0x88, 0x44, 0x96, 0x9d, 0x99, 0x9b, 0x6b, 0x84,
  0x8f, 0x79, 0x93, 0x73, 0x7e, 0x9f, 0x72, 0x8d, 0x9b, 0x8c, 0x86, 0x79,
  0x7b, 0x93, 0x72, 0x92, 0x84, 0x74, 0x79, 0x8c, 0x6e, 0xa1, 0x6e, 0x79,
  0x8e, 0x67, 0x89, 0xa3, 0x6e, 0xab, 0x89, 0x60, 0xa9, 0x70, 0x6e, 0x97,
  0x7d, 0xaa, 0x8d, 0x80, 0x9b, 0x7a, 0x74, 0x9c, 0x7e, 0x8f, 0x76, 0x93,
  0x9d, 0x5c, 0x7f, 0xb9, 0x75, 0x9a, 0x83, 0x90, 0x9d, 0x6a, 0xa3, 0xb7,
  0x7b, 0x9f, 0x81, 0x9f, 0x80, 0x89, 0x9c, 0x85, 0x6d, 0x9e, 0x7e, 0x7c,
  0x7b, 0x89, 0x8b, 0x9f, 0x8d, 0xd6, 0x9e, 0x53, 0xce, 0x8e, 0x92, 0x7e,
  0x7d, 0xd6, 0x9e, 0x7b, 0xbc, 0x7a, 0xb7, 0x61, 0x91, 0xd4, 0x46, 0x84,
  0x7e, 0x47, 0xcc, 0x72, 0x77, 0xad, 0x25, 0x8f, 0x78, 0x37, 0xd7, 0x8e,
  0x72, 0x8b, 0x56, 0x78, 0x76, 0x52, 0xb1, 0x96, 0x8a, 0xa2, 0x7b, 0x7c,
  0x5f, 0x85, 0xac, 0xb8, 0x7a, 0xb4, 0xa0, 0xb6, 0x63, 0x7c, 0xb7, 0x9e,
  0x83, 0xaa, 0x8e, 0xa7, 0x69, 0x5b, 0x8d, 0x93, 0x9c, 0x8e, 0x76, 0x89,
  0x8e, 0x58, 0x80, 0xa4, 0xa6, 0x84, 0x71, 0x88, 0x9c, 0x6c, 0x97, 0x75,
  0x87, 0x8f, 0x60, 0x8d, 0x81, 0x80, 0x89, 0x75, 0x7b, 0x8b, 0x6e, 0x9d,
  0x92, 0x7d, 0x8f, 0x7d, 0x76, 0x98, 0x58, 0x82, 0x8a, 0x96, 0x73, 0x83,
  0x7e, 0xa2, 0x6e, 0x85, 0x9c, 0x7b, 0x91, 0xa2, 0x79, 0x94, 0x84, 0x87,
  0x9c, 0x7e, 0x6c, 0x96, 0x6f, 0x9b, 0x7e, 0x76, 0xa9, 0x87, 0x73, 0x95,
  0x6a, 0xa3, 0x7b, 0x85, 0x9e, 0x66, 0x80, 0x90, 0x7c, 0xa9, 0x92, 0x8d,
  0x80, 0x80, 0x96, 0x73, 0x89, 0x82, 0x98, 0x8e, 0x7b, 0x90, 0x74, 0x86,
  0x88, 0x9b, 0x8a, 0x9a, 0x95, 0x80, 0x77, 0x89, 0x8c, 0xcb, 0x9c, 0x67,
  0xb1, 0x78, 0xa4, 0x75, 0x88, 0xcf, 0x96, 0x6d, 0xa8, 0x61, 0xa4, 0x62,
  0x9a, 0xc2, 0x6a, 0x84, 0x7e, 0x54, 0xca, 0x8a, 0x7f, 0xc1, 0x21, 0x8b,
  0x89, 0x3a, 0xd7, 0x83, 0x60, 0x9c, 0x47, 0x80, 0x7d, 0x54, 0xa9, 0x84,
  0x79, 0x9e, 0x9c, 0x85, 0x55, 0x69, 0xb1, 0x99, 0x89, 0xaa, 0xad, 0x9e,
  0x6f, 0x61, 0xaa, 0xa0, 0x80, 0xa0, 0x97, 0xb4, 0x9c, 0x45, 0xb3, 0xa1,
  0x97, 0x90, 0x6f, 0x7b, 0xa1, 0x53, 0xa3, 0x9a, 0x8c, 0x9e, 0x63, 0x99,
  0x92, 0x40, 0x8e, 0x8d, 0x90, 0x9f, 0x79, 0x8b, 0x7d, 0x86, 0x83, 0x77,
  0x92, 0x93, 0x57, 0x86, 0x9e, 0x83, 0x90, 0x73, 0x79, 0x8d, 0x5d, 0x80,
  0x87, 0x70, 0x90, 0x85, 0x8a, 0x85, 0x81, 0x8b, 0x8d, 0x80, 0x8a, 0x90,
  0x62, 0xa9, 0x6f, 0x84, 0xad, 0x80, 0x8e, 0x8b, 0x7a, 0x98, 0x91, 0x8d,
  0x8c, 0x73, 0x85, 0x97, 0x64, 0x9c, 0x81, 0x7d, 0x90, 0x97, 0x98, 0x93,
  0x8f, 0xa2, 0x83, 0x99, 0x93, 0x5f, 0x8d, 0x9c, 0x81, 0x90, 0x86, 0x8a,
  0x93, 0x87, 0x91, 0x6d, 0x83, 0x9d, 0x82, 0x71, 0x79, 0x87, 0x84, 0x8c,
  0x98, 0xd7, 0xb3, 0x71, 0xbc, 0x8a, 0x92, 0x7a, 0x81, 0xd8, 0x90, 0x6a,
  0xbb, 0x73, 0xaf, 0x8f, 0x91, 0xc1, 0x5a, 0x86, 0xab, 0x4e, 0xcd, 0x83,
  0x5f, 0xbb, 0x44, 0x91, 0x63, 0x35, 0xbe, 0x8a, 0x68, 0xbb, 0x43, 0x85,
  0x84, 0x4f, 0x96, 0x83, 0x7b, 0xa2, 0x8c, 0x88, 0x7b, 0x73, 0xa8, 0xb4,
  0x6f, 0x9c, 0xa4, 0xb0, 0x6d, 0x78, 0xbe, 0x9f, 0xa0, 0x99, 0x87, 0xb0,
  0xac, 0x55, 0xae, 0xb8, 0x95, 0x8b, 0x74, 0x7b, 0x8c, 0x51, 0x9f, 0x98,
  0x99, 0x84, 0x64, 0x7d, 0x97, 0x55, 0xa1, 0x8f, 0x8c, 0x85, 0x70, 0x91,
  0x88, 0x73, 0x96, 0x74, 0x80, 0x9f, 0x71, 0x7c, 0x7c, 0x92, 0x83, 0x70,
  0x71, 0xa1, 0x65, 0x92, 0x8e, 0x90, 0x93, 0x81, 0x7c, 0xa7, 0x6a, 0x79,
  0xa6, 0x7a, 0x8e, 0x99, 0x68, 0xb1, 0x88, 0x87, 0x97, 0x8a, 0x89, 0xa2,
  0x70, 0xa8, 0x81, 0x8b, 0xaa, 0x5b, 0x76, 0xa4, 0x74, 0x89, 0x8a, 0x8f,
  0x93, 0x68, 0x78, 0xb1, 0x8d, 0x9f, 0x86, 0x89, 0x88, 0x75, 0x91, 0x8d,
  0x7b, 0x8e, 0xa2, 0x9c, 0x88, 0x7e, 0x81, 0x87, 0x6c, 0xa7, 0x85, 0x81,
  0x86, 0x8f, 0x88, 0xa5, 0x9f, 0xd0, 0xaa, 0x77, 0xd0, 0x82, 0x9e, 0x71,
  0x9d, 0xe2, 0x82, 0x6c, 0xb4, 0x65, 0xa8, 0x94, 0x8d, 0xbd, 0x62, 0x7b,
  0x7c, 0x51, 0xcb, 0x62, 0x64, 0xa5, 0x35, 0x8a, 0x71, 0x17, 0xc2, 0x7c,
  0x65, 0x92, 0x4e, 0x7f, 0x95, 0x5e, 0x97, 0x6a, 0x63, 0xa3, 0x8f, 0x6d,
  0x69, 0x88, 0xb6, 0xbf, 0x85, 0x93, 0xa9, 0x92, 0x46, 0x73, 0xbf, 0xa7,
  0x83, 0x98, 0x90, 0xad, 0x9d, 0x56, 0xae, 0x9c, 0x86, 0x7c, 0x7f, 0x85,
  0xa8, 0x5c, 0x90, 0x8f, 0x96, 0x8d, 0x71, 0x83, 0x99, 0x47, 0x9d, 0x8b,
  0x93, 0x7b, 0x5e, 0x87, 0x8a, 0x8d, 0x9b, 0x5f, 0x8b, 0x97, 0x6d, 0x84,
  0x8a, 0x8a, 0x8e, 0x6d, 0x76, 0xa2, 0x63, 0x74, 0x87, 0x89, 0x74, 0x78,
  0x6e, 0x93, 0x7c, 0x8a, 0x97, 0x90, 0x98, 0x8b, 0x6b, 0xa0, 0x79, 0xa1,
  0x9b, 0x7c, 0x97, 0x88, 0x7d, 0x8c, 0x73, 0x95, 0x9a, 0x82, 0x90, 0x7d,
  0x80, 0x92, 0x86, 0x9b, 0x92, 0x71, 0x84, 0xab, 0x68, 0x8d, 0x96, 0x8b,
  0x78, 0x6a, 0x96, 0x80, 0x84, 0x82, 0x98, 0x86, 0x91, 0x73, 0x8d, 0x6c,
  0x88, 0xa1, 0x95, 0x74, 0x88, 0x90, 0xa5, 0x7f, 0x7e, 0xcd, 0xa5, 0x6d,
  0xd9, 0x90, 0xc0, 0x91, 0xa1, 0xd5, 0x88, 0x6f, 0xc4, 0x79, 0xb0, 0x4f,
  0x9e, 0xc4, 0x68, 0x98, 0x83, 0x74, 0xb8, 0x77, 0x71, 0x8f, 0x2e, 0x80,
  0x83, 0x3a, 0xd5, 0x66, 0x78, 0x9c, 0x43, 0x86, 0x71, 0x50, 0x91, 0x87,
  0x84, 0xa5, 0x9e, 0x77, 0x68, 0x87, 0xa1, 0xa2, 0x79, 0x99, 0xa4, 0xa1,
  0x52, 0x7f, 0xa7, 0xa7, 0x99, 0x96, 0x94, 0xa8, 0x8b, 0x52, 0xb8, 0x9b,
  0xa6, 0x86, 0x74, 0x7f, 0xa4, 0x55, 0xae, 0x82, 0xa3, 0x77, 0x5c, 0x71,
  0x9d, 0x45, 0x87, 0x92, 0x76, 0x8a, 0x73, 0x8d, 0x79, 0x89, 0xa6, 0x78,
  0x78, 0x88, 0x73, 0x86, 0x7b, 0x94, 0x96, 0x7d, 0x79, 0x96, 0x66, 0x85,
  0x7e, 0x75, 0x90, 0x8a, 0x94, 0x94, 0x6f, 0x80, 0x99, 0x8c, 0xa5, 0x97,
  0x68, 0xa0, 0x80, 0x91, 0x99, 0x81, 0x7e, 0xb2, 0x78, 0x89, 0x79, 0xa0,
  0x93, 0x87, 0x80, 0x96, 0x98, 0x9a, 0x9a, 0x86, 0x9d, 0x82, 0x7f, 0x99,
  0x73, 0x9b, 0x90, 0x9a, 0x7c, 0x7c, 0x91, 0x84, 0x75, 0x8a, 0x7b, 0x83,
  0x83, 0x8e, 0x8f, 0x80, 0x91, 0x98, 0x84, 0x90, 0x97, 0x93, 0xa3, 0x78,
  0xa8, 0xe0, 0xad, 0x68, 0xc1, 0x9d, 0xb6, 0x74, 0x86, 0xc8, 0x94, 0x6d,
  0xa1, 0x61, 0xac, 0x7b, 0x9e, 0xc1, 0x6b, 0x88, 0x7a, 0x75, 0xaa, 0x50,
  0x79, 0xa0, 0x23, 0x94, 0x78, 0x38, 0xc2, 0x93, 0x66, 0x9a, 0x46, 0x75,
  0x95, 0x55, 0x9b, 0x68, 0x87, 0x96, 0x94, 0x7e, 0x6a, 0x88, 0x95, 0xa2,
  0x86, 0xa9, 0x9d, 0xa7, 0x67, 0x7e, 0xa4, 0xbf, 0x8a, 0xa4, 0x8d, 0xb2,
  0xa4, 0x5c, 0xa8, 0xa9, 0x82, 0x80, 0x7f, 0x8c, 0x95, 0x6d, 0xbb, 0xa4,
  0x7b, 0x89, 0x64, 0x83, 0x91, 0x6c, 0xa3, 0x79, 0x81, 0x89, 0x66, 0x7f,
  0xa3, 0x8d, 0x8e, 0x72, 0x96, 0x8a, 0x81, 0x94, 0x81, 0x9e, 0x8d, 0x79,
  0x69, 0x93, 0x67, 0x87, 0x9b, 0x76, 0x99, 0x8b, 0x84, 0x9f, 0x7b, 0x94,
  0x8e, 0xae, 0x99, 0x9e, 0x5a, 0x91, 0x85, 0x8d, 0x8b, 0x88, 0x86, 0x97,
  0x89, 0x8e, 0x85, 0x85, 0x92, 0x92, 0x8c, 0x91, 0x86, 0x8d, 0x88, 0x8c,
  0x9a, 0x85, 0x87, 0xac, 0x72, 0x82, 0x94, 0x80, 0x90, 0x80, 0xa7, 0x8c,
  0x81, 0x88, 0x8f, 0x82, 0x8b, 0x85, 0x91, 0x7f, 0xa8, 0xa4, 0x90, 0xac,
  0x8c, 0xbc, 0xb3, 0x7d, 0x9a, 0xc4, 0xa3, 0x60, 0x98, 0xa7, 0xa4, 0x98,
  0xa2, 0xbf, 0x69, 0x73, 0xa3, 0x9b, 0xad, 0x53, 0xbd, 0xca, 0x69, 0x84,
  0xa1, 0x82, 0xb0, 0x43, 0x87, 0x9f, 0x2e, 0x83, 0x6f, 0x45, 0xb5, 0x85,
  0x98, 0xa7, 0x41, 0x6a, 0x8a, 0x77, 0x98, 0x62, 0x7c, 0x9d, 0x76, 0x67,
  0x53, 0x9e, 0x98, 0xad, 0x81, 0xb6, 0x93, 0x9f, 0x36, 0x54, 0xb9, 0xbd,
  0x7d, 0x9c, 0x92, 0xb5, 0x8d, 0x6e, 0xb5, 0xaa, 0xa5, 0x76, 0x7d, 0x8b,
  0x89, 0x68, 0xaa, 0xa1, 0x94, 0x81, 0x50, 0x7e, 0x8d, 0x89, 0x9f, 0x79,
  0x6c, 0x92, 0x6b, 0x93, 0x9e, 0x9b, 0xa7, 0x75, 0x92, 0x8b, 0x77, 0x92,
  0x89, 0xa5, 0x8b, 0x7c, 0x72, 0x9d, 0x7b, 0x95, 0x80, 0x8b, 0x92, 0x8e,
  0x76, 0xa3, 0x69, 0x97, 0x93, 0x76, 0x8e, 0x93, 0x5f, 0xa6, 0x7e, 0x90,
  0x95, 0x97, 0x8b, 0x97, 0x6e, 0x8f, 0x7b, 0x94, 0x99, 0x7e, 0x75, 0xa2,
  0x8a, 0x7d, 0x91, 0x91, 0x96, 0x75, 0x90, 0x9a, 0x95, 0x88, 0x9c, 0x79,
  0x83, 0x94, 0x9f, 0x7c, 0x84, 0x80, 0xaf, 0x95, 0x83, 0x86, 0x92, 0x81,
  0x9a, 0x91, 0x8f, 0x7d, 0x78, 0xba, 0xbf, 0x81, 0x97, 0xd1, 0x8e, 0x74,
  0xc4, 0xb9, 0xb6, 0x62, 0x9c, 0xc5, 0x69, 0x7a, 0xb7, 0x87, 0x81, 0x54,
  0x99, 0xbf, 0x74, 0xa1, 0x95, 0x99, 0x58, 0x73, 0x65, 0xa6, 0x39, 0x8d,
  0x74, 0x5a, 0x67, 0x75, 0x80, 0xab, 0x4f, 0x7d, 0x4b, 0x84, 0x88, 0x65,
  0x8f, 0xb5, 0x73, 0x79, 0x55, 0x91, 0x6d, 0xb3, 0x77, 0xa8, 0x92, 0xae,
  0x4e, 0x71, 0xaf, 0xc8, 0x8c, 0xa0, 0xa5, 0xc8, 0xa1, 0x78, 0xdd, 0xbd,
  0xa5, 0x8d, 0x7f, 0x84, 0x94, 0x62, 0xae, 0x8e, 0x99, 0x8b, 0x6d, 0x8b,
  0x96, 0x91, 0x86, 0x6f, 0x87, 0x86, 0x81, 0x8d, 0x81, 0xa2, 0x72, 0x69,
  0x96, 0x8f, 0x98, 0x87, 0x96, 0xb8, 0x6f, 0x70, 0x94, 0x99, 0x82, 0x93,
  0x87, 0x6a, 0x7f, 0x76, 0x85, 0xa5, 0x82, 0x8f, 0x87, 0x89, 0xa2, 0x94,
  0x76, 0xae, 0x89, 0x9d, 0x95, 0x77, 0x84, 0x9f, 0x80, 0x93, 0x81, 0xa2,
  0x98, 0x86, 0x80, 0x80, 0x86, 0x82, 0x8f, 0xb3, 0x8e, 0x80, 0x95, 0xaa,
  0x7d, 0x97, 0xa0, 0x82, 0x8d, 0x8d, 0x94, 0x82, 0x70, 0x95, 0x6b, 0x89,
  0x8e, 0x6b, 0x6c, 0x8a, 0xa1, 0x90, 0x96, 0xa2, 0x85, 0xc8, 0xaa, 0x83,
  0xbe, 0xbc, 0x98, 0x90, 0x8b, 0xd3, 0x67, 0x95, 0xa4, 0xa9, 0x91, 0x8c,
  0xba, 0xa3, 0x8d, 0x7b, 0xbf, 0xbe, 0x65, 0x8c, 0x83, 0x88, 0x82, 0x3c,
  0xa0, 0xa0, 0x50, 0x7a, 0x61, 0x59, 0x7b, 0x68, 0x82, 0x8b, 0x60, 0x63,
  0x97, 0x61, 0x94, 0x85, 0x79, 0xa2, 0x57, 0x66, 0x69, 0x9d, 0x72, 0x84,
  0x63, 0xa7, 0x7f, 0x91, 0x42, 0x90, 0xb5, 0xbd, 0x9c, 0xb0, 0x95, 0x9e,
  0x95, 0x6c, 0xbb, 0xa4, 0x98, 0xa8, 0x92, 0x87, 0x91, 0x79, 0x9f, 0xb7,
  0x99, 0x8e, 0x7c, 0x91, 0x8a, 0x70, 0x67, 0x6c, 0x91, 0x96, 0x89, 0x85,
  0x84, 0x8c, 0x86, 0x6e, 0xa3, 0xaa, 0x92, 0x88, 0x94, 0x9e, 0x82, 0x93,
  0x75, 0xb4, 0x7c, 0x9c, 0x8f, 0x99, 0x83, 0x8e, 0x7d, 0x8f, 0x74, 0x81,
  0xb0, 0x8c, 0x93, 0x85, 0x6e, 0x93, 0x8b, 0x8a, 0x8f, 0x8b, 0x78, 0x8f,
  0x69, 0x78, 0x91, 0x8f, 0xb4, 0x86, 0x8f, 0x98, 0x8d, 0x88, 0x89, 0x9c,
  0x9a, 0x81, 0x90, 0x91, 0x6e, 0x82, 0xac, 0x7e, 0x82, 0x88, 0xa6, 0x8b,
  0x9c, 0x88, 0x6f, 0x93, 0xb2, 0x8d, 0x74, 0x83, 0xa6, 0x96, 0x7d, 0x6c,
  0x73, 0xac, 0x79, 0x7a, 0x96, 0xa8, 0x9b, 0x86, 0xab, 0xc1, 0x93, 0x8f,
  0x78, 0xc1, 0x7e, 0x77, 0x98, 0x8a, 0x9e, 0x8d, 0xbe, 0x9e, 0x6e, 0x96,
  0x7f, 0x95, 0x83, 0x69, 0xa9, 0xac, 0x44, 0x77, 0x67, 0x72, 0xb2, 0x6d,
  0xa5, 0xa5, 0x41, 0x45, 0x8b, 0x87, 0x8d, 0x62, 0x9f, 0xbf, 0x78, 0x59,
  0x5b, 0xa4, 0x7f, 0x9a, 0x87, 0xa6, 0x86, 0x8f, 0x74, 0xb6, 0x87, 0x94,
  0x85, 0xa2, 0x93, 0x66, 0xb7, 0xa1, 0x85, 0x89, 0xa0, 0x9f, 0x8e, 0x7b,
  0xa7, 0x89, 0x9f, 0x91, 0x8f, 0x9b, 0x94, 0x92, 0x8e, 0x87, 0x66, 0x7c,
  0xa1, 0x8d, 0x97, 0x9d, 0x8f, 0x85, 0x9c, 0x7c, 0x89, 0xa2, 0x9f, 0x7c,
  0x8d, 0x9f, 0xa4, 0x74, 0x78, 0xa3, 0x8a, 0x77, 0x97, 0x82, 0x8a, 0x83,
  0x8b, 0x89, 0x99, 0x7b, 0x81, 0x7e, 0x7c, 0x95, 0x75, 0x7d, 0x97, 0x7a,
  0x89, 0xa8, 0xad, 0xa2, 0x7a, 0x94, 0x88, 0x96, 0x9c, 0x83, 0x7b, 0x69,
  0x6b, 0x7b, 0x82, 0x84, 0x99, 0x88, 0x87, 0xaa, 0x61, 0x8a, 0x84, 0x7e,
  0x87, 0x7b, 0x9b, 0x88, 0x7e, 0x7e, 0x8c, 0x89, 0x91, 0x72, 0x79, 0x81,
  0x97, 0x90, 0x8b, 0x89, 0x9c, 0x8a, 0x8d, 0x7b, 0x9a, 0x8e, 0x70, 0x85,
  0xaa, 0x8a, 0x93, 0xa3, 0x97, 0x84, 0x81, 0x7f, 0x9f, 0x7a, 0x98, 0x81,
  0x95, 0x89, 0x5c, 0xa0, 0xa0, 0x8a, 0x93, 0x97, 0xb7, 0x84, 0x8b, 0x7f,
  0x9b, 0x6b, 0x9a, 0x6a, 0x9e, 0x79, 0x88, 0x8b, 0x90, 0x91, 0x8c, 0x9c,
  0x91, 0x8b, 0x82, 0x82, 0xb3, 0x8b, 0x87, 0x6f, 0x83, 0x9f, 0x79, 0x81,
  0x8d, 0x8d, 0xa2, 0x95, 0x7f, 0xa1, 0xad, 0x95, 0x6d, 0x8e, 0x94, 0x96,
  0x81, 0x86, 0x9d, 0x9a, 0xa1, 0xa2, 0x89, 0x81, 0x84, 0x83, 0x73, 0x72,
  0x7e, 0x9d, 0x84, 0x68, 0x9e, 0x7b, 0x7e, 0x8c, 0x6e, 0x6c, 0xa4, 0x86,
  0x7b, 0x88, 0x62, 0x7e, 0xa9, 0x8d, 0x98, 0x70, 0x7e, 0x74, 0x71, 0x95,
  0x87, 0x86, 0x9b, 0x69, 0x9d, 0x91, 0x62, 0x91, 0x8a, 0x8b, 0x9b, 0x82,
  0x7f, 0x93, 0x94, 0x93, 0x80, 0x9b, 0x8c, 0x8a, 0x90, 0x78, 0x6d, 0x9f,
  0x66, 0x8a, 0x8a, 0x6c, 0xa0, 0x82, 0x6a, 0x7f, 0x60, 0x78, 0x94, 0x9b,
  0x97, 0xa2, 0x8b, 0xa6, 0x7b, 0xa7, 0x90, 0x68, 0x8f, 0x7a, 0x8c, 0x88,
  0x86, 0xa9, 0x67, 0x84, 0x96, 0x7e, 0xa7, 0x95, 0x83, 0x9b, 0x9b, 0x8f,
  0x89, 0x88, 0x85, 0x6c, 0x8c, 0x9a, 0x79, 0x69, 0x7e, 0x7d, 0xb2, 0x86,
  0x77, 0x91, 0x86, 0x88, 0xa3, 0x95, 0x95, 0x8b, 0x6b, 0x76, 0xa0, 0xac,
  0x9e, 0x91, 0x85, 0x9e, 0x8e, 0x82, 0x8d, 0x7e, 0x9e, 0x92, 0xa1, 0xb5,
  0x84, 0xa7, 0x8d, 0x94, 0xb6, 0x6f, 0x96, 0x9e, 0x73, 0x90, 0x99, 0x8c,
  0xab, 0x94, 0x7c, 0xa1, 0xa2, 0x74, 0x8f, 0x6e, 0x7e, 0xa1, 0x8a, 0x76,
  0x85, 0x87, 0xa4, 0x8c, 0x79, 0x7e, 0x67, 0xa0, 0x80, 0x75, 0x95, 0x6f,
  0x6c, 0x98, 0x8f, 0x8d, 0x85, 0x77, 0x6d, 0x94, 0x7d, 0x6e, 0x84, 0x86,
  0x6f, 0x87, 0x8b, 0x7d, 0x85, 0x81, 0x86, 0x6a, 0x73, 0x72, 0xa6, 0x94,
  0x7a, 0x88, 0x9a, 0xb3, 0x97, 0x83, 0x9d, 0x62, 0x7a, 0x91, 0x68, 0x68,
  0x73, 0x76, 0x71, 0x6d, 0x8d, 0xae, 0x98, 0x80, 0x99, 0x80, 0x75, 0xae,
  0x6a, 0x66, 0x8c, 0x8c, 0x85, 0x85, 0x8c, 0x91, 0xa8, 0x8d, 0xa2, 0x6e,
  0x8a, 0x6d, 0x94, 0x83, 0x88, 0x80, 0x5f, 0x6c, 0x96, 0x7d, 0x80, 0x8c,
  0x7d, 0x66, 0x96, 0x9a, 0x73, 0x6c, 0x84, 0x5d, 0x7d, 0x8b, 0xa5, 0x93,
  0x97, 0xb5, 0x98, 0x8d, 0x78, 0x85, 0x86, 0x8d, 0x93, 0xab, 0x97, 0xa1,
  0x91, 0x77, 0x80, 0x63, 0xb2, 0x85, 0x90, 0x8d, 0x96, 0x89, 0x86, 0x89,
  0xa7, 0x87, 0x88, 0x80, 0x82, 0x77, 0x7a, 0x83, 0x8e, 0x8c, 0x94, 0x6a,
  0x81, 0x73, 0x7b, 0xa3, 0x9d, 0x8c, 0x75, 0x83, 0x6e, 0x5b, 0x80, 0x79,
  0x82, 0x98, 0x9e, 0x83, 0x8e, 0x78, 0x92, 0x97, 0x9c, 0x8c, 0x77, 0x94,
  0x89, 0x7a, 0x77, 0x9d, 0x82, 0x8b, 0xac, 0x95, 0x9c, 0x63, 0x72, 0xac,
  0x73, 0x70, 0x80, 0x98, 0x77, 0x71, 0x92, 0x9f, 0xa5, 0x86, 0xa7, 0x96,
  0x69, 0x79, 0x7b, 0x7c, 0xa2, 0x8e, 0x7b, 0x92, 0x7c, 0x8d, 0xb1, 0xa1,
  0x8e, 0x77, 0x8b, 0x8a, 0x86, 0x89, 0xa0, 0x95, 0x72, 0x96, 0x93, 0x89,
  0x74, 0x8e, 0x9b, 0xae, 0x67, 0x7e, 0x91, 0x83, 0x7b, 0x66, 0x74, 0x97,
  0x73, 0x80, 0x87, 0xa3, 0xa2, 0x87, 0x88, 0x84, 0x6e, 0x88, 0x85, 0x83,
  0x65, 0x96, 0x97, 0x97, 0x88, 0x79, 0x9d, 0xb1, 0x88, 0x7d, 0x8d, 0x98,
  0x6f, 0x81, 0x75, 0x73, 0x8f, 0x7e, 0x8c, 0xa2, 0xa3, 0x83, 0x74, 0x8b,
  0x6d, 0xa5, 0xaa, 0xa2, 0x8b, 0x9c, 0x8f, 0x9c, 0x87, 0x78, 0x89, 0x87,
  0x98, 0x92, 0x98, 0x86, 0x76, 0x82, 0x85, 0x8c, 0x7f, 0x82, 0x8c, 0x76,
  0x8f, 0x7b, 0x65, 0x9e, 0x64, 0x82, 0x8a, 0x93, 0x8b, 0x76, 0x8a, 0x62,
  0xb3, 0x9a, 0x83, 0x66, 0x82, 0x80, 0x98, 0x7a, 0x79, 0xba, 0x76, 0x76,
  0x78, 0x82, 0xa4, 0x93, 0x9a, 0x9d, 0x94, 0x97, 0x7a, 0x79, 0x7f, 0xca,
  0x6a, 0x83, 0xa1, 0xaf, 0x8c, 0x6d, 0x84, 0xac, 0x78, 0x8d, 0xb2, 0x92,
  0x9d, 0x74, 0x76, 0xa3, 0x85, 0x92, 0x9c, 0x9b, 0x85, 0x6a, 0x8b, 0x9c,
  0x95, 0x8d, 0xa8, 0x8f, 0x7f, 0x8e, 0x7e, 0x96, 0x80, 0x86, 0x7e, 0x7e,
  0x83, 0xa4, 0xac, 0x63, 0x8a, 0x8e, 0x6e, 0x82, 0x7a, 0x88, 0x77, 0x91,
  0x88, 0x85, 0x94, 0x78, 0x94, 0x6e, 0x9d, 0xaa, 0xa1, 0x7a, 0x85, 0x7b,
  0x86, 0x84, 0x72, 0x80, 0x6a, 0x67, 0x92, 0x90, 0x7f, 0x8e, 0x90, 0x9a,
  0x85, 0x77, 0x76, 0x9c, 0x89, 0x88, 0x85, 0x82, 0x84, 0x88, 0x7f, 0x91,
  0x76, 0x79, 0x6d, 0x86, 0x97, 0x8e, 0x6e, 0x81, 0xa6, 0x88, 0x7b, 0x8e,
  0x9a, 0x7e, 0x92, 0x7b, 0x92, 0xa0, 0x9d, 0x95, 0x8b, 0x9b, 0x90, 0x7b,
  0x9d, 0x59, 0x82, 0x93, 0x70, 0x9f, 0x89, 0x9c, 0x7e, 0x4e, 0xae, 0x97,
  0x79, 0x95, 0xa4, 0x9a, 0x6c, 0x4e, 0x73, 0x8e, 0x92, 0x84, 0x85, 0x9c,
  0x80, 0x87, 0x9a, 0x8c, 0x7c, 0xa6, 0x7e, 0x84, 0x73, 0x6e, 0xb4, 0x8a,
  0x71, 0xb6, 0x82, 0x9b, 0x6c, 0x7d, 0x99, 0xd1, 0xa1, 0xbd, 0x8b, 0x70,
  0x73, 0x5f, 0x93, 0xf4, 0x7b, 0x87, 0x9b, 0x70, 0x7c, 0x79, 0x7a, 0xe9,
  0xa0, 0x78, 0xa3, 0x75, 0x75, 0x6b, 0x62, 0xab, 0xa3, 0x89, 0xac, 0x93,
  0x8c, 0x76, 0x91, 0xad, 0x72, 0x7c, 0xb0, 0x91, 0x7f, 0x77, 0x77, 0x80,
  0x85, 0x66, 0x7f, 0x7b, 0x70, 0x8c, 0x92, 0x6f, 0x70, 0x65, 0x84, 0x6e,
  0x92, 0xa6, 0x7a, 0x81, 0x60, 0x7e, 0x79, 0x8c, 0x97, 0x7a, 0x95, 0x9a,
  0x8f, 0x81, 0x9f, 0x84, 0x99, 0x5d, 0x81, 0xb0, 0x99, 0x5f, 0x96, 0x6f,
  0x87, 0x84, 0xb8, 0x73, 0xa1, 0x72, 0x7f, 0x8a, 0x9b, 0x8c, 0x74, 0x8a,
  0x80, 0x79, 0x8c, 0x7c, 0x97, 0x71, 0x99, 0x72, 0x7b, 0x9b, 0x6c, 0x81,
  0x8a, 0x88, 0x71, 0x9e, 0x86, 0x82, 0x8f, 0x5c, 0x8a, 0x96, 0xaa, 0x93,
  0x98, 0xa7, 0x93, 0x6d, 0x94, 0x57, 0x73, 0x86, 0x95, 0x95, 0x7d, 0xaa,
  0x81, 0x64, 0x97, 0x9a, 0xa4, 0x7f, 0x79, 0x87, 0x76, 0x5a, 0x86, 0xa6,
  0x78, 0x99, 0x66, 0x77, 0x73, 0x54, 0x8e, 0xa2, 0xa0, 0x9a, 0x7f, 0x83,
  0x62, 0x84, 0x8d, 0x82, 0x84, 0xdf, 0x73, 0x6f, 0x89, 0x76, 0xb3, 0xbb,
  0x89, 0xc8, 0x81, 0x73, 0x78, 0x4c, 0x77, 0xff, 0x82, 0x87, 0xa4, 0x9c,
  0x75, 0x5d, 0x6b, 0xe1, 0xae, 0x70, 0xb4, 0x85, 0x65, 0x5b, 0x73, 0xb7,
  0x90, 0x64, 0xac, 0x8b, 0x92, 0x76, 0x87, 0xa0, 0x6e, 0x64, 0x93, 0x87,
  0x99, 0x6e, 0x94, 0xac, 0x76, 0x51, 0xa0, 0xa8, 0x94, 0x9d, 0x8e, 0x8c,
  0x88, 0x7b, 0x76, 0x8e, 0x94, 0x80, 0xb5, 0x97, 0x87, 0x87, 0x70, 0x5e,
  0x77, 0x7e, 0x71, 0xb3, 0x72, 0x74, 0x7c, 0x7c, 0x86, 0x7b, 0x96, 0x9f,
  0x92, 0x6b, 0x84, 0x8e, 0x79, 0x92, 0xaa, 0x72, 0x6a, 0x83, 0x82, 0x88,
  0x7b, 0x7c, 0xab, 0x76, 0x89, 0x7d, 0x76, 0x89, 0x81, 0x80, 0x98, 0x94,
  0x88, 0x8a, 0x83, 0x7a, 0x96, 0x85, 0x78, 0x9c, 0x81, 0x8e, 0x8f, 0xa4,
  0x9b, 0x90, 0x91, 0x71, 0x96, 0xaa, 0x94, 0x87, 0x96, 0x25, 0x73, 0xa9,
  0x71, 0xa1, 0x91, 0xb2, 0x8c, 0x3d, 0x9b, 0xad, 0x89, 0x67, 0x7f, 0x7a,
  0x6c, 0x2f, 0x9b, 0xc0, 0x90, 0x86, 0x81, 0x6f, 0x78, 0x6a, 0xa1, 0x7f,
  0x8c, 0xb6, 0x6e, 0x71, 0x9d, 0x96, 0xbe, 0xb8, 0x9d, 0xd2, 0x61, 0x7e,
  0x77, 0x79, 0x90, 0xcf, 0x5f, 0xc4, 0x8d, 0xa6, 0x86, 0x4a, 0x76, 0xfb,
  0x74, 0x81, 0xaf, 0x8b, 0x6e, 0x3e, 0x70, 0xe6, 0x95, 0x54, 0xd2, 0x88,
  0x76, 0x55, 0x87, 0xc2, 0x62, 0x56, 0xbe, 0x99, 0x61, 0x6c, 0x7a, 0xbc,
  0xae, 0x62, 0xa4, 0x7c, 0x91, 0x80, 0x88, 0x8a, 0x8d, 0x68, 0x82, 0x79,
  0x61, 0x70, 0x8e, 0x84, 0x72, 0x68, 0x7b, 0x7a, 0x89, 0x9b, 0xaa, 0x7a,
  0x85, 0xb9, 0x66, 0x89, 0x8a, 0x84, 0x87, 0xa7, 0x72, 0x78, 0x81, 0x86,
  0x6d, 0x6f, 0x95, 0x8f, 0x6f, 0x57, 0x92, 0x64, 0x7b, 0x93, 0xa6, 0x75,
  0xa2, 0x89, 0x7f, 0x78, 0x58, 0x78, 0xa4, 0x9e, 0x84, 0x8a, 0x72, 0x6b,
  0x99, 0x6a, 0xa3, 0x70, 0x96, 0x83, 0x72, 0x8a, 0x6e, 0x71, 0x7f, 0x98,
  0x8e, 0x83, 0x80, 0x7e, 0x85, 0x88, 0x91, 0x80, 0x8f, 0xa8, 0x9c, 0x7b,
  0x8c, 0x31, 0x5a, 0xb3, 0x99, 0xab, 0x76, 0xb0, 0x63, 0x22, 0x89, 0xb9,
  0x7e, 0x62, 0x7b, 0xa3, 0x6c, 0x35, 0x75, 0xc1, 0x95, 0x8e, 0x76, 0x87,
  0x95, 0x67, 0xb5, 0xab, 0x8c, 0xc3, 0x78, 0x7e, 0x6c, 0x7f, 0xa5, 0xa3,
  0x6f, 0xde, 0x66, 0x81, 0x7f, 0x75, 0x7a, 0xc3, 0x60, 0xc1, 0x91, 0x77,
  0x6a, 0x2d, 0x5a, 0xef, 0x74, 0x82, 0xcc, 0x70, 0x63, 0x53, 0x63, 0xda,
  0x7f, 0x36, 0xc2, 0x88, 0x7c, 0x70, 0x7a, 0xac, 0x98, 0x4f, 0xc5, 0x82,
  0x6c, 0x79, 0x71, 0xa2, 0xa7, 0x56, 0xa3, 0x7a, 0x73, 0x80, 0x78, 0xa1,
  0x92, 0x5e, 0x96, 0x7a, 0x60, 0x7f, 0x8f, 0xa4, 0xa1, 0x6e, 0x74, 0x90,
  0x87, 0x92, 0x8b, 0x97, 0x8e, 0xa4, 0x6c, 0x85, 0x64, 0x7e, 0x81, 0x8c,
  0x64, 0x86, 0x9d, 0x83, 0x74, 0x62, 0x81, 0x88, 0x72, 0x54, 0x8a, 0x90,
  0x93, 0x94, 0xa0, 0x8e, 0xae, 0x68, 0x78, 0x91, 0x60, 0x5d, 0x90, 0x95,
  0x89, 0x94, 0x74, 0x77, 0x77, 0x7a, 0xa1, 0x85, 0x87, 0x82, 0x63, 0x93,
  0x76, 0x6b, 0x80, 0x87, 0xa9, 0xa0, 0x92, 0x92, 0x8c, 0x8c, 0x9f, 0x6a,
  0x93, 0xbc, 0x92, 0x6a, 0x8a, 0x2a, 0x4b, 0xbc, 0x88, 0xa6, 0x8a, 0xae,
  0x60, 0x1c, 0x82, 0xb5, 0x8e, 0x69, 0x79, 0x86, 0x60, 0x30, 0x68, 0xbe,
  0x93, 0x6d, 0x7b, 0x8d, 0x80, 0x61, 0x96, 0xbd, 0x8e, 0xd4, 0x78, 0x73,
  0x76, 0x73, 0x93, 0x8c, 0x7b, 0xde, 0x67, 0x65, 0x71, 0x75, 0x8f, 0xc9,
  0x4d, 0xc0, 0x90, 0x75, 0x52, 0x31, 0x42, 0xea, 0x75, 0x73, 0xbb, 0x9b,
  0x7b, 0x43, 0x65, 0xe3, 0x8a, 0x51, 0xcd, 0xa1, 0x6f, 0x6b, 0x80, 0xc0,
  0x74, 0x4c, 0xcc, 0x9f, 0x77, 0x73, 0x88, 0xa3, 0x98, 0x56, 0x9e, 0x95,
  0x73, 0x5a, 0x7a, 0x8f, 0x70, 0x63, 0x96, 0x69, 0x75, 0x83, 0x90, 0xa2,
  0x81, 0x76, 0x7d, 0x7e, 0x86, 0x94, 0xb3, 0x94, 0x69, 0x9d, 0x7e, 0xa2,
  0x76, 0x82, 0x79, 0xa9, 0x97, 0x63, 0x90, 0x79, 0x87, 0x69, 0x8c, 0x8a,
  0x93, 0x40, 0x8e, 0x99, 0x70, 0x7d, 0xa2, 0x91, 0x9e, 0x88, 0x75, 0x95,
  0x69, 0x7a, 0xa2, 0x7a, 0x81, 0x7e, 0x74, 0x7f, 0x7f, 0x81, 0xc1, 0x6f,
  0x8c, 0x78, 0x6e, 0x69, 0x97, 0x74, 0x88, 0x9f, 0x96, 0x80, 0x7e, 0x83,
  0x8a, 0x8b, 0x8d, 0x9e, 0x8b, 0xa1, 0x9b, 0x7a, 0x7b, 0x30, 0x5a, 0xc2,
  0x86, 0x95, 0x7e, 0xaa, 0x60, 0x25, 0x84, 0xcb, 0xaf, 0x4e, 0x98, 0x76,
  0x4a, 0x3d, 0x67, 0xba, 0x9b, 0x7d, 0x83, 0x7c, 0x67, 0x66, 0xa1, 0x9f,
  0x8a, 0xc2, 0x79, 0x7c, 0x8c, 0x8b, 0xa5, 0x83, 0x6b, 0xdc, 0x71, 0x5b,
  0x79, 0x77, 0x8e, 0xce, 0x48, 0xc9, 0x80, 0x7e, 0x88, 0x0c, 0x51, 0xf9,
  0xa6, 0x77, 0xbe, 0x9b, 0x52, 0x34, 0x53, 0xdb, 0x88, 0x3c, 0xd4, 0x85,
  0x50, 0x60, 0x6d, 0xcd, 0x95, 0x44, 0xc6, 0x86, 0x75, 0x74, 0x62, 0xa4,
  0xa5, 0x5c, 0xa6, 0x9d, 0x78, 0x6a, 0x55, 0xa7, 0x75, 0x69, 0x93, 0x96,
  0x6f, 0x8a, 0x8e, 0x9d, 0x9a, 0x6d, 0x7c, 0x7f, 0x78, 0x86, 0xb3, 0x8b,
  0x87, 0x9f, 0x7c, 0x93, 0x5e, 0x69, 0x84, 0xb3, 0x86, 0x73, 0x9c, 0x88,
  0x58, 0x7a, 0x8c, 0xa1, 0x85, 0x5b, 0x94, 0x90, 0x74, 0x95, 0x99, 0x9a,
  0x90, 0x8d, 0x75, 0x81, 0x69, 0x75, 0x7c, 0x87, 0x7c, 0x78, 0x61, 0x7b,
  0xa4, 0x83, 0x9b, 0x80, 0x95, 0x83, 0x75, 0x8a, 0x90, 0x6c, 0x9c, 0x82,
  0x89, 0x94, 0x8c, 0x95, 0x9e, 0x8e, 0x88, 0x8f, 0x9f, 0xa8, 0x85, 0x8c,
  0x5f, 0x3d, 0x63, 0xd6, 0x9d, 0x98, 0x9a, 0xab, 0x64, 0x2e, 0x58, 0xb3,
  0x80, 0x61, 0x8c, 0x80, 0x71, 0x38, 0x80, 0xce, 0xa9, 0x71, 0x88, 0x8b,
  0x7c, 0x72, 0x95, 0x9b, 0x9f, 0xc9, 0x80, 0x80, 0x8c, 0x88, 0xa6, 0x92,
  0x73, 0xe6, 0x72, 0x84, 0x5b, 0x6e, 0x6a, 0xba, 0x5d, 0xbe, 0xa7, 0x9a,
  0x6f, 0x21, 0x3e, 0xd4, 0x6d, 0x92, 0xb9, 0x90, 0x48, 0x42, 0x5b, 0xe7,
  0x98, 0x25, 0xdd, 0xb7, 0x6b, 0x62, 0x84, 0xb4, 0xb0, 0x45, 0xd3, 0x86,
  0x79, 0x6d, 0x7f, 0xb8, 0x9a, 0x64, 0xa0, 0xa1, 0x6e, 0x78, 0x78, 0xa3,
  0xa2, 0x52, 0x80, 0x6c, 0x6d, 0x8d, 0x92, 0x92, 0x99, 0x66, 0x7d, 0x7c,
  0x6e, 0x95, 0xa7, 0x8f, 0x85, 0xa9, 0x8b, 0x82, 0x54, 0x73, 0x76, 0xa9,
  0x8a, 0x76, 0x8b, 0x9e, 0x64, 0x71, 0x84, 0x97, 0x89, 0x63, 0x9e, 0x91,
  0x82, 0x97, 0xa1, 0x94, 0x88, 0x82, 0x7f, 0x8a, 0x7f, 0x5d, 0x9d, 0xba,
  0x8c, 0x82, 0x7c, 0x91, 0x68, 0x62, 0xa8, 0x81, 0x8d, 0x77, 0x7e, 0x77,
  0x74, 0x74, 0x6c, 0x88, 0x8f, 0x90, 0x6b, 0x6c, 0x77, 0x83, 0x94, 0x79,
  0x90, 0x8a, 0x9f, 0x7a, 0x79, 0x48, 0x61, 0xe0, 0x8a, 0x90, 0x79, 0x8a,
  0x5b, 0x28, 0x4e, 0xc7, 0x8d, 0x77, 0x8a, 0x7a, 0x56, 0x30, 0x83, 0xda,
  0x8f, 0x6c, 0x90, 0x7f, 0x71, 0x74, 0x9b, 0xa1, 0x90, 0xa8, 0x79, 0xa0,
  0x70, 0x7e, 0xa7, 0x70, 0x80, 0xea, 0x6e, 0x63, 0x73, 0x5c, 0x7e, 0xc4,
  0x75, 0xda, 0x85, 0x87, 0x64, 0x2f, 0x28, 0xd8, 0x83, 0x7a, 0xca, 0x8c,
  0x47, 0x41, 0x55, 0xd7, 0x89, 0x54, 0xc9, 0x93, 0x60, 0x5e, 0x68, 0xbb,
  0x98, 0x4c, 0xc0, 0x78, 0x6d, 0x6c, 0x5f, 0xaa, 0x9b, 0x53, 0xac, 0x85,
  0x7f, 0x62, 0x76, 0xaa, 0x7f, 0x59, 0x94, 0x7b, 0x6a, 0x8d, 0xa7, 0x8c,
  0x98, 0x7b, 0x81, 0x81, 0x53, 0xa0, 0x9a, 0x9a, 0x93, 0x9a, 0x7e, 0x75,
  0x65, 0x6b, 0x82, 0xa4, 0x84, 0x4b, 0x8b, 0x86, 0x53, 0x77, 0x94, 0x8a,
  0x84, 0x60, 0x8d, 0x8d, 0x7c, 0x7f, 0x88, 0x95, 0xa8, 0x73, 0x80, 0x70,
  0x76, 0x7f, 0x95, 0xa1, 0xb4, 0x87, 0x89, 0x93, 0x53, 0x6d, 0x9f, 0x85,
  0x8f, 0x80, 0x69, 0x8b, 0x6c, 0x93, 0x95, 0x9b, 0x83, 0x93, 0x89, 0xac,
  0x85, 0x86, 0x8f, 0x94, 0x91, 0x99, 0x9a, 0x7f, 0x65, 0x50, 0x55, 0xe2,
  0x98, 0x9b, 0x88, 0xba, 0x69, 0x42, 0x46, 0xcd, 0x9f, 0x7b, 0x87, 0x93,
  0x62, 0x3c, 0x68, 0xd7, 0x87, 0x73, 0x92, 0x88, 0x6a, 0x70, 0xa2, 0x9b,
  0x7b, 0xb1, 0x82, 0x9a, 0x72, 0x84, 0xa4, 0x85, 0x58, 0xe6, 0x61, 0x7d,
  0x78, 0x69, 0x6a, 0xbb, 0x7c, 0xd7, 0x99, 0x8a, 0x6b, 0x21, 0x41, 0xcc,
  0x85, 0x6a, 0xc1, 0x9d, 0x50, 0x48, 0x57, 0xda, 0x72, 0x3e, 0xc4, 0xa7,
  0x62, 0x76, 0x86, 0xc7, 0x9f, 0x38, 0xcc, 0x9b, 0x72, 0x7d, 0x72, 0xa7,
  0x9d, 0x5d, 0x9f, 0x83, 0x70, 0x5e, 0x7a, 0x96, 0x88, 0x76, 0x8d, 0x8c,
  0x7c, 0x9a, 0x94, 0x97, 0x89, 0x8b, 0x82, 0x87, 0x4f, 0x9a, 0x93, 0x91,
  0x9a, 0xa5, 0x85, 0x7a, 0x52, 0x71, 0x7a, 0xaa, 0x88, 0x70, 0x8e, 0x99,
  0x5f, 0x79, 0x96, 0x9a, 0x8a, 0x6c, 0x8a, 0xa3, 0x77, 0x84, 0x87, 0x90,
  0xaa, 0x72, 0x82, 0x83, 0x51, 0x8a, 0xa6, 0xa2, 0x9f, 0x81, 0x8b, 0x8b,
  0x6e, 0x5e, 0xb7, 0x92, 0x96, 0x89, 0x7d, 0x9e, 0x81, 0x88, 0xb5, 0x94,
  0xa2, 0x83, 0x86, 0x85, 0x7b, 0x68, 0x93, 0x94, 0x90, 0x9b, 0x99, 0x7c,
  0x5a, 0x5f, 0x60, 0xf5, 0xa0, 0xa6, 0x7a, 0x8f, 0x78, 0x47, 0x62, 0xbd,
  0x7b, 0x74, 0x90, 0x97, 0x78, 0x46, 0x61, 0xce, 0x7b, 0x7c, 0x91, 0x8d,
  0x71, 0x6a, 0xb0, 0x8b, 0x95, 0xac, 0x7d, 0x8d, 0x6f, 0x82, 0xb2, 0x76,
  0x5e, 0xe6, 0x7e, 0x7a, 0x7f, 0x61, 0x6a, 0xb8, 0x6b, 0xca, 0x98, 0x8c,
  0x60, 0x34, 0x50, 0xd0, 0x79, 0x7d, 0xb8, 0x9a, 0x54, 0x49, 0x57, 0xd7,
  0x87, 0x2c, 0xd3, 0x94, 0x57, 0x71, 0x7f, 0xcb, 0x9f, 0x49, 0xe0, 0xb0,
  0x81, 0x74, 0x71, 0xa7, 0x88, 0x4e, 0xa6, 0x9f, 0x7f, 0x63, 0x7c, 0x99,
  0x8a, 0x56, 0x82, 0x7e, 0x65, 0x8a, 0x83, 0x87, 0x8e, 0x7b, 0x76, 0x76,
  0x69, 0x8c, 0x9e, 0x7e, 0x8f, 0x91, 0x6a, 0x97, 0x4c, 0x6b, 0x79, 0xb7,
  0x94, 0x76, 0x88, 0x80, 0x5d, 0x72, 0x71, 0xa5, 0xaa, 0x6b, 0xa3, 0xae,
  0x57, 0x88, 0x8d, 0x78, 0xa9, 0x8e, 0x8b, 0x99, 0x60, 0x77, 0xa0, 0x9b,
  0x97, 0xa3, 0x86, 0x86, 0x73, 0x78, 0x9b, 0x81, 0x84, 0x8a, 0x7e, 0x88,
  0x6c, 0x94, 0x94, 0x8d, 0x8a, 0xa4, 0x7c, 0x69, 0x90, 0x6e, 0x7a, 0x8d,
  0xa3, 0x90, 0x9a, 0x82, 0x66, 0x6b, 0x49, 0xf3, 0x96, 0x9d, 0x88, 0xb1,
  0x6d, 0x46, 0x52, 0xb7, 0x82, 0x75, 0x8f, 0x96, 0x78, 0x48, 0x4c, 0xcb,
  0x76, 0x76, 0x8a, 0x98, 0x82, 0x70, 0x8d, 0x9c, 0x8d, 0xad, 0x78, 0x89,
  0x58, 0x81, 0xb6, 0x8d, 0x59, 0xd6, 0x7c, 0x90, 0x78, 0x76, 0x73, 0xbd,
  0x6f, 0xb1, 0xa2, 0x6e, 0x74, 0x35, 0x33, 0xce, 0x76, 0x87, 0xc6, 0x6b,
  0x59, 0x49, 0x50, 0xc8, 0x7e, 0x34, 0xc5, 0x9c, 0x71, 0x6e, 0x59, 0xbf,
  0x9e, 0x43, 0xdf, 0xa3, 0x74, 0x7b, 0x67, 0xab, 0xa1, 0x47, 0xa0, 0x8f,
  0x7d, 0x78, 0x6f, 0x9e, 0x97, 0x52, 0x85, 0x91, 0x50, 0x97, 0x9b, 0x87,
  0x9e, 0x79, 0x7c, 0x9f, 0x5e, 0x90, 0x9d, 0x97, 0x91, 0xaa, 0x6b, 0x8f,
  0x48, 0x60, 0x76, 0xac, 0x94, 0x72, 0x88, 0xa2, 0x5f, 0x6b, 0x97, 0x85,
  0x86, 0x68, 0x89, 0xa7, 0x70, 0x89, 0x8e, 0x8f, 0x90, 0x71, 0x87, 0x96,
  0x65, 0x80, 0x88, 0x9a, 0x9b, 0x83, 0x81, 0x83, 0x70, 0x85, 0x89, 0x84,
  0x98, 0x6f, 0x83, 0x85, 0x74, 0x87, 0x84, 0x98, 0x84, 0x94, 0x77, 0x79,
  0x70, 0x82, 0x81, 0xc4, 0x92, 0xa6, 0x9c, 0x92, 0x6a, 0x4d, 0x4f, 0xe2,
  0xa2, 0xb0, 0x8b, 0x9d, 0x56, 0x4d, 0x49, 0xbe, 0x7d, 0x77, 0x8c, 0xb2,
  0x76, 0x55, 0x60, 0xd1, 0x7e, 0x62, 0x85, 0x63, 0x67, 0x6e, 0x9a, 0x8b,
  0x6d, 0xad, 0x86, 0x8f, 0x81, 0x72, 0xa4, 0x80, 0x65, 0xd1, 0x60, 0xa8,
  0x88, 0x70, 0x70, 0xb4, 0x66, 0xc4, 0xa3, 0x79, 0x61, 0x3e, 0x45, 0xe4,
  0x5c, 0x7a, 0xd5, 0x90, 0x51, 0x4a, 0x38, 0xc2, 0x62, 0x51, 0xcb, 0x85,
  0x80, 0x7a, 0x83, 0xcc, 0x8c, 0x49, 0xc8, 0xa1, 0x84, 0x86, 0x70, 0x9a,
  0x8e, 0x6a, 0xab, 0x7b, 0x79, 0x6f, 0x68, 0x9d, 0x77, 0x69, 0x88, 0x97,
  0x5b, 0x86, 0x99, 0x9f, 0x95, 0x81, 0x7d, 0x7c, 0x50, 0x84, 0x92, 0x92,
  0x89, 0xb8, 0x68, 0x8d, 0x68, 0x62, 0x78, 0xa5, 0x93, 0x63, 0x96, 0x91,
  0x53, 0x71, 0x92, 0xa9, 0x9e, 0x78, 0x83, 0x91, 0x5a, 0x70, 0x6c, 0x7f,
  0x98, 0x89, 0x72, 0x97, 0x5c, 0x79, 0x87, 0x9a, 0xa9, 0x6b, 0x7c, 0x94,
  0x66, 0x87, 0x99, 0x85, 0x84, 0x84, 0x83, 0x93, 0x89, 0x90, 0xb0, 0x92,
  0x90, 0x9a, 0x69, 0x84, 0x6e, 0x72, 0x92, 0xab, 0xa2, 0xa5, 0x89, 0x66,
  0x72, 0x52, 0x53, 0xe2, 0x8a, 0x9a, 0x84, 0x7f, 0x80, 0x4a, 0x5c, 0xb8,
  0x87, 0x7b, 0x89, 0x9e, 0x53, 0x44, 0x62, 0xce, 0x74, 0x75, 0x8a, 0x8e,
  0x7e, 0x85, 0x90, 0x92, 0x9d, 0xbd, 0x87, 0x81, 0x89, 0x7a, 0xbd, 0x96,
  0x87, 0xd2, 0x63, 0x86, 0x75, 0x6e, 0x79, 0xbb, 0x75, 0xbd, 0x93, 0x6a,
  0x8c, 0x5d, 0x3f, 0xc6, 0x76, 0x77, 0xba, 0x8e, 0x62, 0x44, 0x51, 0xce,
  0x96, 0x3b, 0xc6, 0xa0, 0x6c, 0x7e, 0x69, 0xca, 0x9a, 0x44, 0xd7, 0x99,
  0x71, 0x94, 0x57, 0xbf, 0x8e, 0x6d, 0x94, 0x9b, 0x74, 0x85, 0x6e, 0x90,
  0x71, 0x5c, 0x88, 0x85, 0x71, 0x8a, 0x82, 0x7d, 0x95, 0x86, 0x8c, 0x85,
  0x62, 0x8c, 0x86, 0x8f, 0x9b, 0x9e, 0x71, 0x9a, 0x6f, 0x55, 0x7e, 0xa6,
  0x6b, 0x6e, 0x94, 0x92, 0x4c, 0x7a, 0x8e, 0x84, 0x86, 0x97, 0x87, 0x8d,
  0x5f, 0x86, 0x7d, 0x88, 0x97, 0x6a, 0x82, 0x83, 0x84, 0x76, 0x87, 0x7f,
  0x79, 0x83, 0x74, 0x94, 0x68, 0x69, 0x74, 0x97, 0x8a, 0x7d, 0x78, 0x7e,
  0x62, 0x80, 0x8e, 0x8f, 0x90, 0xa6, 0x82, 0x7a, 0x63, 0x79, 0x8e, 0x74,
  0x86, 0x9c, 0x87, 0x80, 0x78, 0x5c, 0x64, 0xf1, 0xa4, 0xb1, 0x79, 0x74,
  0x62, 0x44, 0x56, 0xab, 0x76, 0x6e, 0x95, 0x90, 0x6d, 0x61, 0x5f, 0xc5,
  0x86, 0x7b, 0x80, 0x95, 0x82, 0x95, 0xa3, 0x95, 0x7a, 0xa4, 0x72, 0x9a,
  0x8e, 0x9c, 0xa0, 0x9e, 0x71, 0xd7, 0x5d, 0x8c, 0x70, 0x77, 0x6f, 0xb5,
  0x70, 0xc0, 0x88, 0x6b, 0x7b, 0x3d, 0x4b, 0xd3, 0x77, 0x77, 0xcb, 0x7d,
  0x6d, 0x58, 0x42, 0xc2, 0x80, 0x58, 0xc7, 0xac, 0x80, 0x7a, 0x6d, 0xc6,
  0x66, 0x57, 0xdc, 0x8b, 0x77, 0x8d, 0x6a, 0xb4, 0x96, 0x71, 0xaa, 0x8b,
  0x78, 0x6d, 0x6a, 0x89, 0x77, 0x5e, 0x81, 0x9f, 0x4c, 0x93, 0x9b, 0x94,
  0xaa, 0x8e, 0x6c, 0x8e, 0x45, 0x8c, 0x83, 0x81, 0x8d, 0xc4, 0x7f, 0x83,
  0x51, 0x6f, 0x65, 0x9a, 0x8a, 0x69, 0x9b, 0x94, 0x6d, 0x85, 0x97, 0x8f,
  0x82, 0x8b, 0x76, 0x9c, 0x7a, 0x84, 0x7b, 0x86, 0x9a, 0x6f, 0x6d, 0x9e,
  0x51, 0x66, 0x7d, 0x9a, 0xa3, 0xaf, 0x6a, 0xa6, 0x6c, 0x85, 0xaa, 0x87,
  0x93, 0x7e, 0x69, 0xad, 0x81, 0x99, 0x88, 0x98, 0x8f, 0xa7, 0x59, 0x85,
  0x81, 0x7a, 0x85, 0xa6, 0x90, 0xa7, 0x80, 0x96, 0x6a, 0x63, 0x51, 0xe5,
  0x9f, 0xa8, 0x72, 0xb5, 0x70, 0x58, 0x76, 0xc0, 0x93, 0x6f, 0x94, 0x89,
  0x6e, 0x66, 0x5d, 0xb2, 0x80, 0x79, 0x87, 0x7b, 0x7a, 0x7e, 0xa7, 0x98,
  0x82, 0x9f, 0x6b, 0x81, 0x80, 0x78, 0xbe, 0x8a, 0x55, 0xe1, 0x60, 0x9c,
  0x99, 0x70, 0x60, 0x9f, 0x7a, 0xb9, 0x94, 0x95, 0x73, 0x36, 0x52, 0xbe,
  0x6d, 0x8a, 0xc4, 0x91, 0x7c, 0x52, 0x4c, 0xcb, 0x75, 0x4e, 0xe3, 0x76,
  0x68, 0x78, 0x71, 0xd2, 0x76, 0x70, 0xc0, 0x94, 0x77, 0x96, 0x72, 0xb1,
  0x93, 0x61, 0xb5, 0xa4, 0x7b, 0x77, 0x58, 0x94, 0x8f, 0x64, 0x81, 0x82,
  0x7a, 0x8d, 0x89, 0x8a, 0x7a, 0x82, 0x91, 0x94, 0x55, 0x99, 0xa6, 0x86,
  0x7c, 0xb0, 0x6a, 0x7c, 0x51, 0x5e, 0x7c, 0xa0, 0x79, 0x68, 0x9a, 0x91,
  0x60, 0x80, 0x7e, 0xa2, 0x8a, 0x6a, 0x92, 0x84, 0x79, 0x72, 0x75, 0x85,
  0x91, 0x94, 0x7c, 0x70, 0x79, 0x74, 0x78, 0xa3, 0x99, 0x98, 0x75, 0xa9,
  0x72, 0x82, 0xaf, 0x89, 0x84, 0x80, 0x6e, 0x8f, 0x83, 0x71, 0x7a, 0x89,
  0x95, 0x9d, 0x7f, 0x93, 0x77, 0x80, 0x9f, 0x92, 0x83, 0xab, 0x96, 0x8e,
  0x67, 0x68, 0x68, 0xe8, 0x92, 0xb1, 0x9f, 0x94, 0x8b, 0x47, 0x65, 0xc4,
  0x95, 0x94, 0xad, 0x7f, 0x6e, 0x5e, 0x71, 0xc6, 0x77, 0x90, 0x7c, 0x87,
  0x63, 0x73, 0x91, 0x90, 0x82, 0xa7, 0x66, 0xa2, 0xa0, 0x88, 0xa4, 0x95,
  0x6d, 0xc2, 0x72, 0x8e, 0x6d, 0x7a, 0x7e, 0xa6, 0x67, 0xbd, 0x7a, 0xa9,
  0x85, 0x50, 0x57, 0xba, 0x63, 0x8d, 0xb0, 0x72, 0x73, 0x51, 0x6e, 0xca,
  0x7e, 0x50, 0xc9, 0x85, 0x6f, 0x6a, 0x5a, 0xc8, 0x8a, 0x50, 0xd8, 0x8f,
  0x84, 0x73, 0x62, 0xb1, 0x7d, 0x68, 0x95, 0x79, 0x7d, 0x82, 0x75, 0x82,
  0x9f, 0x5f, 0x93, 0x85, 0x6a, 0x8c, 0x8c, 0x8c, 0x81, 0x8a, 0x8c, 0xb2,
  0x6f, 0x93, 0x97, 0x70, 0x71, 0xab, 0x7c, 0x7f, 0x58, 0x79, 0x56, 0xaa,
  0x82, 0x6e, 0x98, 0x7c, 0x66, 0x6c, 0x87, 0x9d, 0x8e, 0x83, 0x8e, 0xa5,
  0x89, 0x8c, 0x78, 0x93, 0x81, 0x7e, 0x78, 0x90, 0x7c, 0x75, 0x9e, 0x7a,
  0xa0, 0x95, 0x6f, 0x7e, 0x6b, 0x92, 0xb2, 0x95, 0x82, 0x84, 0x6f, 0x87,
  0x81, 0x9f, 0x8c, 0x8c, 0x76, 0x99, 0x7b, 0x6c, 0x55, 0x80, 0x97, 0x86,
  0x93, 0xb0, 0x77, 0x61, 0x60, 0x72, 0x5b, 0xd2, 0x84, 0xb8, 0x8c, 0x9e,
  0x78, 0x44, 0x78, 0xca, 0x9a, 0x92, 0x8d, 0x9b, 0x75, 0x5c, 0x79, 0xb1,
  0x92, 0x8d, 0x74, 0x96, 0x81, 0x89, 0x8b, 0x8c, 0x91, 0xaa, 0x71, 0x68,
  0x71, 0x88, 0xb5, 0x89, 0x69, 0xc7, 0x52, 0xac, 0x82, 0x6a, 0x70, 0xb9,
  0x7e, 0xbc, 0x8f, 0x72, 0x74, 0x5d, 0x56, 0xc4, 0x63, 0x8e, 0xaa, 0x87,
  0x91, 0x75, 0x64, 0xd6, 0x8e, 0x65, 0xbe, 0x76, 0x79, 0x79, 0x53, 0xd3,
  0x67, 0x62, 0xba, 0x8f, 0x75, 0x82, 0x7e, 0xba, 0x8d, 0x78, 0x9b, 0x7e,
  0x90, 0x89, 0x5a, 0x96, 0x7b, 0x64, 0x81, 0x9e, 0x69, 0x96, 0x7e, 0xa0,
  0x83, 0xa3, 0x79, 0x9a, 0x61, 0x97, 0x9d, 0x6a, 0x80, 0xba, 0x67, 0x82,
  0x4a, 0x5c, 0x64, 0xb8, 0x60, 0x82, 0x7f, 0x9f, 0x72, 0x69, 0x74, 0x94,
  0x8b, 0x72, 0x78, 0x8e, 0x89, 0x97, 0x88, 0x88, 0x84, 0x7a, 0x6a, 0x82,
  0x6f, 0x90, 0x7d, 0x90, 0x89, 0x9e, 0x79, 0xa7, 0x63, 0x7b, 0x8f, 0x89,
  0x94, 0x97, 0x79, 0x88, 0x69, 0x8a, 0x7b, 0x8f, 0x88, 0x8f, 0x92, 0x99,
  0x77, 0xa3, 0xa3, 0x9d, 0x76, 0xbc, 0x8c, 0x7a, 0x73, 0x6c, 0x6b, 0xbd,
  0x97, 0xb0, 0x91, 0xa2, 0x80, 0x56, 0x75, 0xc7, 0x87, 0x89, 0xa6, 0x9c,
  0xa0, 0x74, 0x6e, 0xb2, 0x8b, 0x9c, 0x89, 0x8b, 0x7a, 0x86, 0xa4, 0x80,
  0x9a, 0xba, 0x77, 0x8b, 0x79, 0x94, 0x96, 0x80, 0x77, 0xb6, 0x7b, 0x93,
  0x57, 0x63, 0x84, 0xaa, 0x62, 0xa8, 0x8c, 0x7f, 0x72, 0x65, 0x76, 0xc6,
  0x5a, 0x7f, 0xcb, 0xa1, 0x7b, 0x57, 0x73, 0xcf, 0x90, 0x74, 0xa4, 0x7f,
  0x8e, 0x71, 0x6c, 0xc7, 0x76, 0x85, 0xb3, 0x8c, 0x73, 0x85, 0x65, 0xad,
  0x97, 0x86, 0xa3, 0x98, 0x70, 0x7f, 0x5c, 0x81, 0x7d, 0x95, 0x8f, 0x90,
  0x7a, 0x95, 0x91, 0x86, 0x8b, 0x96, 0x7b, 0x85, 0x77, 0xa0, 0xa0, 0x79,
  0x65, 0xa8, 0x7c, 0x71, 0x5f, 0x71, 0x5c, 0xbb, 0x93, 0x75, 0x93, 0x83,
  0x76, 0x90, 0x7a, 0xaf, 0x95, 0x6b, 0x79, 0x89, 0x5e, 0x81, 0x7f, 0x9c,
  0x96, 0x74, 0x68, 0x79, 0x71, 0x7f, 0x91, 0x88, 0x83, 0x85, 0x78, 0x86,
