/* Copyright 2018 The TensorFlow Authors. All Rights Reserved.

Licensed under the Apache License, Version 2.0 (the "License");
you may not use this file except in compliance with the License.
You may obtain a copy of the License at

    http://www.apache.org/licenses/LICENSE-2.0

Unless required by applicable law or agreed to in writing, software
distributed under the License is distributed on an "AS IS" BASIS,
WITHOUT WARRANTIES OR CONDITIONS OF ANY KIND, either express or implied.
See the License for the specific language governing permissions and
limitations under the License.
==============================================================================*/

// Automatically created from a TensorFlow Lite flatbuffer using the command:
// xxd -i tiny_conv.tflite > tiny_conv_simple_features_model_data.cc
// See the README for a full description of the creation process.

#include "tiny_conv_micro_features_model_data.h"

// We need to keep the data array aligned on some architectures.
#ifdef __has_attribute
#define HAVE_ATTRIBUTE(x) __has_attribute(x)
#else
#define HAVE_ATTRIBUTE(x) 0
#endif
#if HAVE_ATTRIBUTE(aligned) || (defined(__GNUC__) && !defined(__clang__))
#define DATA_ALIGN_ATTRIBUTE __attribute__((aligned(4)))
#else
#define DATA_ALIGN_ATTRIBUTE
#endif

const unsigned char
    g_tiny_conv_micro_features_model_data[] DATA_ALIGN_ATTRIBUTE = {
        0x1c, 0x00, 0x00, 0x00, 0x54, 0x46, 0x4c, 0x33, 0x00, 0x00, 0x12, 0x00,
  0x1c, 0x00, 0x04, 0x00, 0x08, 0x00, 0x0c, 0x00, 0x10, 0x00, 0x14, 0x00,
  0x00, 0x00, 0x18, 0x00, 0x12, 0x00, 0x00, 0x00, 0x03, 0x00, 0x00, 0x00,
  0xc4, 0xa4, 0x00, 0x00, 0x10, 0x00, 0x00, 0x00, 0x1c, 0x00, 0x00, 0x00,
  0x2c, 0x00, 0x00, 0x00, 0x0c, 0x00, 0x00, 0x00, 0x01, 0x00, 0x00, 0x00,
  0xc0, 0x00, 0x00, 0x00, 0x01, 0x00, 0x00, 0x00, 0x94, 0x00, 0x00, 0x00,
  0x0f, 0x00, 0x00, 0x00, 0x54, 0x4f, 0x43, 0x4f, 0x20, 0x43, 0x6f, 0x6e,
  0x76, 0x65, 0x72, 0x74, 0x65, 0x64, 0x2e, 0x00, 0x0a, 0x00, 0x00, 0x00,
  0x60, 0x00, 0x00, 0x00, 0x54, 0x00, 0x00, 0x00, 0x48, 0x00, 0x00, 0x00,
  0x3c, 0x00, 0x00, 0x00, 0x34, 0x00, 0x00, 0x00, 0x2c, 0x00, 0x00, 0x00,
  0x24, 0x00, 0x00, 0x00, 0x18, 0x00, 0x00, 0x00, 0x10, 0x00, 0x00, 0x00,
  0x04, 0x00, 0x00, 0x00, 0x66, 0x5c, 0xff, 0xff, 0x38, 0x00, 0x00, 0x00,
  0x14, 0x5c, 0xff, 0xff, 0x72, 0x5c, 0xff, 0xff, 0x9c, 0x01, 0x00, 0x00,
  0x20, 0x5c, 0xff, 0xff, 0x24, 0x5c, 0xff, 0xff, 0x28, 0x5c, 0xff, 0xff,
  0x86, 0x5c, 0xff, 0xff, 0xa8, 0x05, 0x00, 0x00, 0x8e, 0x5c, 0xff, 0xff,
  0x4c, 0x06, 0x00, 0x00, 0x96, 0x5c, 0xff, 0xff, 0xf8, 0xa2, 0x00, 0x00,
  0x44, 0x5c, 0xff, 0xff, 0x05, 0x00, 0x00, 0x00, 0x31, 0x2e, 0x35, 0x2e,
  0x30, 0x00, 0x00, 0x00, 0x08, 0x00, 0x0c, 0x00, 0x04, 0x00, 0x08, 0x00,
  0x08, 0x00, 0x00, 0x00, 0x08, 0x00, 0x00, 0x00, 0x09, 0x00, 0x00, 0x00,
  0x13, 0x00, 0x00, 0x00, 0x6d, 0x69, 0x6e, 0x5f, 0x72, 0x75, 0x6e, 0x74,
  0x69, 0x6d, 0x65, 0x5f, 0x76, 0x65, 0x72, 0x73, 0x69, 0x6f, 0x6e, 0x00,
  0x40, 0xfa, 0xff, 0xff, 0x20, 0x00, 0x00, 0x00, 0x14, 0x00, 0x00, 0x00,
  0x08, 0x00, 0x00, 0x00, 0xd4, 0xa2, 0x00, 0x00, 0x01, 0x00, 0x00, 0x00,
  0x07, 0x00, 0x00, 0x00, 0x01, 0x00, 0x00, 0x00, 0x03, 0x00, 0x00, 0x00,
  0x08, 0x00, 0x00, 0x00, 0xdc, 0x04, 0x00, 0x00, 0x2c, 0xa2, 0x00, 0x00,
  0x8c, 0x03, 0x00, 0x00, 0x14, 0x00, 0x00, 0x00, 0xf4, 0x03, 0x00, 0x00,
  0x40, 0x05, 0x00, 0x00, 0x7c, 0x00, 0x00, 0x00, 0x50, 0x04, 0x00, 0x00,
  0xfe, 0x5d, 0xff, 0xff, 0x00, 0x00, 0x00, 0x03, 0x10, 0x00, 0x00, 0x00,
  0x08, 0x00, 0x00, 0x00, 0x1c, 0x00, 0x00, 0x00, 0x28, 0x00, 0x00, 0x00,
  0x04, 0x00, 0x00, 0x00, 0x01, 0x00, 0x00, 0x00, 0x31, 0x00, 0x00, 0x00,
  0x28, 0x00, 0x00, 0x00, 0x01, 0x00, 0x00, 0x00, 0x09, 0x00, 0x00, 0x00,
  0x52, 0x65, 0x73, 0x68, 0x61, 0x70, 0x65, 0x5f, 0x32, 0x00, 0x00, 0x00,
  0xc4, 0xfa, 0xff, 0xff, 0x2c, 0x00, 0x00, 0x00, 0x20, 0x00, 0x00, 0x00,
  0x14, 0x00, 0x00, 0x00, 0x04, 0x00, 0x00, 0x00, 0x01, 0x00, 0x00, 0x00,
  0x00, 0x00, 0x00, 0x00, 0x00, 0x00, 0x00, 0x00, 0x01, 0x00, 0x00, 0x00,
  0xc6, 0xd0, 0xd0, 0x3d, 0x01, 0x00, 0x00, 0x00, 0xf5, 0xff, 0xcf, 0x41,
  0x01, 0x00, 0x00, 0x00, 0x00, 0x00, 0x00, 0x00, 0x72, 0x5e, 0xff, 0xff,
  0x00, 0x00, 0x00, 0x03, 0x10, 0x00, 0x00, 0x00, 0x07, 0x00, 0x00, 0x00,
  0x1c, 0x00, 0x00, 0x00, 0x2c, 0x00, 0x00, 0x00, 0x04, 0x00, 0x00, 0x00,
  0x01, 0x00, 0x00, 0x00, 0x0a, 0x00, 0x00, 0x00, 0x08, 0x00, 0x00, 0x00,
  0x08, 0x00, 0x00, 0x00, 0x0d, 0x00, 0x00, 0x00, 0x66, 0x69, 0x72, 0x73,
  0x74, 0x5f, 0x77, 0x65, 0x69, 0x67, 0x68, 0x74, 0x73, 0x00, 0x00, 0x00,
  0x3c, 0xfb, 0xff, 0xff, 0x30, 0x00, 0x00, 0x00, 0x24, 0x00, 0x00, 0x00,
  0x18, 0x00, 0x00, 0x00, 0x04, 0x00, 0x00, 0x00, 0x01, 0x00, 0x00, 0x00,
  0x90, 0x00, 0x00, 0x00, 0x00, 0x00, 0x00, 0x00, 0x00, 0x00, 0x00, 0x00,
  0x01, 0x00, 0x00, 0x00, 0x8c, 0x5a, 0x90, 0x3a, 0x01, 0x00, 0x00, 0x00,
  0xab, 0x78, 0xfb, 0x3d, 0x01, 0x00, 0x00, 0x00, 0x0d, 0xd8, 0x21, 0xbe,
  0x80, 0x02, 0x00, 0x00, 0x96, 0x6c, 0x8d, 0x8f, 0xab, 0xa0, 0x18, 0x5c,
  0x81, 0x73, 0x93, 0x86, 0xcc, 0x8b, 0x7b, 0x8e, 0x8c, 0x76, 0xb1, 0x9e,
  0xc3, 0xb8, 0x80, 0x62, 0x93, 0xa3, 0x91, 0x8b, 0xbb, 0x74, 0x96, 0x75,
  0x9c, 0x9b, 0xac, 0x8f, 0xa5, 0xda, 0xe5, 0x45, 0x9d, 0xbb, 0xa7, 0x9b,
  0x8f, 0x48, 0x98, 0x95, 0x83, 0x7f, 0xd2, 0x86, 0x70, 0xd4, 0xff, 0x3c,
  0x98, 0xa4, 0xc2, 0x89, 0x5b, 0x47, 0xa7, 0x7a, 0x8b, 0x55, 0x76, 0x8c,
  0xb1, 0x93, 0x0e, 0x69, 0x94, 0x6f, 0x8d, 0x8b, 0xb6, 0x92, 0x6d, 0x7b,
  0x93, 0x82, 0xad, 0x8e, 0xcc, 0xc1, 0x71, 0x82, 0x82, 0xa5, 0x77, 0x80,
  0xa4, 0x84, 0x8a, 0x7b, 0x91, 0x9b, 0xaa, 0x9c, 0xa1, 0xf0, 0xd2, 0x7b,
  0x97, 0xba, 0x88, 0x8a, 0x7d, 0x65, 0x96, 0x93, 0x7c, 0x90, 0xd6, 0x84,
  0x6a, 0xf8, 0xfe, 0x63, 0x95, 0xa9, 0xb0, 0x8c, 0x46, 0x6a, 0xa9, 0x80,
  0x8d, 0x53, 0x77, 0x8f, 0xbd, 0x79, 0x1e, 0x7e, 0x81, 0x69, 0x80, 0x87,
  0xa3, 0x85, 0x75, 0x6d, 0x9b, 0x8b, 0xb4, 0x8a, 0xd2, 0xae, 0x62, 0x99,
  0x99, 0x9e, 0x6a, 0x93, 0x91, 0x80, 0x83, 0x9c, 0x8e, 0x98, 0x99, 0x90,
  0x9d, 0xe5, 0xb9, 0xa6, 0xa5, 0xa2, 0x7c, 0x8e, 0x76, 0x67, 0x89, 0xc3,
  0x86, 0x87, 0xcd, 0x99, 0x63, 0xff, 0xf3, 0x90, 0x8c, 0x9d, 0xa5, 0x95,
  0x44, 0x7c, 0xa2, 0x7d, 0x7f, 0x3c, 0x74, 0x95, 0xcf, 0x76, 0x3f, 0x9d,
  0x8d, 0x6c, 0x6e, 0x8d, 0xa3, 0x72, 0x7d, 0x7d, 0x8e, 0x85, 0xb0, 0x84,
  0xd9, 0x9f, 0x67, 0xae, 0x93, 0xa6, 0x64, 0x83, 0x8f, 0x7b, 0x88, 0x91,
  0x92, 0x9b, 0x95, 0x8c, 0x93, 0xd9, 0xb1, 0xa1, 0x96, 0xb6, 0x7f, 0x8f,
  0x80, 0x6d, 0x8b, 0xb9, 0x99, 0x92, 0xd1, 0x8f, 0x4c, 0xf7, 0xe7, 0x9e,
  0x96, 0xb1, 0xb1, 0x8a, 0x52, 0x89, 0xa6, 0x94, 0x8e, 0x4a, 0x6a, 0x89,
  0xda, 0x71, 0x64, 0xa4, 0x8e, 0x68, 0x6f, 0x95, 0x99, 0x68, 0x8f, 0x7b,
  0x9b, 0x7d, 0xa5, 0x99, 0xdc, 0x9a, 0x70, 0xa8, 0x85, 0xac, 0x58, 0x93,
  0x87, 0x7b, 0x86, 0xae, 0x94, 0x93, 0x89, 0x86, 0x8a, 0xc7, 0x9f, 0xaf,
  0x8d, 0xb8, 0x7b, 0x94, 0x7b, 0x72, 0x8a, 0xa8, 0x83, 0x9a, 0xc7, 0x98,
  0x46, 0xe3, 0xc6, 0x99, 0x88, 0xbf, 0xa7, 0x8a, 0x61, 0x8c, 0x9e, 0x9c,
  0x8c, 0x51, 0x58, 0x8d, 0xef, 0x62, 0x8c, 0xa5, 0x97, 0x61, 0x74, 0x87,
  0x90, 0x5d, 0x94, 0x98, 0x80, 0x75, 0x9e, 0x8c, 0xed, 0x91, 0x7e, 0xb1,
  0x97, 0x9a, 0x67, 0x8b, 0x73, 0x73, 0x85, 0xb3, 0x93, 0x8d, 0x71, 0x9d,
  0x88, 0xc0, 0x92, 0xa0, 0x99, 0xaa, 0x95, 0x9f, 0x7a, 0x71, 0x89, 0xa2,
  0x88, 0x98, 0xb6, 0x98, 0x48, 0xd6, 0xb8, 0x96, 0x7a, 0xb3, 0xc1, 0xa2,
  0x66, 0x88, 0x9a, 0x8e, 0x90, 0x58, 0x57, 0x8c, 0xf5, 0x68, 0xae, 0xba,
  0x90, 0x6d, 0x78, 0x8e, 0x86, 0x61, 0x9a, 0x9f, 0x8c, 0x79, 0x81, 0x95,
  0xe0, 0x81, 0x85, 0xa8, 0x9a, 0x9b, 0x69, 0x7f, 0x68, 0x7f, 0x83, 0xab,
  0x7f, 0x84, 0x62, 0x86, 0x74, 0xb3, 0x8b, 0x8b, 0xa5, 0xa8, 0x98, 0x98,
  0x75, 0x81, 0x84, 0xb6, 0x8e, 0x93, 0x96, 0x91, 0x41, 0xcd, 0xa7, 0x89,
  0x8c, 0xb3, 0xb4, 0x87, 0x75, 0x95, 0x91, 0xbe, 0x87, 0x6c, 0x60, 0x92,
  0xf3, 0x76, 0xc0, 0x9e, 0x87, 0x64, 0x82, 0x8f, 0x89, 0x6b, 0xa0, 0x9e,
  0x92, 0x80, 0x7e, 0x96, 0xc8, 0x62, 0x8d, 0x8e, 0x88, 0x8b, 0x6b, 0x91,
  0x62, 0x93, 0x7e, 0xa0, 0x86, 0x83, 0x57, 0x8c, 0x56, 0x9a, 0x91, 0x7c,
  0x84, 0xa3, 0x93, 0x9a, 0x7d, 0x9b, 0x7f, 0xc5, 0x95, 0x92, 0x69, 0x83,
  0x41, 0xb7, 0x9f, 0x77, 0x7f, 0xaa, 0x93, 0x86, 0x93, 0x9f, 0x86, 0xae,
  0x90, 0x6e, 0x63, 0x82, 0xdd, 0x77, 0xb8, 0x6c, 0x8b, 0x60, 0x60, 0x8e,
  0x7a, 0x62, 0x98, 0x88, 0x8c, 0x81, 0x6d, 0x9c, 0x9f, 0x5d, 0x7a, 0x65,
  0x89, 0x84, 0x4a, 0x7f, 0x47, 0x89, 0x69, 0x90, 0x87, 0x7d, 0x53, 0x9a,
  0x32, 0x64, 0x91, 0x60, 0x8b, 0x87, 0x56, 0x93, 0x78, 0x95, 0x5c, 0x97,
  0x8d, 0x6d, 0x38, 0x89, 0x47, 0x8b, 0x87, 0x4c, 0x8a, 0x87, 0x40, 0x98,
  0x9c, 0x90, 0x58, 0x95, 0x7f, 0x64, 0x6a, 0x92, 0x96, 0x75, 0xa5, 0x45,
  0x92, 0x50, 0x5e, 0x89, 0x62, 0x4b, 0x79, 0x61, 0x89, 0x73, 0x79, 0x99,
  0x4f, 0x62, 0x78, 0x4c, 0x85, 0x6b, 0x4f, 0x90, 0x1f, 0x70, 0x4e, 0x71,
  0x96, 0x59, 0x60, 0x8a, 0x00, 0x6a, 0x8d, 0x20, 0x90, 0x63, 0x3e, 0x8f,
  0x6c, 0x62, 0x39, 0x72, 0x96, 0x59, 0x49, 0x84, 0x30, 0x74, 0x78, 0x1d,
  0x91, 0x41, 0x19, 0x8a, 0xa8, 0x5f, 0x2a, 0x6d, 0x72, 0x61, 0xff, 0xff,
  0x00, 0x00, 0x00, 0x03, 0x10, 0x00, 0x00, 0x00, 0x06, 0x00, 0x00, 0x00,
  0x1c, 0x00, 0x00, 0x00, 0x24, 0x00, 0x00, 0x00, 0x04, 0x00, 0x00, 0x00,
  0x01, 0x00, 0x00, 0x00, 0x19, 0x00, 0x00, 0x00, 0x14, 0x00, 0x00, 0x00,
  0x08, 0x00, 0x00, 0x00, 0x04, 0x00, 0x00, 0x00, 0x52, 0x65, 0x6c, 0x75,
  0x00, 0x00, 0x00, 0x00, 0x34, 0xfe, 0xff, 0xff, 0x2c, 0x00, 0x00, 0x00,
  0x20, 0x00, 0x00, 0x00, 0x14, 0x00, 0x00, 0x00, 0x04, 0x00, 0x00, 0x00,
  0x01, 0x00, 0x00, 0x00, 0x00, 0x00, 0x00, 0x00, 0x00, 0x00, 0x00, 0x00,
  0x01, 0x00, 0x00, 0x00, 0x00, 0x00, 0x80, 0x3f, 0x01, 0x00, 0x00, 0x00,
  0x00, 0x00, 0x7f, 0x43, 0x01, 0x00, 0x00, 0x00, 0x00, 0x00, 0x00, 0x00,
  0xe2, 0x61, 0xff, 0xff, 0x00, 0x00, 0x00, 0x03, 0x10, 0x00, 0x00, 0x00,
  0x05, 0x00, 0x00, 0x00, 0x14, 0x00, 0x00, 0x00, 0x1c, 0x00, 0x00, 0x00,
  0x02, 0x00, 0x00, 0x00, 0x01, 0x00, 0x00, 0x00, 0x0a, 0x00, 0x00, 0x00,
  0x05, 0x00, 0x00, 0x00, 0x61, 0x64, 0x64, 0x5f, 0x31, 0x00, 0x00, 0x00,
  0x9c, 0xfe, 0xff, 0xff, 0x2c, 0x00, 0x00, 0x00, 0x20, 0x00, 0x00, 0x00,
  0x14, 0x00, 0x00, 0x00, 0x04, 0x00, 0x00, 0x00, 0x01, 0x00, 0x00, 0x00,
  0x00, 0x00, 0x00, 0x00, 0x00, 0x00, 0x00, 0x00, 0x01, 0x00, 0x00, 0x00,
  0x00, 0x00, 0x80, 0x3f, 0x01, 0x00, 0x00, 0x00, 0x00, 0x00, 0x7f, 0x43,
  0x01, 0x00, 0x00, 0x00, 0x00, 0x00, 0x00, 0x00, 0x4a, 0x62, 0xff, 0xff,
  0x00, 0x00, 0x00, 0x03, 0x10, 0x00, 0x00, 0x00, 0x04, 0x00, 0x00, 0x00,
  0x14, 0x00, 0x00, 0x00, 0x24, 0x00, 0x00, 0x00, 0x02, 0x00, 0x00, 0x00,
  0x01, 0x00, 0x00, 0x00, 0x0a, 0x00, 0x00, 0x00, 0x0e, 0x00, 0x00, 0x00,
  0x6c, 0x61, 0x62, 0x65, 0x6c, 0x73, 0x5f, 0x73, 0x6f, 0x66, 0x74, 0x6d,
  0x61, 0x78, 0x00, 0x00, 0x0c, 0xff, 0xff, 0xff, 0x2c, 0x00, 0x00, 0x00,
  0x20, 0x00, 0x00, 0x00, 0x14, 0x00, 0x00, 0x00, 0x04, 0x00, 0x00, 0x00,
  0x01, 0x00, 0x00, 0x00, 0x00, 0x00, 0x00, 0x00, 0x00, 0x00, 0x00, 0x00,
  0x01, 0x00, 0x00, 0x00, 0x00, 0x00, 0x80, 0x3b, 0x01, 0x00, 0x00, 0x00,
  0x00, 0x00, 0x7f, 0x3f, 0x01, 0x00, 0x00, 0x00, 0x00, 0x00, 0x00, 0x00,
  0xba, 0x62, 0xff, 0xff, 0x00, 0x00, 0x00, 0x02, 0x10, 0x00, 0x00, 0x00,
  0x03, 0x00, 0x00, 0x00, 0x10, 0x00, 0x00, 0x00, 0x1c, 0x00, 0x00, 0x00,
  0x01, 0x00, 0x00, 0x00, 0x08, 0x00, 0x00, 0x00, 0x0b, 0x00, 0x00, 0x00,
  0x43, 0x6f, 0x6e, 0x76, 0x32, 0x44, 0x5f, 0x62, 0x69, 0x61, 0x73, 0x00,
  0xac, 0x62, 0xff, 0xff, 0x18, 0x00, 0x00, 0x00, 0x04, 0x00, 0x00, 0x00,
  0x01, 0x00, 0x00, 0x00, 0x00, 0x00, 0x00, 0x00, 0x00, 0x00, 0x00, 0x00,
  0x00, 0x00, 0x00, 0x00, 0x01, 0x00, 0x00, 0x00, 0x95, 0x7e, 0xeb, 0x38,
  0x20, 0x00, 0x00, 0x00, 0x00, 0x00, 0x00, 0x00, 0x4e, 0x00, 0x00, 0x00,
  0xb2, 0xfe, 0xff, 0xff, 0x00, 0x00, 0x00, 0x00, 0xf5, 0xfc, 0xff, 0xff,
  0x1d, 0xfe, 0xff, 0xff, 0x2a, 0xff, 0xff, 0xff, 0x00, 0x00, 0x00, 0x00,
  0x32, 0x63, 0xff, 0xff, 0x00, 0x00, 0x00, 0x03, 0x10, 0x00, 0x00, 0x00,
  0x02, 0x00, 0x00, 0x00, 0x14, 0x00, 0x00, 0x00, 0x3c, 0x00, 0x00, 0x00,
  0x02, 0x00, 0x00, 0x00, 0x0a, 0x00, 0x00, 0x00, 0xa0, 0x0f, 0x00, 0x00,
  0x1a, 0x00, 0x00, 0x00, 0x66, 0x69, 0x6e, 0x61, 0x6c, 0x5f, 0x66, 0x63,
  0x5f, 0x77, 0x65, 0x69, 0x67, 0x68, 0x74, 0x73, 0x2f, 0x74, 0x72, 0x61,
  0x6e, 0x73, 0x70, 0x6f, 0x73, 0x65, 0x00, 0x00, 0x0c, 0x00, 0x14, 0x00,
  0x04, 0x00, 0x08, 0x00, 0x0c, 0x00, 0x10, 0x00, 0x0c, 0x00, 0x00, 0x00,
  0x2c, 0x00, 0x00, 0x00, 0x20, 0x00, 0x00, 0x00, 0x14, 0x00, 0x00, 0x00,
  0x04, 0x00, 0x00, 0x00, 0x01, 0x00, 0x00, 0x00, 0x7f, 0x00, 0x00, 0x00,
  0x00, 0x00, 0x00, 0x00, 0x01, 0x00, 0x00, 0x00, 0x62, 0x1e, 0xd0, 0x39,
  0x01, 0x00, 0x00, 0x00, 0x59, 0x55, 0x4f, 0x3d, 0x01, 0x00, 0x00, 0x00,
  0x2f, 0x47, 0x4f, 0xbd, 0x40, 0x9c, 0x00, 0x00, 0x61, 0x99, 0x6f, 0x85,
  0x7a, 0x80, 0x58, 0x9d, 0x8d, 0x79, 0x77, 0x70, 0x86, 0x89, 0xad, 0x6e,
  0x8b, 0xa4, 0x7d, 0x79, 0xbe, 0x80, 0x82, 0x86, 0x92, 0x95, 0x81, 0x5d,
  0x8a, 0x98, 0x5a, 0x7c, 0x7a, 0xaa, 0xac, 0x73, 0x90, 0x77, 0x77, 0x69,
  0x83, 0x87, 0x86, 0x61, 0x89, 0x82, 0x75, 0xa5, 0x7c, 0x7b, 0x8b, 0x5c,
  0x6c, 0x75, 0x89, 0x9d, 0x74, 0x81, 0x5c, 0x68, 0x8c, 0x6d, 0x95, 0x92,
  0x8c, 0x51, 0x8f, 0xb1, 0x91, 0x50, 0x8f, 0x83, 0xa4, 0x70, 0x63, 0x85,
  0x99, 0x7e, 0xa9, 0x86, 0x6e, 0x8d, 0x86, 0x8d, 0x5c, 0xaf, 0x73, 0x78,
  0x95, 0x82, 0xad, 0x8e, 0x90, 0x78, 0x8b, 0xa5, 0x7f, 0x94, 0x9f, 0x6d,
  0x9b, 0x6f, 0x5d, 0x74, 0x9d, 0x85, 0x88, 0x94, 0x89, 0xb0, 0x7d, 0xae,
  0x85, 0x99, 0x7f, 0x81, 0x9b, 0x7b, 0x84, 0x8e, 0x8a, 0x99, 0x61, 0x99,
  0x6f, 0x6f, 0x69, 0xaa, 0x71, 0x68, 0x7d, 0x75, 0x8e, 0x7a, 0x74, 0x87,
  0xb1, 0xa2, 0x9e, 0x76, 0x9a, 0x99, 0x74, 0xa2, 0x7c, 0x7c, 0x92, 0x7e,
  0x7e, 0x96, 0xad, 0xa1, 0x75, 0x71, 0x8e, 0x8f, 0xc2, 0x5b, 0xa1, 0x6f,
  0x65, 0x8d, 0x82, 0x9d, 0x67, 0x9a, 0x77, 0x9f, 0x77, 0x6f, 0x77, 0x6b,
  0x79, 0x8c, 0x82, 0x7e, 0x80, 0x9e, 0x92, 0x7d, 0x90, 0x8a, 0x6d, 0x84,
  0x92, 0x88, 0x87, 0x64, 0x6f, 0xa3, 0x84, 0x80, 0xa2, 0x7d, 0x7c, 0x8f,
  0x62, 0x94, 0x88, 0x96, 0xa3, 0x7e, 0x70, 0x8d, 0x73, 0x9d, 0x6c, 0x9f,
  0x7f, 0x6e, 0x74, 0xa3, 0xa3, 0x88, 0x84, 0x8e, 0x82, 0x57, 0x72, 0x70,
  0x9a, 0x5f, 0x69, 0x84, 0x96, 0xa0, 0x75, 0x72, 0x55, 0x6a, 0x7b, 0x83,
  0xac, 0x6b, 0x8a, 0x7c, 0x82, 0x72, 0x6c, 0x8b, 0x76, 0x78, 0x86, 0x88,
  0x7b, 0x93, 0x70, 0x92, 0x7a, 0x67, 0x6f, 0x78, 0x90, 0x78, 0x85, 0x8f,
  0x90, 0x77, 0x84, 0x77, 0x82, 0x87, 0x9c, 0x94, 0x7b, 0x88, 0x74, 0x72,
  0x84, 0xac, 0x6c, 0xa8, 0x6b, 0x80, 0xa3, 0x82, 0x9b, 0x7f, 0x75, 0x94,
  0x8f, 0xa1, 0x75, 0x69, 0x89, 0x8b, 0x91, 0x8e, 0x7a, 0x92, 0x7d, 0x63,
  0x79, 0x87, 0xa0, 0xa3, 0x8a, 0x83, 0x69, 0x77, 0x6f, 0x80, 0x62, 0xb4,
  0x93, 0x79, 0x5d, 0x84, 0x96, 0x6f, 0x69, 0x97, 0x88, 0x5d, 0x83, 0x82,
  0xa2, 0x6b, 0x7c, 0x83, 0x97, 0x7d, 0x56, 0x56, 0x79, 0x80, 0x95, 0x64,
  0x84, 0x4a, 0x48, 0x80, 0x87, 0x7f, 0x8a, 0x75, 0x80, 0x5d, 0x69, 0x6c,
  0xaf, 0x7d, 0x79, 0x57, 0xa4, 0x6b, 0x52, 0xa3, 0x6f, 0x7e, 0x76, 0x54,
  0x7f, 0x8c, 0x52, 0x80, 0x65, 0x68, 0x5e, 0x8c, 0x89, 0x9e, 0x62, 0x75,
  0x84, 0x6a, 0x7d, 0x85, 0x5d, 0x8c, 0x72, 0x9d, 0x7d, 0x66, 0x6a, 0x9e,
  0x96, 0x63, 0x4d, 0x89, 0x5d, 0x5f, 0x83, 0x9a, 0x64, 0x7d, 0x81, 0x9a,
  0x6f, 0x4c, 0xaf, 0x49, 0xa9, 0x72, 0x6b, 0x8d, 0x89, 0x6c, 0x4e, 0x50,
  0x58, 0x5a, 0x60, 0x7d, 0x9d, 0x4a, 0x62, 0x4f, 0x67, 0x7b, 0x68, 0x93,
  0x92, 0x81, 0x83, 0x97, 0x83, 0x82, 0x71, 0x9e, 0x93, 0x97, 0x71, 0x91,
  0x89, 0x7b, 0x6e, 0x76, 0x70, 0x92, 0x83, 0x5d, 0x78, 0x69, 0x80, 0xa2,
  0x7f, 0x7c, 0x99, 0x5c, 0x94, 0xa1, 0x88, 0x84, 0x61, 0x9b, 0x88, 0x51,
  0x90, 0x87, 0x80, 0x4d, 0x81, 0x93, 0x84, 0x81, 0x77, 0x8b, 0x82, 0xa5,
  0x9d, 0x87, 0x7c, 0x55, 0x67, 0xa1, 0x91, 0x79, 0xa6, 0x63, 0x79, 0x8d,
  0x9e, 0x56, 0x94, 0x7a, 0x94, 0x6d, 0x91, 0x67, 0x92, 0x87, 0x48, 0x5b,
  0x56, 0x71, 0x95, 0x66, 0x91, 0x3a, 0x7f, 0x70, 0x78, 0x5e, 0x4e, 0xa9,
  0x64, 0x53, 0x7b, 0x60, 0x7a, 0x5f, 0x7d, 0x76, 0xab, 0x79, 0x8a, 0x98,
  0x3e, 0x72, 0x6c, 0x9b, 0x92, 0x8d, 0x69, 0x5e, 0x71, 0x59, 0x8a, 0x75,
  0x82, 0x8f, 0x69, 0x69, 0x6c, 0x64, 0x87, 0x67, 0x8e, 0x74, 0x57, 0x8e,
  0x62, 0x5b, 0x74, 0x65, 0x8c, 0x59, 0x57, 0x8c, 0x4c, 0x54, 0x6e, 0x87,
  0x85, 0x87, 0x50, 0x9a, 0x85, 0x49, 0x68, 0x77, 0x8a, 0x49, 0x71, 0x77,
  0x55, 0x69, 0x6d, 0x6e, 0x8c, 0x7c, 0x6d, 0x8e, 0x87, 0x73, 0x5a, 0x87,
  0x95, 0x9e, 0x62, 0x7e, 0x66, 0x76, 0x78, 0x70, 0xa9, 0x9e, 0x4e, 0x79,
  0x6e, 0x89, 0x7a, 0xa4, 0x7a, 0x9b, 0x72, 0x81, 0x54, 0x73, 0x87, 0x75,
  0x77, 0x78, 0x7f, 0xa1, 0x6a, 0x73, 0x98, 0x7a, 0x7a, 0x83, 0xae, 0x66,
  0x6f, 0x85, 0x83, 0x93, 0x90, 0x66, 0x7b, 0x9a, 0x70, 0x57, 0x95, 0x74,
  0x73, 0x81, 0x5b, 0x7f, 0x72, 0x8e, 0x65, 0xb3, 0x87, 0x71, 0x6e, 0x87,
  0xb1, 0x86, 0x71, 0x58, 0xa4, 0x84, 0x91, 0x7a, 0x92, 0x7a, 0x9f, 0x96,
  0x78, 0x7e, 0x69, 0x6c, 0x79, 0x62, 0x7b, 0xae, 0x71, 0x78, 0x67, 0x74,
  0x6f, 0x42, 0x71, 0x7b, 0xa8, 0x6b, 0x70, 0x8c, 0x8d, 0x4e, 0x6c, 0x83,
  0x83, 0x9a, 0x5c, 0x90, 0x3d, 0x58, 0x68, 0x79, 0x7e, 0x6a, 0x4c, 0x79,
  0x50, 0x53, 0x8a, 0x9e, 0x87, 0x6d, 0x63, 0x65, 0x47, 0x3f, 0x6f, 0x89,
  0x84, 0x73, 0x4a, 0x8d, 0x5d, 0x82, 0x53, 0x98, 0x6b, 0x67, 0x40, 0x8e,
  0x43, 0x5e, 0x96, 0xa7, 0x87, 0x4e, 0x66, 0x7d, 0x2e, 0x77, 0x99, 0x7e,
  0x68, 0x5e, 0x67, 0x89, 0x49, 0x7e, 0x6e, 0x97, 0x85, 0x77, 0x7d, 0x9a,
  0x6c, 0x5f, 0x73, 0x85, 0x63, 0x8d, 0x72, 0x62, 0x73, 0x81, 0x85, 0x96,
  0x8b, 0x87, 0x89, 0x7b, 0x4b, 0x96, 0x87, 0x82, 0x8c, 0x9e, 0x9c, 0x7c,
  0x95, 0x94, 0x7b, 0x82, 0x9a, 0x91, 0x89, 0x92, 0x68, 0xa7, 0x6a, 0x6e,
  0x8b, 0x98, 0x87, 0x70, 0x75, 0x6d, 0xa4, 0xb5, 0x98, 0xa3, 0x88, 0xa7,
  0xa0, 0x69, 0x9e, 0xa3, 0xac, 0x5d, 0x77, 0x70, 0x78, 0x7e, 0x66, 0xb3,
  0xaf, 0x7d, 0xa5, 0x6b, 0x9a, 0xad, 0x50, 0x76, 0x64, 0x95, 0xb1, 0x80,
  0x98, 0x72, 0x83, 0x7c, 0xa9, 0x84, 0x5d, 0x67, 0x62, 0x4e, 0x78, 0x94,
  0x6c, 0x90, 0x61, 0x9a, 0x67, 0x5e, 0x5a, 0x6d, 0x84, 0x9d, 0x59, 0x74,
  0x5c, 0x54, 0x70, 0x80, 0xa0, 0x8d, 0x4c, 0x8d, 0x4d, 0x5c, 0xa5, 0x85,
  0x84, 0x8a, 0x5d, 0x84, 0x57, 0x57, 0x67, 0x62, 0xa1, 0xa5, 0x64, 0xaf,
  0x3a, 0x59, 0x8f, 0x80, 0xa8, 0x5f, 0x73, 0x9d, 0x49, 0x70, 0x77, 0x61,
  0x95, 0x72, 0x60, 0x71, 0x4e, 0x5e, 0x83, 0x9f, 0xa8, 0x5a, 0x83, 0x7e,
  0x4f, 0x63, 0x5c, 0x65, 0x74, 0x62, 0x8c, 0x79, 0x66, 0x5a, 0x7e, 0x88,
  0x8a, 0x7a, 0x79, 0x63, 0x7c, 0x89, 0x5f, 0x81, 0xa7, 0x8e, 0x5d, 0x8e,
  0x72, 0x7d, 0x70, 0x94, 0x6e, 0x89, 0xb2, 0x52, 0x84, 0x6b, 0x61, 0xc0,
  0x83, 0xa1, 0x7c, 0x77, 0x79, 0x85, 0x8a, 0xa3, 0x63, 0x7f, 0xa4, 0x5d,
  0x82, 0x7a, 0x81, 0xb0, 0x8e, 0x68, 0x8c, 0x73, 0x5e, 0x91, 0x5f, 0x67,
  0x79, 0x66, 0x84, 0x8d, 0x67, 0x98, 0x8a, 0x7c, 0x82, 0x8c, 0x7b, 0x86,
  0x9b, 0x92, 0x7e, 0xa5, 0x9c, 0x95, 0x88, 0x7e, 0xaf, 0x9d, 0x8b, 0x61,
  0x85, 0x86, 0x61, 0xa5, 0xa4, 0x8a, 0x65, 0x85, 0x94, 0x8a, 0x67, 0x8c,
  0x77, 0x43, 0x82, 0x99, 0x93, 0x55, 0x56, 0x74, 0x6a, 0x59, 0x77, 0x88,
  0x58, 0x71, 0x5a, 0x89, 0x55, 0x59, 0x69, 0xa4, 0x87, 0x6f, 0x5d, 0x60,
  0x4b, 0x5b, 0x82, 0x91, 0x7b, 0x83, 0x42, 0x61, 0x55, 0x67, 0x8e, 0xaf,
  0x81, 0x51, 0x79, 0x90, 0x48, 0x4d, 0x69, 0x9a, 0x86, 0x64, 0x38, 0x5d,
  0x42, 0x62, 0x58, 0x79, 0x6a, 0xa0, 0x73, 0x95, 0x4a, 0x68, 0x57, 0x9a,
  0x8f, 0x53, 0x65, 0x80, 0x52, 0x76, 0x8a, 0x8b, 0x54, 0x70, 0x5f, 0x9b,
  0x60, 0x73, 0x4e, 0x88, 0x7b, 0x94, 0x5c, 0x9d, 0x84, 0x5e, 0x8b, 0x82,
  0x97, 0x7d, 0x73, 0x92, 0x79, 0x81, 0x68, 0xae, 0x5e, 0xa4, 0x81, 0x8e,
  0x74, 0x72, 0xab, 0xa5, 0x7b, 0x7e, 0x8d, 0x67, 0x85, 0x6f, 0x78, 0x9e,
  0x6e, 0x9b, 0x80, 0x5b, 0x79, 0x78, 0x6e, 0xaa, 0x4f, 0x90, 0xbb, 0x92,
  0x6d, 0x8d, 0x6d, 0xb1, 0x79, 0x80, 0xb0, 0xa7, 0x83, 0x82, 0x84, 0x8c,
  0x6f, 0x7c, 0xb2, 0x69, 0x91, 0x73, 0x80, 0x80, 0x66, 0x9e, 0x75, 0x81,
  0x9e, 0xa1, 0x8d, 0x9a, 0x7c, 0xa3, 0x87, 0x57, 0x88, 0x52, 0x98, 0x68,
  0x95, 0x8c, 0x4e, 0x89, 0x7b, 0x25, 0x7e, 0xb5, 0x7d, 0x6f, 0x69, 0x87,
  0x58, 0x4d, 0x5b, 0xba, 0x70, 0x80, 0x47, 0x7d, 0x68, 0x63, 0x71, 0x9e,
  0x71, 0x87, 0x44, 0x6b, 0x53, 0x3e, 0x81, 0x98, 0xa7, 0x7f, 0x47, 0x73,
  0x40, 0x30, 0x4e, 0xad, 0x57, 0x94, 0x56, 0x76, 0x4b, 0x31, 0x96, 0x98,
  0x7f, 0x74, 0x66, 0x81, 0x5d, 0x54, 0x90, 0xa8, 0x71, 0x9c, 0x40, 0x6f,
  0x3c, 0x61, 0x8b, 0x8f, 0x79, 0x57, 0x8c, 0x9f, 0x56, 0x67, 0x70, 0x81,
  0x8f, 0x64, 0x87, 0x79, 0x7a, 0x5f, 0x5e, 0x78, 0x60, 0x77, 0x8a, 0x84,
  0x60, 0x63, 0x70, 0x7b, 0x7b, 0xab, 0x8f, 0x8a, 0x63, 0x9b, 0x72, 0x7d,
  0x6f, 0xb7, 0x7b, 0x84, 0x74, 0x7b, 0x5d, 0x9e, 0x7f, 0xb2, 0x9f, 0x55,
  0x5a, 0x75, 0x95, 0xa2, 0x6d, 0x74, 0xa2, 0x55, 0x87, 0x86, 0x91, 0xbe,
  0x8c, 0x77, 0x7c, 0x4f, 0x77, 0x7e, 0x5f, 0xc2, 0x6e, 0x8d, 0x87, 0x73,
  0x85, 0x7f, 0x67, 0xa2, 0x98, 0x92, 0x7b, 0x83, 0x78, 0x72, 0x67, 0xba,
  0xa1, 0x76, 0x6c, 0x87, 0xaa, 0x74, 0x88, 0x7e, 0xa5, 0x76, 0x93, 0x67,
  0x88, 0x5c, 0x8e, 0xa2, 0x4d, 0x89, 0x4d, 0x75, 0x4d, 0x0f, 0x78, 0xac,
  0x5e, 0x74, 0x5b, 0x75, 0x54, 0x56, 0x6d, 0x66, 0x79, 0x96, 0x6e, 0x7b,
  0x25, 0x7e, 0x8e, 0xad, 0x7c, 0x86, 0x7a, 0x8d, 0x51, 0x4e, 0x68, 0x83,
  0x96, 0x6d, 0x82, 0x8e, 0x42, 0x33, 0x93, 0xc0, 0xa5, 0x71, 0x34, 0x51,
  0x35, 0x44, 0x5b, 0x9d, 0x84, 0x53, 0x72, 0x6e, 0x56, 0x67, 0x7d, 0x8a,
  0x61, 0x6d, 0x64, 0x96, 0x44, 0x55, 0x83, 0xd6, 0xa3, 0x58, 0x3e, 0x5b,
  0x30, 0x70, 0x8c, 0x9c, 0x83, 0x7f, 0x7b, 0x96, 0x60, 0x66, 0x69, 0x98,
  0x95, 0x5c, 0x8f, 0x90, 0xa0, 0x8c, 0x77, 0x88, 0x7d, 0xa1, 0x65, 0x6d,
  0x83, 0x68, 0x65, 0xa8, 0x70, 0xac, 0xa5, 0x78, 0x76, 0x87, 0x79, 0xb6,
  0x75, 0xb6, 0x95, 0x76, 0x5f, 0x78, 0x67, 0xbe, 0x67, 0xa1, 0x6b, 0x7c,
  0x5c, 0x77, 0x73, 0xa5, 0x9e, 0x79, 0x91, 0xaa, 0x78, 0x93, 0x5e, 0x87,
  0x8b, 0x8d, 0x88, 0x9b, 0x74, 0x96, 0x7d, 0x83, 0x7b, 0x93, 0x9b, 0x66,
  0x78, 0x8e, 0x88, 0xa8, 0x84, 0x7a, 0x8a, 0x6e, 0xa5, 0x71, 0x60, 0xb9,
  0x6c, 0x98, 0x93, 0x59, 0x88, 0x76, 0x62, 0x6e, 0x78, 0x95, 0x37, 0x5b,
  0x4a, 0x05, 0x53, 0xaf, 0x72, 0x76, 0x52, 0x6d, 0x78, 0x3a, 0x53, 0xa1,
  0x88, 0x95, 0x87, 0x64, 0x40, 0x41, 0x90, 0x75, 0x72, 0x6f, 0x52, 0x90,
  0x43, 0x46, 0x84, 0xb6, 0x6f, 0x88, 0x6b, 0x76, 0x5a, 0x33, 0x65, 0x8b,
  0xa2, 0x67, 0x50, 0x99, 0x47, 0x6b, 0x89, 0x8f, 0x88, 0x77, 0x7b, 0xa4,
  0x59, 0x59, 0x76, 0xa0, 0x91, 0x83, 0x56, 0x92, 0x46, 0x56, 0x53, 0x8f,
  0x6c, 0x3e, 0x5e, 0x88, 0x36, 0x73, 0x91, 0xa7, 0x5d, 0x5e, 0x7a, 0x73,
  0x74, 0x78, 0x69, 0x9f, 0x74, 0x7b, 0x69, 0x73, 0x80, 0x7b, 0xa3, 0xa6,
  0x92, 0xa7, 0x68, 0x9e, 0x6a, 0x5a, 0x8e, 0xbf, 0x7f, 0xaa, 0x88, 0x51,
  0x86, 0x83, 0x7d, 0xbb, 0x7f, 0x88, 0x97, 0x55, 0x85, 0x4e, 0x84, 0xd4,
  0x8b, 0xab, 0x88, 0x87, 0x80, 0x76, 0x79, 0xd1, 0x7d, 0x6a, 0x7a, 0x98,
  0x8a, 0x84, 0x7f, 0xbb, 0x97, 0x7d, 0x93, 0xa3, 0x80, 0x8a, 0x79, 0xad,
  0x63, 0xac, 0x97, 0xa4, 0xa2, 0xa0, 0x74, 0xac, 0x76, 0x7f, 0x87, 0x9f,
  0x9f, 0x8d, 0x71, 0x81, 0x80, 0x81, 0x75, 0x93, 0x8a, 0x8f, 0xa6, 0x7d,
  0x9d, 0x89, 0x4c, 0x8f, 0x49, 0x24, 0x60, 0xaa, 0x89, 0x7d, 0x7e, 0x5a,
  0x51, 0x51, 0x67, 0x9d, 0x96, 0xae, 0x6f, 0x85, 0x3d, 0x60, 0x85, 0x7f,
  0x96, 0x94, 0x4b, 0x96, 0x1f, 0x2c, 0x7a, 0x93, 0x9f, 0x80, 0x4b, 0x76,
  0x42, 0x5f, 0x5c, 0xb7, 0xab, 0x65, 0x77, 0x94, 0x4e, 0x44, 0x8f, 0x7d,
  0x91, 0x72, 0x6b, 0x73, 0x25, 0x50, 0x66, 0x92, 0x9d, 0x8a, 0x6d, 0x9e,
  0x3d, 0x64, 0x55, 0xb9, 0x67, 0x74, 0x6b, 0xab, 0x4b, 0x48, 0x6c, 0xa7,
  0x69, 0x62, 0x64, 0xa5, 0x7a, 0x70, 0x74, 0xa7, 0x78, 0x69, 0x67, 0x62,
  0x6d, 0x67, 0x6a, 0xab, 0x5b, 0x8d, 0x80, 0x7d, 0x84, 0x82, 0x7f, 0xcc,
  0x55, 0x98, 0x66, 0x76, 0x9a, 0x6e, 0x6e, 0xa7, 0x85, 0xa1, 0x61, 0x6a,
  0x69, 0x66, 0x8e, 0xae, 0x9a, 0x87, 0x5c, 0x67, 0x72, 0x8a, 0xa8, 0xc1,
  0x6f, 0x55, 0x68, 0x8d, 0x5f, 0x75, 0x9b, 0xc5, 0x87, 0x90, 0x96, 0x7b,
  0x77, 0x8b, 0x6d, 0x9a, 0xac, 0x7b, 0x9c, 0x98, 0x9a, 0x55, 0x74, 0xa5,
  0x5d, 0x68, 0x75, 0x58, 0xb0, 0x7c, 0x78, 0xcb, 0x7a, 0x70, 0x5a, 0x98,
  0x9a, 0x83, 0x77, 0x6a, 0x60, 0x7c, 0x43, 0x95, 0x68, 0x0f, 0x6c, 0xb7,
  0x71, 0x8b, 0x46, 0x81, 0x5e, 0x5f, 0x50, 0xb9, 0xa6, 0x8f, 0x7a, 0x65,
  0x3a, 0x53, 0x84, 0x97, 0x97, 0x68, 0x7d, 0x7e, 0x1b, 0x55, 0x86, 0x89,
  0x83, 0x72, 0x5d, 0x96, 0x44, 0x66, 0x5e, 0x7f, 0x73, 0x62, 0x5b, 0x5b,
  0x42, 0x6f, 0x7d, 0x9d, 0x8b, 0x67, 0x6f, 0x95, 0x33, 0x5c, 0x68, 0xa1,
  0x90, 0x69, 0x61, 0x6e, 0x2c, 0x67, 0x6e, 0xad, 0x9f, 0x45, 0x6e, 0x76,
  0x48, 0x79, 0x64, 0x94, 0x77, 0x32, 0x6c, 0x62, 0x62, 0x44, 0x9f, 0x92,
  0x93, 0x77, 0x91, 0x62, 0x84, 0x70, 0x76, 0x95, 0x99, 0xa5, 0x6e, 0x66,
  0x64, 0x46, 0x90, 0x9e, 0x98, 0x7a, 0x9a, 0x84, 0x87, 0x6f, 0x7e, 0xb1,
  0x5e, 0xa2, 0x77, 0x78, 0x70, 0x71, 0x78, 0xcc, 0x93, 0xa9, 0x78, 0x91,
  0x59, 0x6b, 0x88, 0xa4, 0x77, 0x65, 0x8a, 0xad, 0x77, 0x63, 0x77, 0xb4,
  0x5c, 0x89, 0x7e, 0x6c, 0x92, 0x79, 0x73, 0xd1, 0x85, 0x95, 0x66, 0x74,
  0x77, 0x93, 0x96, 0xc2, 0x75, 0x90, 0x9d, 0x6a, 0x98, 0x7e, 0x9d, 0xa8,
  0x77, 0xa7, 0xa0, 0x5c, 0x8f, 0x55, 0x8e, 0x64, 0x54, 0x81, 0x6b, 0x86,
  0x34, 0x04, 0x55, 0xaa, 0xa3, 0x66, 0x62, 0x69, 0x2e, 0x34, 0x50, 0x9c,
  0x62, 0xa3, 0x67, 0x78, 0x3c, 0x6e, 0x6c, 0xb2, 0x82, 0x83, 0x69, 0x95,
  0x35, 0x21, 0x84, 0x9f, 0xa4, 0x51, 0x66, 0x88, 0x4f, 0x40, 0x71, 0x84,
  0x74, 0x44, 0x40, 0x80, 0x51, 0x41, 0x6d, 0x90, 0xa7, 0x4c, 0x61, 0x63,
  0x47, 0x5a, 0x93, 0xa6, 0x8e, 0x69, 0x50, 0x7b, 0x47, 0x48, 0x7c, 0x92,
  0x7e, 0x3e, 0x56, 0x90, 0x53, 0x52, 0x7c, 0xae, 0x8b, 0x50, 0x6a, 0x90,
  0x71, 0x68, 0x89, 0x9d, 0x96, 0x68, 0x92, 0x7d, 0xa4, 0x64, 0x83, 0xb4,
  0x62, 0x9c, 0x9f, 0xa4, 0x6d, 0x5d, 0x5f, 0xa6, 0x93, 0x7d, 0x7b, 0x63,
  0xa6, 0x9d, 0x6d, 0xcd, 0x7b, 0xb2, 0x88, 0x8d, 0x8f, 0x73, 0x70, 0xa0,
  0x99, 0xa1, 0x94, 0x73, 0x6e, 0x74, 0x5c, 0xba, 0x9f, 0x81, 0x77, 0x8d,
  0x75, 0x82, 0x80, 0x92, 0x66, 0xa3, 0x6f, 0x6e, 0x5b, 0x6b, 0x9a, 0xc2,
  0x9d, 0x9f, 0x74, 0x77, 0x7a, 0x5b, 0x6f, 0xb2, 0x56, 0x73, 0x83, 0x59,
  0x9f, 0x5a, 0x70, 0xb5, 0x5f, 0x8b, 0x9c, 0x8a, 0x92, 0x63, 0xa0, 0x76,
  0x68, 0x97, 0x58, 0x72, 0x5c, 0x04, 0x5a, 0xc0, 0x60, 0x7a, 0x53, 0x7d,
  0x60, 0x4d, 0x65, 0x76, 0x9e, 0x98, 0x4a, 0x6d, 0x37, 0x4e, 0x73, 0x96,
  0x60, 0x87, 0x64, 0x66, 0x3a, 0x3d, 0x60, 0xba, 0x87, 0x4d, 0x4f, 0x91,
  0x46, 0x53, 0x77, 0xb6, 0x7f, 0x48, 0x4c, 0x60, 0x38, 0x47, 0x73, 0xc0,
  0x96, 0x56, 0x35, 0x66, 0x46, 0x46, 0x5a, 0xa8, 0x82, 0x68, 0x61, 0xab,
  0x3e, 0x59, 0x82, 0xb2, 0xa5, 0x37, 0x72, 0x97, 0x3a, 0x6d, 0x70, 0x76,
  0x91, 0x3f, 0x76, 0xa8, 0x77, 0x56, 0x65, 0xaa, 0x5c, 0x72, 0x84, 0x6a,
  0x90, 0x95, 0xa8, 0x85, 0x89, 0x96, 0x81, 0xae, 0x75, 0x62, 0x70, 0xa5,
  0x77, 0x85, 0x8e, 0x83, 0x61, 0x72, 0x6c, 0xa7, 0x88, 0x9f, 0x66, 0x73,
  0x73, 0x91, 0x6f, 0xac, 0x8b, 0x80, 0x85, 0x9d, 0x7f, 0x62, 0x87, 0xac,
  0x84, 0x6f, 0x7c, 0x82, 0x64, 0x9b, 0x64, 0x9e, 0x7a, 0x88, 0xa9, 0x71,
  0x92, 0x68, 0x54, 0x9c, 0x8b, 0x8f, 0x96, 0x8f, 0x70, 0x9a, 0x87, 0xab,
  0x74, 0x8f, 0x75, 0x7d, 0x91, 0x6a, 0x93, 0x9e, 0x66, 0x69, 0x69, 0x80,
  0x89, 0x82, 0xa9, 0xb5, 0x84, 0x97, 0x4d, 0x9e, 0x5d, 0x0a, 0x4d, 0xaa,
  0x63, 0x82, 0x54, 0x94, 0x6a, 0x3a, 0x2f, 0x9b, 0x7f, 0x83, 0x65, 0x80,
  0x3a, 0x61, 0x83, 0xac, 0x71, 0x8c, 0x4b, 0x92, 0x0c, 0x58, 0x68, 0x92,
  0x63, 0x48, 0x57, 0x94, 0x29, 0x31, 0x52, 0xb4, 0x6d, 0x47, 0x55, 0xa2,
  0x19, 0x57, 0x84, 0x8b, 0xa2, 0x49, 0x67, 0x7d, 0x37, 0x48, 0x6f, 0x9e,
  0x82, 0x55, 0x7e, 0xa4, 0x3a, 0x5c, 0x77, 0x8c, 0x6a, 0x3f, 0x86, 0x91,
  0x4c, 0x66, 0x6f, 0xa7, 0x61, 0x2e, 0x9b, 0x8c, 0x54, 0x74, 0x69, 0x9e,
  0x9f, 0x4e, 0x8d, 0x8d, 0x6b, 0x6a, 0x6f, 0x82, 0x83, 0x71, 0xa6, 0x81,
  0x87, 0x9b, 0x6c, 0xb6, 0x99, 0x7b, 0x7b, 0x89, 0x69, 0x5e, 0x71, 0xa5,
  0x68, 0xb2, 0x8d, 0x89, 0x7d, 0x59, 0x8f, 0xb3, 0x82, 0x89, 0x84, 0x7b,
  0x8a, 0x72, 0x96, 0xa5, 0x69, 0x56, 0x89, 0x63, 0x73, 0x64, 0x7c, 0x8d,
  0x70, 0x76, 0x75, 0x6e, 0x70, 0x82, 0x91, 0xb8, 0x71, 0x8c, 0xa0, 0x86,
  0x68, 0x94, 0x71, 0xb9, 0x98, 0x87, 0x67, 0x7b, 0x95, 0x84, 0x78, 0xa6,
  0x7c, 0x96, 0x6a, 0x55, 0x89, 0x53, 0x7c, 0x90, 0x66, 0x96, 0x55, 0x5d,
  0x7f, 0x05, 0x58, 0x9f, 0x90, 0x85, 0x51, 0x4e, 0x49, 0x50, 0x4d, 0x95,
  0x53, 0xb2, 0x57, 0x6e, 0x18, 0x56, 0x82, 0x83, 0x81, 0x71, 0x44, 0xa9,
  0x2d, 0x5a, 0x5b, 0xa2, 0x89, 0x4c, 0x64, 0x61, 0x47, 0x3a, 0x63, 0x90,
  0x73, 0x19, 0x72, 0x9e, 0x25, 0x53, 0x71, 0x9e, 0x72, 0x42, 0x3c, 0xa0,
  0x32, 0x6d, 0x5b, 0xb0, 0x94, 0x53, 0x6e, 0x9d, 0x3f, 0x7a, 0x54, 0x98,
  0x99, 0x28, 0x85, 0x88, 0x32, 0x2f, 0x72, 0xa7, 0x79, 0x4a, 0x7a, 0x59,
  0x54, 0x5b, 0x7b, 0x9d, 0x77, 0x75, 0x75, 0x8f, 0x7b, 0x88, 0x94, 0x9c,
  0x90, 0x86, 0x7c, 0x6d, 0x86, 0x69, 0x84, 0xa2, 0x82, 0xa5, 0xa6, 0x65,
  0x7a, 0x84, 0x80, 0xb7, 0x65, 0x85, 0x6a, 0x78, 0x9d, 0x5c, 0x67, 0x9c,
  0x6c, 0x69, 0x63, 0x84, 0x60, 0x98, 0x86, 0x92, 0x92, 0x5f, 0xa4, 0x67,
  0x7e, 0x92, 0x57, 0x90, 0x77, 0x8e, 0x7b, 0x80, 0x7d, 0x7b, 0x9a, 0xc0,
  0x7c, 0x67, 0x7a, 0x60, 0x74, 0x97, 0x7a, 0xa9, 0x7d, 0x71, 0x61, 0x74,
  0x8e, 0x7e, 0x8a, 0xa4, 0x76, 0x5c, 0x6f, 0x60, 0xab, 0x79, 0x72, 0x7c,
  0x86, 0x97, 0x4e, 0x6f, 0x58, 0x0b, 0x3e, 0xc3, 0x66, 0x7f, 0x3f, 0x6b,
  0x72, 0x33, 0x62, 0xa5, 0x65, 0x8e, 0x45, 0x9a, 0x32, 0x60, 0x66, 0xb5,
  0x70, 0x56, 0x4a, 0x85, 0x19, 0x45, 0x79, 0x8b, 0xa0, 0x32, 0x55, 0x95,
  0x28, 0x2d, 0x80, 0x87, 0x7b, 0x20, 0x4b, 0x95, 0x3c, 0x4f, 0x6a, 0xad,
  0x84, 0x24, 0x56, 0x7d, 0x4f, 0x4e, 0x6d, 0xa4, 0x8c, 0x4d, 0x60, 0x68,
  0x4d, 0x63, 0x84, 0x82, 0x85, 0x19, 0x8a, 0x4e, 0x32, 0x57, 0x58, 0x93,
  0x85, 0x4c, 0x6c, 0x78, 0x3e, 0x54, 0x78, 0x76, 0x57, 0x4c, 0x6d, 0x84,
  0x96, 0x6c, 0x95, 0x95, 0x89, 0x8e, 0x6e, 0x77, 0x76, 0x50, 0x63, 0xae,
  0x8b, 0xac, 0x8a, 0x57, 0x7c, 0x72, 0x76, 0x9e, 0x6e, 0x75, 0x78, 0x90,
  0x71, 0x7c, 0x75, 0xac, 0x8a, 0x94, 0x8d, 0x7e, 0x8e, 0x6a, 0x6f, 0xb3,
  0x65, 0x75, 0x7b, 0x76, 0x49, 0x7b, 0x84, 0x9c, 0x95, 0x4d, 0x81, 0x63,
  0x77, 0x93, 0x71, 0x92, 0x66, 0x93, 0x7c, 0x7f, 0x8d, 0x85, 0xa9, 0xa7,
  0x97, 0xa1, 0x7e, 0x76, 0x8a, 0x6e, 0x61, 0xbe, 0x73, 0xac, 0x7a, 0xa3,
  0x98, 0x7e, 0x79, 0x76, 0x98, 0x97, 0x52, 0x9e, 0x3d, 0x18, 0x3f, 0x97,
  0x8f, 0x85, 0x66, 0x87, 0x68, 0x5a, 0x60, 0x9f, 0x73, 0x96, 0x65, 0x9d,
  0x20, 0x41, 0x73, 0xae, 0x78, 0x8d, 0x46, 0x80, 0x06, 0x5b, 0x54, 0xa7,
  0x85, 0x29, 0x52, 0x9c, 0x4f, 0x37, 0x8c, 0x8d, 0x57, 0x27, 0x46, 0x8e,
  0x3c, 0x40, 0x55, 0x95, 0x97, 0x25, 0x65, 0x9b, 0x3b, 0x60, 0x56, 0x81,
  0x92, 0x4d, 0x56, 0x79, 0x38, 0x4a, 0x5d, 0xb2, 0x66, 0x41, 0x7e, 0xa4,
  0x30, 0x5e, 0x58, 0x9a, 0x93, 0x26, 0x72, 0x91, 0x76, 0x79, 0xa0, 0xa1,
  0x86, 0x5b, 0x67, 0x71, 0x76, 0x7d, 0x66, 0x87, 0x77, 0x8c, 0x7b, 0x6e,
  0x95, 0x6c, 0x76, 0x95, 0x97, 0x7e, 0x86, 0x8c, 0x76, 0x72, 0x6b, 0x9e,
  0x66, 0x83, 0xaf, 0x5d, 0x7c, 0x76, 0x83, 0xc0, 0x9e, 0x87, 0xa4, 0x7c,
  0x74, 0x81, 0x9c, 0x9d, 0x8a, 0x67, 0x7e, 0x67, 0x5e, 0x72, 0x71, 0x9b,
  0x9c, 0x7a, 0x84, 0x86, 0x6b, 0x99, 0x5a, 0x8c, 0x83, 0x78, 0x8c, 0x7c,
  0x52, 0x7e, 0x78, 0xbd, 0x78, 0x85, 0x63, 0x9b, 0x68, 0x81, 0xaa, 0xa1,
  0x88, 0x7a, 0x8e, 0x94, 0xa2, 0x6f, 0x8f, 0xb1, 0x4e, 0x95, 0x4c, 0x5f,
  0x4b, 0x0c, 0x2c, 0xa1, 0x92, 0x8c, 0x62, 0x62, 0x73, 0x3d, 0x58, 0x93,
  0x59, 0xad, 0x4b, 0x7f, 0x2e, 0x45, 0x50, 0x86, 0x89, 0x54, 0x42, 0x65,
  0x0f, 0x41, 0x65, 0xab, 0x8c, 0x4b, 0x54, 0x53, 0x2f, 0x5b, 0x50, 0x88,
  0x8f, 0x25, 0x32, 0x70, 0x20, 0x65, 0x58, 0xaf, 0x71, 0x45, 0x4b, 0x96,
  0x42, 0x48, 0x8f, 0x85, 0x83, 0x4c, 0x79, 0x6e, 0x3f, 0x2e, 0x86, 0xb4,
  0x95, 0x32, 0x5e, 0x5f, 0x4b, 0x76, 0x81, 0x92, 0x9e, 0x36, 0x72, 0x8d,
  0x5b, 0x43, 0x98, 0x93, 0x66, 0x47, 0x9b, 0x76, 0xa0, 0x75, 0x81, 0xab,
  0x83, 0x5b, 0x9e, 0x5e, 0x7d, 0x56, 0x9e, 0x86, 0x66, 0x8e, 0x70, 0x72,
  0x81, 0x68, 0x7e, 0x81, 0x98, 0x88, 0x7e, 0xa6, 0x75, 0x94, 0xaf, 0x97,
  0x78, 0x7b, 0x8b, 0xa4, 0x5d, 0x52, 0x9e, 0x9d, 0x76, 0x56, 0x9b, 0x80,
  0x6d, 0x6f, 0x85, 0xa7, 0x62, 0x41, 0x87, 0x6c, 0x60, 0x7b, 0x9b, 0x9d,
  0xaa, 0x92, 0x94, 0x9d, 0x5c, 0x6c, 0x7f, 0x98, 0x6c, 0x75, 0x7f, 0x98,
  0x94, 0x51, 0x86, 0xb2, 0x98, 0x82, 0x8d, 0x6e, 0x9e, 0x71, 0x67, 0x9d,
  0x6b, 0xa1, 0x53, 0x92, 0x5c, 0x21, 0x47, 0xa5, 0x71, 0x7b, 0x4c, 0x9d,
  0x4b, 0x6e, 0x33, 0x9e, 0x8b, 0x86, 0x42, 0x8e, 0x3e, 0x49, 0x88, 0x8d,
  0x8a, 0x87, 0x2f, 0x63, 0x2e, 0x49, 0x7e, 0x90, 0x71, 0x43, 0x5c, 0x80,
  0x3a, 0x61, 0x52, 0x85, 0x9c, 0x26, 0x54, 0x98, 0x49, 0x50, 0x73, 0xa9,
  0x9c, 0x34, 0x5a, 0x67, 0x36, 0x75, 0x6c, 0xa0, 0x62, 0x3a, 0x61, 0x6d,
  0x33, 0x69, 0x72, 0xaf, 0x72, 0x44, 0x54, 0x75, 0x51, 0x3f, 0x8c, 0x86,
  0x8a, 0x57, 0x64, 0x57, 0x5d, 0x62, 0x6a, 0x9b, 0x8f, 0x5d, 0x64, 0x83,
  0xa4, 0x67, 0x9e, 0x96, 0x5b, 0x76, 0x79, 0x97, 0x97, 0x6f, 0x82, 0x9f,
  0x74, 0x91, 0xa2, 0x90, 0x81, 0x6f, 0x6f, 0x8c, 0x63, 0x82, 0x95, 0x83,
  0x97, 0x6c, 0x94, 0xb2, 0xad, 0x6a, 0x93, 0x4e, 0x75, 0x6a, 0x73, 0x8b,
  0x79, 0x68, 0x73, 0x83, 0x5f, 0x6d, 0x7e, 0xb6, 0x75, 0x79, 0x87, 0x64,
  0x82, 0x78, 0x94, 0xb4, 0x7a, 0x6b, 0x7a, 0xaa, 0x6a, 0x7b, 0x80, 0x93,
  0x52, 0x72, 0x96, 0x8e, 0x74, 0x62, 0x79, 0x79, 0x76, 0x8e, 0xb1, 0x79,
  0x98, 0x6e, 0x6c, 0x93, 0x89, 0xa2, 0x5e, 0x5b, 0x50, 0x05, 0x55, 0xa8,
  0x68, 0x8e, 0x35, 0x6e, 0x66, 0x4a, 0x70, 0xaf, 0x6f, 0x93, 0x62, 0x61,
  0x55, 0x75, 0x7b, 0x8b, 0x95, 0x72, 0x52, 0x72, 0x41, 0x55, 0x72, 0x99,
  0x77, 0x30, 0x5f, 0x85, 0x5d, 0x44, 0x7c, 0xa8, 0x8c, 0x1b, 0x46, 0x63,
  0x2e, 0x65, 0x61, 0x7d, 0x83, 0x3d, 0x57, 0x72, 0x32, 0x3a, 0x85, 0xa5,
  0x8c, 0x46, 0x53, 0x87, 0x39, 0x47, 0x77, 0x91, 0x91, 0x37, 0x75, 0x6a,
  0x40, 0x6e, 0x69, 0xa6, 0xaf, 0x4a, 0x64, 0x88, 0x4f, 0x6c, 0x7b, 0xa3,
  0x76, 0x44, 0x67, 0x66, 0x65, 0x7b, 0xab, 0xb0, 0x87, 0x86, 0x83, 0x83,
  0x80, 0x6b, 0x73, 0xa2, 0xa2, 0x88, 0x6b, 0x64, 0xaf, 0x71, 0xa8, 0xbc,
  0x6c, 0x89, 0x91, 0x80, 0x7d, 0x76, 0xa8, 0x9b, 0x82, 0x6e, 0x98, 0x60,
  0x6e, 0x8d, 0x91, 0xb0, 0x8a, 0x63, 0x89, 0x7e, 0x63, 0x68, 0x74, 0xaa,
  0x6c, 0x84, 0x69, 0x57, 0x54, 0x6f, 0x91, 0x9c, 0x71, 0x88, 0x8c, 0x89,
  0x75, 0x73, 0x72, 0xb5, 0x6b, 0x78, 0x97, 0xa1, 0x77, 0x97, 0x5b, 0xbd,
  0x76, 0xa0, 0x74, 0x89, 0x96, 0x8a, 0x90, 0x6a, 0x76, 0xae, 0x35, 0x76,
  0x62, 0x27, 0x4b, 0xb9, 0x65, 0x6c, 0x66, 0x75, 0x56, 0x52, 0x4a, 0x79,
  0x55, 0x79, 0x34, 0x5d, 0x43, 0x4f, 0x71, 0x8f, 0x85, 0x61, 0x5d, 0x84,
  0x13, 0x39, 0x67, 0x78, 0x6e, 0x2b, 0x44, 0x5f, 0x46, 0x62, 0x57, 0x85,
  0x85, 0x26, 0x54, 0x97, 0x25, 0x47, 0x66, 0xa8, 0x82, 0x22, 0x4a, 0x7b,
  0x2a, 0x5c, 0x47, 0xaa, 0x97, 0x3a, 0x6e, 0x5b, 0x35, 0x58, 0x60, 0xab,
  0xa3, 0x18, 0x5c, 0x84, 0x4e, 0x4e, 0x63, 0xa9, 0x88, 0x49, 0x5e, 0x75,
  0x5d, 0x85, 0x9a, 0xa5, 0x65, 0x29, 0x8a, 0x76, 0x74, 0x79, 0x5a, 0x69,
  0x62, 0x6f, 0x7f, 0x7d, 0x52, 0x50, 0x78, 0xa9, 0x91, 0x63, 0x9c, 0x64,
  0x72, 0x71, 0x5f, 0xa6, 0x6f, 0x80, 0x7f, 0x86, 0x87, 0x8a, 0x95, 0x9e,
  0x89, 0x87, 0x8c, 0x82, 0x6f, 0x67, 0x82, 0xa3, 0x83, 0x53, 0x72, 0x62,
  0x4f, 0x71, 0xae, 0x7f, 0x71, 0x60, 0xb1, 0x7f, 0x5d, 0x89, 0x7f, 0xb5,
  0x93, 0x4c, 0x7c, 0x7a, 0x79, 0x54, 0xa8, 0x9b, 0x8c, 0x98, 0x86, 0xaf,
  0x81, 0x6d, 0x87, 0x8b, 0x4d, 0x92, 0xaf, 0x7c, 0x97, 0x7e, 0x5d, 0x75,
  0x58, 0x9f, 0x3d, 0x73, 0x6d, 0x26, 0x83, 0xc5, 0x9a, 0xb2, 0x2d, 0x8f,
  0x35, 0x2f, 0x72, 0xab, 0x5d, 0xe5, 0x34, 0x64, 0x3b, 0x2a, 0x9d, 0xbe,
  0x51, 0xb0, 0x3b, 0x7a, 0x17, 0x2a, 0x7c, 0x95, 0x7b, 0x82, 0x3a, 0x6e,
  0x43, 0x34, 0x5d, 0x97, 0x89, 0x52, 0x4f, 0x8f, 0x39, 0x20, 0x69, 0xa1,
  0x59, 0x4d, 0x46, 0x83, 0x21, 0x1b, 0x78, 0xa7, 0x78, 0x66, 0x3d, 0x86,
  0x15, 0x56, 0x63, 0x8f, 0x79, 0x33, 0x60, 0x9a, 0x2b, 0x54, 0x65, 0x99,
  0x6e, 0x4b, 0x4d, 0x7d, 0x5a, 0x6e, 0x78, 0x8b, 0x78, 0x53, 0x57, 0x84,
  0x71, 0x71, 0x8b, 0xa5, 0x62, 0x72, 0x8f, 0x5d, 0x78, 0x4c, 0x7b, 0x9e,
  0x99, 0x7c, 0x5f, 0x54, 0x64, 0x77, 0x93, 0xb0, 0x6f, 0x8f, 0x88, 0x66,
  0x74, 0x5e, 0xaa, 0x98, 0x8c, 0x78, 0x89, 0x8b, 0x53, 0x6e, 0x9d, 0x97,
  0x71, 0x52, 0x73, 0x64, 0x33, 0x75, 0x8a, 0x96, 0x7f, 0x5e, 0x7a, 0x93,
  0x5f, 0x81, 0x9c, 0x9c, 0x67, 0x5b, 0x87, 0x84, 0x61, 0x68, 0x84, 0x81,
  0x6f, 0x8e, 0x79, 0x8b, 0x7e, 0x5a, 0x81, 0x90, 0x86, 0x8a, 0xaf, 0x84,
  0xa6, 0x9c, 0x9f, 0x67, 0xa5, 0xaf, 0x5d, 0x80, 0x7e, 0x2d, 0x96, 0xbf,
  0x9c, 0xae, 0x70, 0x6d, 0x64, 0x00, 0x99, 0x86, 0xa4, 0xf4, 0x6a, 0x60,
  0x59, 0x26, 0xac, 0x91, 0x93, 0xd4, 0x51, 0x9f, 0x39, 0x14, 0x8d, 0x71,
  0x92, 0xaf, 0x49, 0x76, 0x58, 0x23, 0x9b, 0x57, 0x72, 0xac, 0x29, 0x8c,
  0x3b, 0x4c, 0x9b, 0x84, 0xa6, 0x9a, 0x4f, 0x68, 0x3f, 0x24, 0x7d, 0x69,
  0x80, 0x90, 0x58, 0x72, 0x35, 0x26, 0x7d, 0x90, 0x77, 0x84, 0x4b, 0x6a,
  0x21, 0x59, 0x67, 0x67, 0x78, 0x8c, 0x66, 0xaf, 0x39, 0x4c, 0x76, 0x69,
  0x7a, 0x94, 0x83, 0x92, 0x5b, 0x56, 0x83, 0x83, 0x7f, 0x98, 0x84, 0x91,
  0x6b, 0x61, 0x83, 0x74, 0x7b, 0xa1, 0x7a, 0x7c, 0x6f, 0x5d, 0x6b, 0x6b,
  0x9c, 0xa7, 0x92, 0x81, 0x7a, 0x62, 0x89, 0x94, 0x7a, 0x82, 0x7b, 0x83,
  0x4d, 0x66, 0xa3, 0x84, 0x8d, 0x83, 0x9c, 0x90, 0x35, 0x8e, 0x8a, 0x88,
  0x98, 0x92, 0xa0, 0x7f, 0x68, 0x6f, 0x96, 0x9b, 0xa1, 0x7d, 0x95, 0x5b,
  0x49, 0x7d, 0x85, 0xa6, 0x73, 0x60, 0x8a, 0x7f, 0x93, 0x77, 0x8d, 0x99,
  0x61, 0x65, 0x93, 0x80, 0x9e, 0x92, 0x7e, 0x75, 0x92, 0xaf, 0x4a, 0x81,
  0xa1, 0x12, 0x8e, 0x67, 0x97, 0xca, 0x50, 0x68, 0xc8, 0x10, 0x74, 0xa0,
  0x8e, 0xff, 0x51, 0x84, 0x7f, 0x12, 0xa2, 0x7e, 0x8a, 0xec, 0x3f, 0x97,
  0x6b, 0x02, 0xa5, 0xa5, 0xa4, 0xd9, 0x45, 0x91, 0x8b, 0x24, 0x9d, 0x81,
  0x91, 0xc7, 0x53, 0x7e, 0x81, 0x29, 0xa2, 0x52, 0x87, 0xc3, 0x55, 0x65,
  0x60, 0x2c, 0x82, 0x52, 0x7d, 0xb7, 0x56, 0x8c, 0x47, 0x2c, 0x74, 0x5a,
  0x73, 0x88, 0x5a, 0x81, 0x40, 0x46, 0x90, 0x71, 0x8e, 0x87, 0x6a, 0x77,
  0x63, 0x6c, 0x82, 0x87, 0x96, 0x95, 0x6a, 0x77, 0x87, 0x77, 0x92, 0x84,
  0x6f, 0x94, 0x61, 0x79, 0x85, 0x39, 0x96, 0x86, 0x78, 0xa0, 0x63, 0x5b,
  0x84, 0x5d, 0x93, 0x61, 0xa7, 0xb3, 0x69, 0x6e, 0x7e, 0x5f, 0x9a, 0x5a,
  0x60, 0x97, 0x7d, 0x5e, 0x72, 0x5e, 0x87, 0x9d, 0x82, 0x90, 0x78, 0x80,
  0x5c, 0x8b, 0x7d, 0x5d, 0xa0, 0x87, 0x7f, 0x6b, 0x59, 0x86, 0x8b, 0xa2,
  0x78, 0x83, 0x85, 0x7f, 0x8f, 0x79, 0x8f, 0x7f, 0x95, 0x9a, 0xa0, 0x67,
  0x9b, 0x94, 0x6e, 0x98, 0x6c, 0x70, 0x79, 0x75, 0xa1, 0x9b, 0x99, 0xb2,
  0x8d, 0x51, 0x6b, 0x5b, 0x7b, 0x66, 0x7d, 0x62, 0x57, 0xaa, 0x95, 0x86,
  0x7a, 0x75, 0x86, 0x74, 0x60, 0x6b, 0xb1, 0xa0, 0x8d, 0x70, 0x55, 0x64,
  0x88, 0x6a, 0x7d, 0x6f, 0xa2, 0x69, 0x94, 0x67, 0x7c, 0x5e, 0x84, 0x6f,
  0x8e, 0x84, 0x71, 0x73, 0x7f, 0x86, 0x70, 0x63, 0x77, 0x8e, 0xa4, 0x6f,
  0x9a, 0x81, 0x96, 0x97, 0x87, 0x88, 0x6c, 0x85, 0x90, 0x76, 0xa7, 0x7c,
  0x79, 0x80, 0x6f, 0x74, 0x6e, 0x7f, 0x9b, 0x5e, 0x69, 0x6f, 0x6d, 0x83,
  0x77, 0xa4, 0x93, 0x93, 0x7a, 0x58, 0x89, 0x79, 0x7a, 0x9a, 0x8d, 0x86,
  0x68, 0x81, 0x7b, 0x74, 0x84, 0x50, 0x84, 0x7a, 0x81, 0x81, 0x97, 0x78,
  0x65, 0x75, 0x8c, 0x88, 0x9d, 0x8a, 0x8b, 0x73, 0x9e, 0x7b, 0x6a, 0x9d,
  0x5e, 0x82, 0x77, 0x78, 0x62, 0x8b, 0x93, 0x5f, 0xa6, 0x8b, 0x82, 0x89,
  0x6b, 0x70, 0x9e, 0x9d, 0xa6, 0x61, 0x80, 0x68, 0x96, 0x6e, 0x78, 0x56,
  0x57, 0x8b, 0x82, 0x7a, 0x71, 0x6e, 0x62, 0x54, 0x5d, 0x76, 0x8a, 0x7d,
  0x95, 0x9f, 0x8a, 0x67, 0x87, 0x90, 0x80, 0x7a, 0x99, 0x97, 0x67, 0x7c,
  0x77, 0x90, 0x8b, 0x8c, 0x66, 0x6a, 0x74, 0x74, 0x93, 0x7a, 0x76, 0x76,
  0x8b, 0x70, 0x64, 0x53, 0x7f, 0x7a, 0x95, 0x73, 0x84, 0x89, 0x63, 0x9c,
  0x86, 0x88, 0x62, 0x74, 0x81, 0x7e, 0x5e, 0x6a, 0x77, 0x88, 0x72, 0x81,
  0x51, 0x95, 0x92, 0x61, 0x91, 0x75, 0x7e, 0x73, 0x9c, 0xa3, 0xb1, 0x78,
  0x6a, 0x52, 0x59, 0x71, 0x97, 0x55, 0x65, 0x71, 0x8a, 0x60, 0x97, 0x7f,
  0x7c, 0x81, 0x9b, 0x82, 0x81, 0x8e, 0x68, 0x83, 0x7d, 0xa3, 0x9b, 0x63,
  0x90, 0x8e, 0x8d, 0x77, 0x75, 0x62, 0xae, 0x8d, 0x7f, 0x80, 0x69, 0x74,
  0x77, 0x61, 0x87, 0xa0, 0x84, 0x98, 0x52, 0x84, 0x5b, 0x5a, 0x8d, 0x85,
  0x9b, 0xb1, 0x9a, 0x78, 0x6a, 0x5c, 0x8a, 0x6b, 0x6b, 0x7a, 0x56, 0x7a,
  0x7e, 0x68, 0x86, 0x69, 0x5b, 0x53, 0x70, 0x87, 0x71, 0x86, 0x80, 0x87,
  0x81, 0x7a, 0x90, 0x7d, 0x81, 0x70, 0x94, 0x6a, 0x92, 0xa6, 0x78, 0x7a,
  0x7b, 0x5e, 0x5f, 0x7c, 0x7a, 0x90, 0x67, 0x7c, 0xa2, 0x87, 0xb0, 0x6e,
  0x6d, 0x83, 0x8b, 0x7c, 0x82, 0x64, 0x74, 0x9e, 0x6d, 0x7f, 0x6b, 0x7a,
  0x83, 0x8e, 0x84, 0x64, 0x84, 0x8b, 0xad, 0x74, 0x85, 0x6a, 0x6f, 0x68,
  0x71, 0x6d, 0x7a, 0x62, 0x88, 0x59, 0x75, 0x65, 0x69, 0x75, 0x6b, 0x90,
  0x99, 0x6b, 0x6b, 0x8a, 0x61, 0x8a, 0x5f, 0x6e, 0x6f, 0x75, 0xa8, 0x72,
  0x8a, 0x8f, 0x7f, 0x5b, 0x72, 0x80, 0x7a, 0x82, 0x73, 0x79, 0x59, 0x85,
  0x61, 0x85, 0x85, 0x86, 0x82, 0x87, 0xab, 0x6f, 0x8b, 0x6d, 0x9c, 0x69,
  0x5d, 0x74, 0x62, 0x91, 0x89, 0x77, 0x95, 0x76, 0x78, 0x8e, 0x80, 0x61,
  0x7b, 0x87, 0x9c, 0x73, 0x74, 0x96, 0x69, 0x66, 0x9b, 0xa1, 0x93, 0x72,
  0x58, 0x7b, 0x89, 0x69, 0x98, 0x99, 0x91, 0x74, 0x7d, 0xb2, 0x84, 0x7c,
  0x83, 0x75, 0x91, 0x84, 0x62, 0x6f, 0xa6, 0x79, 0x9e, 0x56, 0x98, 0x7b,
  0x8c, 0x95, 0x78, 0x80, 0x8f, 0x81, 0x93, 0x8d, 0x83, 0x81, 0x76, 0x6e,
  0x63, 0x81, 0x7a, 0x94, 0x84, 0x77, 0x86, 0x95, 0x58, 0x61, 0x6b, 0x75,
  0x7e, 0x7f, 0x6b, 0x69, 0x78, 0x85, 0x91, 0x75, 0x79, 0x79, 0x89, 0x86,
  0x68, 0x67, 0x7e, 0x7b, 0x94, 0x88, 0x84, 0x6c, 0x51, 0x68, 0x6e, 0x70,
  0x6b, 0x8a, 0x51, 0x5c, 0xaa, 0x81, 0x8e, 0x6f, 0x80, 0x62, 0x75, 0x5e,
  0x6f, 0x6e, 0x84, 0x60, 0x6a, 0x78, 0x84, 0x51, 0x9a, 0x6e, 0x8e, 0x9a,
  0x9c, 0x94, 0x70, 0x73, 0x6a, 0x6d, 0x84, 0x72, 0x56, 0x74, 0x70, 0x6a,
  0x8d, 0x8b, 0x95, 0x76, 0x80, 0x7b, 0x73, 0x6f, 0x78, 0x84, 0x93, 0x6b,
  0x96, 0x7d, 0x74, 0xa2, 0x86, 0x6e, 0x86, 0x67, 0x74, 0x71, 0x96, 0x54,
  0x6d, 0x71, 0x96, 0x8c, 0x92, 0xa2, 0x7f, 0x74, 0x73, 0x8c, 0x7d, 0x82,
  0x87, 0x6d, 0x8c, 0x8d, 0x7e, 0x9b, 0x7e, 0x96, 0x83, 0x92, 0x6c, 0x55,
  0x74, 0x76, 0x97, 0x67, 0x6f, 0xa4, 0x7d, 0x76, 0x9e, 0x63, 0x92, 0x9b,
  0x94, 0x92, 0x71, 0x87, 0x6f, 0x7d, 0x7b, 0x65, 0x6a, 0x7e, 0x8b, 0x72,
  0x7e, 0x73, 0x8f, 0x50, 0x8a, 0x7f, 0xa1, 0x69, 0x6f, 0x93, 0x81, 0xaa,
  0x86, 0x78, 0x68, 0x60, 0x64, 0x7c, 0x82, 0x99, 0x9d, 0x92, 0x95, 0x72,
  0x61, 0x82, 0x62, 0x6e, 0x91, 0x73, 0x86, 0x60, 0xa3, 0x89, 0x70, 0x7c,
  0x87, 0x98, 0x75, 0x83, 0x9b, 0x65, 0x84, 0x81, 0x9f, 0x79, 0x87, 0x6b,
  0x95, 0x71, 0x88, 0x4f, 0x81, 0x79, 0xa9, 0x86, 0x9d, 0x59, 0x8f, 0x79,
  0x83, 0x95, 0x66, 0x91, 0x8f, 0x69, 0x80, 0xb0, 0x8e, 0x6d, 0x7c, 0x94,
  0x93, 0x5f, 0x9d, 0x89, 0x83, 0x87, 0x6b, 0x8f, 0x86, 0x8a, 0x93, 0x68,
  0x7f, 0x8b, 0x94, 0x70, 0x5b, 0x56, 0x88, 0x59, 0x90, 0x79, 0x8c, 0x6f,
  0x62, 0x9b, 0x6c, 0x80, 0x7d, 0x8b, 0x89, 0x8d, 0x7e, 0x60, 0x7f, 0x73,
  0x79, 0x97, 0xa2, 0x7e, 0x79, 0x72, 0x65, 0x63, 0x7e, 0x68, 0x9f, 0x9e,
  0x75, 0x6e, 0x85, 0xa7, 0x9c, 0x7c, 0x70, 0x72, 0x85, 0x7e, 0x86, 0x68,
  0x95, 0x91, 0x8e, 0x7d, 0x6a, 0x94, 0x7b, 0x67, 0x89, 0x6c, 0x96, 0x8b,
  0x94, 0x76, 0x9a, 0x7d, 0x92, 0x85, 0x6b, 0x76, 0x75, 0x6b, 0x8e, 0x89,
  0x9c, 0x7b, 0x7a, 0x61, 0xa3, 0x73, 0x9b, 0x8a, 0x86, 0x72, 0x50, 0x48,
  0x93, 0x94, 0x95, 0x8e, 0x9b, 0x82, 0xa4, 0x56, 0x98, 0xa6, 0x68, 0x6b,
  0xa3, 0x78, 0x73, 0x51, 0x61, 0x85, 0x68, 0x6e, 0x99, 0x5f, 0x9a, 0x52,
  0x8f, 0x69, 0x68, 0x82, 0x8b, 0x95, 0x9b, 0x7c, 0x9a, 0x88, 0x7c, 0x9f,
  0x98, 0x85, 0x92, 0x65, 0x6f, 0x8a, 0xac, 0x7e, 0x75, 0x86, 0x81, 0x6f,
  0xa1, 0x54, 0x5d, 0x99, 0x8c, 0x88, 0xa8, 0x72, 0x93, 0x70, 0x87, 0x92,
  0x99, 0x83, 0x7e, 0x59, 0x5a, 0x61, 0x78, 0x88, 0xad, 0x78, 0x7f, 0x4a,
  0x8b, 0x76, 0x97, 0xa4, 0x6b, 0x98, 0x74, 0x7c, 0x8e, 0x6b, 0x59, 0x5a,
  0x97, 0x7c, 0x8c, 0x97, 0x7d, 0x60, 0x7f, 0xae, 0x75, 0x66, 0x80, 0x7a,
  0x85, 0x63, 0x6c, 0x79, 0x9a, 0x6e, 0x6e, 0x9f, 0x7b, 0x9b, 0x73, 0x6c,
  0x85, 0x6d, 0x97, 0x96, 0x88, 0x6a, 0x86, 0x88, 0xa0, 0xa9, 0x9d, 0x6e,
  0x74, 0x71, 0x64, 0x7a, 0x99, 0x8e, 0x76, 0x8d, 0xa1, 0x56, 0x7f, 0x8c,
  0xa6, 0x61, 0x78, 0x7c, 0x68, 0x85, 0xb8, 0x5a, 0x99, 0xa4, 0xae, 0x68,
  0xa6, 0x81, 0x86, 0x7f, 0x96, 0x74, 0x87, 0x5b, 0xa5, 0x81, 0x85, 0x8b,
  0x98, 0x56, 0x8e, 0x6e, 0xa2, 0x93, 0x88, 0x8f, 0x8e, 0x88, 0x8f, 0x61,
  0x57, 0x8d, 0x6c, 0x67, 0x94, 0x55, 0x72, 0x71, 0x54, 0x6a, 0x7a, 0x87,
  0xac, 0x7b, 0x62, 0x4d, 0x9a, 0x69, 0x6d, 0x80, 0x8a, 0x70, 0x74, 0x6b,
  0x88, 0x6f, 0x84, 0x8d, 0x9a, 0x73, 0x8c, 0x7a, 0x93, 0x61, 0x6e, 0x56,
  0x8e, 0x95, 0x8a, 0x75, 0x62, 0x5a, 0xad, 0x9c, 0x89, 0x90, 0x99, 0x85,
  0x76, 0x72, 0x6b, 0x6f, 0x5e, 0x8f, 0x88, 0x67, 0xa4, 0x65, 0x70, 0x9b,
  0x57, 0x81, 0x74, 0x6e, 0x5d, 0x7f, 0x9a, 0x89, 0x5e, 0x86, 0xa6, 0x83,
  0x82, 0x98, 0x7c, 0x92, 0xaf, 0x88, 0x77, 0x82, 0x7c, 0x69, 0x62, 0x79,
  0x8f, 0x72, 0x6f, 0x96, 0x76, 0x81, 0x5a, 0x6d, 0x7c, 0x7a, 0x7c, 0xa0,
  0x84, 0x61, 0x82, 0x85, 0x7d, 0x86, 0x8a, 0x8d, 0x9e, 0x82, 0x88, 0x8e,
  0x9b, 0x92, 0x84, 0x72, 0x65, 0x74, 0x9e, 0x5c, 0x9d, 0x99, 0x65, 0x9c,
  0x7d, 0x87, 0x77, 0x52, 0x9b, 0x77, 0x79, 0x76, 0x5f, 0x9c, 0x99, 0x71,
  0xd0, 0x81, 0x97, 0x6a, 0x9e, 0x98, 0x94, 0x88, 0x8a, 0x8e, 0x82, 0x6d,
  0x7a, 0x71, 0x5e, 0x57, 0x8d, 0x6a, 0x4b, 0x67, 0x5d, 0x7a, 0x85, 0x56,
  0x94, 0x80, 0x6d, 0x55, 0x6f, 0x8f, 0x70, 0x80, 0xa3, 0x8a, 0x73, 0x65,
  0x59, 0x80, 0x7f, 0x9f, 0xa0, 0x6c, 0x84, 0x6d, 0x6e, 0x7a, 0x6c, 0x91,
  0x9b, 0x76, 0x7f, 0x71, 0x5a, 0x80, 0xa8, 0x90, 0x9e, 0x86, 0x88, 0x82,
  0x6f, 0x85, 0x6e, 0x7d, 0x8c, 0x9a, 0x71, 0x9c, 0xa1, 0x95, 0x80, 0x8d,
  0x79, 0xa6, 0x53, 0x7a, 0x6e, 0x75, 0x73, 0x67, 0x87, 0x95, 0x7d, 0x5e,
  0xac, 0x58, 0x78, 0x71, 0x9a, 0x7c, 0x6a, 0x79, 0x95, 0x99, 0x92, 0x64,
  0x8c, 0x8b, 0x96, 0x7a, 0x64, 0xa9, 0x63, 0x6f, 0xae, 0x78, 0x96, 0x98,
  0x5f, 0xb0, 0x5e, 0x80, 0x9a, 0x6b, 0x8a, 0x95, 0x94, 0x80, 0x69, 0x77,
  0x6d, 0x47, 0x74, 0x68, 0x98, 0x8f, 0x8c, 0x93, 0x8a, 0x89, 0x86, 0x8a,
  0x6f, 0x61, 0x86, 0x86, 0xa8, 0x9d, 0x6b, 0x93, 0x9d, 0x83, 0x93, 0x8b,
  0x9d, 0x9b, 0x90, 0x84, 0x5e, 0x75, 0x7f, 0x75, 0x9f, 0x8c, 0x85, 0x78,
  0x87, 0x99, 0x85, 0x8e, 0xc0, 0x89, 0x8d, 0x6d, 0xa2, 0x95, 0x7e, 0x68,
  0xa3, 0x7c, 0x6c, 0x6c, 0x63, 0x78, 0x7c, 0x6a, 0x91, 0x6b, 0x70, 0x6d,
  0x8c, 0x78, 0x81, 0x76, 0x8b, 0x73, 0x8c, 0x55, 0x86, 0x8f, 0x66, 0xa5,
  0xa4, 0x8e, 0x76, 0x5e, 0x78, 0x80, 0x79, 0x69, 0xa4, 0x8b, 0x6f, 0x65,
  0x80, 0x77, 0x72, 0x6b, 0x8f, 0x81, 0x7d, 0x6f, 0x75, 0x79, 0x82, 0x85,
  0x9d, 0x81, 0x7e, 0x80, 0x8f, 0x6c, 0x98, 0x85, 0x86, 0x90, 0x7f, 0x93,
  0x96, 0x9c, 0x68, 0x6f, 0x77, 0xa0, 0x6b, 0x83, 0x79, 0x78, 0x76, 0x92,
  0x7c, 0x8d, 0x87, 0x5c, 0x91, 0x6a, 0x60, 0x54, 0x6d, 0x64, 0x79, 0x94,
  0x88, 0x8f, 0x9d, 0x82, 0x8a, 0x95, 0xaa, 0x69, 0x7a, 0xae, 0x79, 0x88,
  0xc1, 0x85, 0xb3, 0x83, 0x76, 0x9b, 0x70, 0x9e, 0x80, 0x75, 0x5f, 0x81,
  0x89, 0x6f, 0x62, 0x75, 0x86, 0x6a, 0x78, 0xa1, 0x7b, 0x86, 0x90, 0x86,
  0x7c, 0x96, 0x85, 0x70, 0xa6, 0x60, 0x9c, 0x65, 0x9e, 0x9d, 0x99, 0x5d,
  0x80, 0x70, 0x8f, 0x8d, 0x9a, 0x83, 0x97, 0x81, 0x9a, 0x71, 0x76, 0x72,
  0x99, 0x8e, 0xac, 0x64, 0x8b, 0x98, 0xa2, 0x77, 0xaf, 0x7b, 0xb7, 0x5d,
  0xaf, 0x95, 0x86, 0x85, 0xb1, 0x84, 0x91, 0x81, 0x9c, 0x8e, 0x68, 0x75,
  0x8f, 0x63, 0x85, 0x74, 0x75, 0x84, 0x83, 0x83, 0x7b, 0x5b, 0x7b, 0x74,
  0x85, 0x88, 0x97, 0x7b, 0x82, 0x6c, 0x95, 0x5e, 0x5e, 0x84, 0x52, 0x84,
  0xa7, 0x70, 0x73, 0x68, 0x6b, 0x89, 0x7e, 0x71, 0x9a, 0x54, 0x6a, 0x5e,
  0x89, 0x7a, 0x98, 0x75, 0x9c, 0x92, 0x75, 0x7c, 0x69, 0x73, 0x7c, 0xa5,
  0x89, 0x7f, 0x72, 0x97, 0x8d, 0x8b, 0x7f, 0x84, 0x7f, 0x8c, 0x7a, 0xa0,
  0x82, 0x7c, 0x69, 0x81, 0x77, 0x8d, 0x6d, 0x5c, 0xaa, 0x62, 0x5c, 0x98,
  0x8b, 0x67, 0x7f, 0x84, 0x7c, 0xc5, 0x95, 0x87, 0x87, 0x91, 0xb4, 0xa3,
  0x55, 0xc5, 0x75, 0x91, 0xaf, 0x79, 0x90, 0x91, 0x63, 0x9e, 0x6b, 0xa3,
  0x89, 0x69, 0x99, 0x83, 0x67, 0x77, 0x5b, 0x8b, 0x87, 0x62, 0x60, 0x8a,
  0x8d, 0x91, 0x7c, 0x8b, 0x86, 0x7f, 0x70, 0x84, 0x7a, 0x7d, 0x8a, 0x78,
  0x9b, 0xab, 0xa1, 0x70, 0x6b, 0x79, 0x91, 0x65, 0xb1, 0xb1, 0x8c, 0x6f,
  0x95, 0x69, 0x7f, 0x66, 0xa5, 0x7a, 0xa3, 0x6b, 0x84, 0xac, 0x9f, 0x95,
  0xb0, 0x84, 0xa8, 0x6c, 0x88, 0xab, 0x83, 0x77, 0x9a, 0x75, 0x8f, 0x6c,
  0xa4, 0x83, 0x73, 0x8f, 0x90, 0x5d, 0x6a, 0x77, 0x67, 0x74, 0x73, 0x54,
  0x9c, 0x6e, 0x51, 0x61, 0x8b, 0x9b, 0x7d, 0x76, 0x96, 0x85, 0x84, 0x74,
  0x8b, 0x81, 0x6a, 0x8f, 0xa4, 0x92, 0x75, 0x61, 0x8f, 0x66, 0x7e, 0x84,
  0xab, 0x65, 0x69, 0x73, 0x6b, 0x61, 0x86, 0x58, 0x8c, 0x8f, 0x6b, 0x7b,
  0x8f, 0xa2, 0x9c, 0x66, 0x8c, 0x7b, 0x82, 0x7f, 0x68, 0x8c, 0x6b, 0x7f,
  0x81, 0x86, 0x62, 0x7e, 0xa1, 0x74, 0x6f, 0x5e, 0x63, 0xa3, 0x83, 0x52,
  0x70, 0x5d, 0x6d, 0x80, 0x88, 0x75, 0x8a, 0x91, 0x6f, 0xbb, 0x99, 0x9d,
  0x8d, 0x86, 0xb7, 0x92, 0x8e, 0xaa, 0x7f, 0x5c, 0xaf, 0x8c, 0x9e, 0x9d,
  0x60, 0xb4, 0x5c, 0x6a, 0x9f, 0x75, 0x88, 0x99, 0x7a, 0x91, 0x64, 0x91,
  0x84, 0x67, 0x67, 0x97, 0x7c, 0x8d, 0x82, 0x95, 0x7c, 0x8b, 0x82, 0x8e,
  0x73, 0x6a, 0x94, 0xa6, 0xac, 0xb6, 0xa4, 0x7d, 0x9d, 0x5b, 0x82, 0x7f,
  0x99, 0xa7, 0x91, 0x76, 0x75, 0x7c, 0x8d, 0x6c, 0xac, 0xa1, 0x9a, 0x63,
  0x99, 0xa4, 0x7e, 0x91, 0xbd, 0x7e, 0xaf, 0x69, 0x4f, 0x8e, 0x7e, 0x98,
  0x99, 0x8a, 0x88, 0x60, 0x85, 0x77, 0x7c, 0x75, 0x99, 0x58, 0x83, 0x7d,
  0x71, 0x7e, 0x7d, 0x5e, 0x83, 0x6b, 0x83, 0x6e, 0x68, 0x8b, 0x89, 0x72,
  0x93, 0x73, 0x8c, 0x66, 0x8c, 0x84, 0x6e, 0x55, 0x9f, 0x77, 0x9d, 0x67,
  0xa3, 0x71, 0x67, 0x7e, 0x95, 0x7d, 0x6f, 0x61, 0x89, 0x75, 0x87, 0x6c,
  0x87, 0x8b, 0x78, 0x7b, 0x6b, 0x79, 0x96, 0x9c, 0x8d, 0x92, 0x71, 0x93,
  0x5c, 0x9a, 0x82, 0x93, 0x87, 0x8c, 0x58, 0x5d, 0x73, 0x6d, 0x71, 0xa7,
  0x84, 0x8f, 0x82, 0x7d, 0x9a, 0x67, 0x75, 0x6d, 0xa8, 0x77, 0x8f, 0x71,
  0x84, 0xcc, 0x94, 0x4f, 0xac, 0x98, 0xcb, 0x8a, 0x82, 0xc3, 0x71, 0x9a,
  0x94, 0x9b, 0x9d, 0xa0, 0x82, 0xa3, 0x63, 0x6a, 0x95, 0x72, 0x77, 0xa2,
  0xa9, 0x7a, 0x5d, 0x98, 0x81, 0x5e, 0x72, 0xa5, 0x74, 0x93, 0x7e, 0x90,
  0x8c, 0x7a, 0x98, 0x90, 0x7f, 0x64, 0x8a, 0x84, 0x9b, 0x9d, 0xaa, 0x77,
  0x5a, 0x59, 0x99, 0x86, 0xa0, 0x97, 0xa3, 0x61, 0x87, 0x67, 0x8c, 0x71,
  0xaf, 0x81, 0x9f, 0x69, 0x89, 0x98, 0x8a, 0x74, 0xd2, 0x79, 0xa5, 0x66,
  0x78, 0x9e, 0x6d, 0x87, 0xae, 0x78, 0xa5, 0x6d, 0x93, 0x72, 0x77, 0x5d,
  0x7c, 0x63, 0x6a, 0x73, 0x9b, 0x7f, 0x83, 0x8f, 0x7b, 0x64, 0x82, 0x76,
  0xa0, 0x90, 0x8c, 0x71, 0x8b, 0x5f, 0x82, 0x6d, 0x6f, 0x8b, 0x76, 0x8b,
  0x99, 0x76, 0x7e, 0x81, 0x5a, 0x7b, 0x76, 0x7f, 0xac, 0x74, 0x8b, 0x67,
  0x9a, 0x77, 0x90, 0x77, 0x8d, 0xa4, 0x88, 0x69, 0x8b, 0x87, 0x90, 0x9b,
  0x7d, 0x99, 0x8e, 0x90, 0x6d, 0x64, 0x6d, 0x9c, 0x79, 0x89, 0x9a, 0x95,
  0x59, 0x6f, 0x65, 0x7f, 0x83, 0x91, 0x83, 0x76, 0x4b, 0x61, 0x69, 0x7d,
  0x81, 0x84, 0x77, 0x61, 0x8d, 0xbd, 0x90, 0x80, 0x96, 0x8e, 0xa6, 0x9d,
  0x70, 0xb0, 0x78, 0x54, 0xae, 0x9d, 0x92, 0x89, 0x68, 0x9b, 0x4f, 0x75,
  0x9e, 0x6d, 0x8b, 0x9a, 0x8a, 0x87, 0x5b, 0x8b, 0x79, 0x4f, 0x6e, 0xa3,
  0xaa, 0xa8, 0x6f, 0x8d, 0x8a, 0x70, 0xa9, 0xa1, 0x68, 0x7f, 0x8c, 0x82,
  0x97, 0xa9, 0x9d, 0x69, 0x91, 0x6a, 0x82, 0x98, 0xaa, 0xb2, 0x9c, 0x6a,
  0x80, 0x82, 0x7d, 0x6f, 0xba, 0x87, 0xb6, 0x6a, 0x74, 0x90, 0x73, 0x81,
  0xb4, 0x70, 0xc0, 0x7e, 0x85, 0xa2, 0x74, 0x8b, 0xa3, 0x96, 0xab, 0x6f,
  0x9f, 0x6e, 0x77, 0x7b, 0x9d, 0x68, 0x7f, 0x73, 0x8c, 0x9c, 0x71, 0x68,
  0x6f, 0x6d, 0x6e, 0x72, 0x54, 0xa3, 0x89, 0x8a, 0x86, 0x7f, 0x99, 0x74,
  0x97, 0x74, 0x69, 0x7f, 0xad, 0x68, 0x98, 0x60, 0x78, 0x8f, 0x61, 0x60,
  0x99, 0x8c, 0x92, 0x82, 0x63, 0x68, 0x8a, 0x96, 0xa0, 0x8a, 0x7d, 0x78,
  0xa7, 0x71, 0xa8, 0x73, 0x8a, 0x8e, 0x64, 0x88, 0x82, 0x67, 0x89, 0x6d,
  0x76, 0x6f, 0x80, 0x68, 0x89, 0x80, 0x4d, 0x78, 0x6f, 0x88, 0x81, 0x66,
  0x6a, 0x71, 0x68, 0x76, 0xa7, 0x80, 0x7f, 0x75, 0x53, 0xc6, 0x7d, 0x91,
  0x99, 0x84, 0xb9, 0x7e, 0x72, 0xd8, 0x7a, 0xa2, 0xba, 0x9a, 0xa5, 0x7d,
  0x91, 0xaa, 0x67, 0x79, 0x9d, 0x70, 0x73, 0xb4, 0x82, 0x8e, 0x62, 0xa8,
  0x82, 0x5e, 0x8e, 0xb2, 0x66, 0x95, 0x75, 0x66, 0x97, 0x6b, 0x84, 0x96,
  0x79, 0x69, 0x8d, 0x66, 0xad, 0xa4, 0x9b, 0x64, 0x75, 0x5f, 0x7a, 0x9a,
  0xa5, 0x9c, 0xa0, 0x74, 0x6c, 0x71, 0x72, 0x71, 0xa7, 0x91, 0xa9, 0x69,
  0x91, 0x9e, 0x7a, 0x74, 0xad, 0x7d, 0xb8, 0x62, 0x62, 0xa6, 0x73, 0x98,
  0xab, 0x81, 0xa5, 0x6d, 0x7d, 0x72, 0x7e, 0x76, 0x8d, 0x5f, 0x66, 0x76,
  0x61, 0x85, 0x6b, 0x7c, 0x7b, 0x70, 0x8f, 0x78, 0x86, 0x90, 0x71, 0x6e,
  0x92, 0x72, 0x8d, 0x6f, 0x92, 0x6f, 0x84, 0x77, 0x92, 0x8d, 0x81, 0x6c,
  0x66, 0x87, 0x7e, 0x7b, 0x9c, 0x5c, 0x8d, 0x67, 0x6a, 0x7a, 0x7d, 0x9c,
  0x9d, 0x9a, 0x81, 0x77, 0xa0, 0x78, 0x78, 0x5c, 0x89, 0x8a, 0x72, 0x7a,
  0x8a, 0x57, 0x87, 0x6e, 0x77, 0x98, 0xa3, 0x71, 0x56, 0x7c, 0x70, 0x64,
  0x7a, 0x82, 0x82, 0x66, 0x8a, 0x69, 0x74, 0x91, 0xa6, 0x7d, 0x90, 0x66,
  0x7a, 0xb6, 0x9c, 0x93, 0xa4, 0x85, 0xaf, 0x84, 0x93, 0xc5, 0x70, 0x85,
  0xb0, 0x92, 0xaa, 0xa2, 0x7e, 0xb0, 0x61, 0x61, 0x96, 0x7f, 0x85, 0x8a,
  0x94, 0x8a, 0x68, 0x80, 0x81, 0x4c, 0x6a, 0xae, 0x6d, 0x95, 0x72, 0x6a,
  0x97, 0x64, 0xae, 0xa9, 0x85, 0x89, 0x86, 0x67, 0xa2, 0xad, 0x9f, 0x74,
  0x77, 0x5b, 0x7b, 0x81, 0xa9, 0xa1, 0x89, 0x76, 0x71, 0x79, 0x7b, 0x94,
  0xab, 0x9c, 0xa3, 0x6b, 0x71, 0x86, 0x70, 0x6d, 0xb8, 0x95, 0xa4, 0x76,
  0x6f, 0x9d, 0x87, 0x61, 0x97, 0x87, 0xa9, 0x67, 0x88, 0x7b, 0x7d, 0x8c,
  0x80, 0x67, 0x83, 0x76, 0x83, 0x93, 0x80, 0x78, 0x75, 0x6c, 0x74, 0x89,
  0x59, 0x84, 0x78, 0xa1, 0x9a, 0x85, 0x9a, 0x7c, 0x8b, 0x7c, 0x77, 0x74,
  0xa0, 0x77, 0x95, 0x72, 0x9a, 0x82, 0x80, 0x7d, 0x9f, 0x6b, 0x86, 0x60,
  0x9d, 0x61, 0x9d, 0x7d, 0x91, 0x84, 0x73, 0x77, 0xaf, 0x7b, 0x76, 0x90,
  0x7a, 0x83, 0x5f, 0x6d, 0x9c, 0xaf, 0x92, 0x9b, 0x69, 0x91, 0x86, 0x8b,
  0x95, 0x82, 0x69, 0x6f, 0x97, 0x89, 0x88, 0x6b, 0x8d, 0x6e, 0x74, 0x63,
  0x82, 0x7f, 0x77, 0x6d, 0x77, 0xc0, 0x98, 0x6d, 0x92, 0x80, 0xb0, 0x8f,
  0x98, 0xdd, 0x7c, 0xa1, 0xb3, 0x94, 0x90, 0x97, 0x9f, 0x9e, 0x68, 0x5a,
  0xa5, 0x79, 0x91, 0x9b, 0x81, 0x7c, 0x51, 0x7d, 0x82, 0x5a, 0x66, 0xb5,
  0x93, 0x9a, 0x6c, 0x73, 0x92, 0x7f, 0x81, 0x94, 0x67, 0x73, 0x77, 0x62,
  0x9e, 0x90, 0xb5, 0x70, 0x98, 0x61, 0x7e, 0x7b, 0x94, 0xa4, 0x8b, 0x60,
  0x77, 0x6e, 0x76, 0x62, 0xa9, 0x86, 0xaf, 0x71, 0x8e, 0x95, 0x79, 0x55,
  0xc6, 0x7f, 0xb8, 0x50, 0xa8, 0xa1, 0x74, 0x9c, 0x93, 0x89, 0xb6, 0x6a,
  0x7d, 0x7b, 0x73, 0x8b, 0x93, 0x58, 0x8c, 0x7c, 0x9a, 0x88, 0x63, 0x81,
  0x83, 0x74, 0x84, 0x8c, 0x6b, 0x8e, 0x66, 0x7e, 0x8c, 0x6c, 0x7e, 0x6a,
  0x9c, 0x77, 0x82, 0x51, 0x94, 0x7e, 0x93, 0x61, 0x85, 0x97, 0x6c, 0x70,
  0x90, 0x73, 0x98, 0x6a, 0x77, 0x68, 0x80, 0xa5, 0x8d, 0x93, 0x8e, 0x70,
  0x88, 0x7e, 0x71, 0x86, 0x8d, 0x8b, 0x79, 0x74, 0x78, 0x73, 0xb1, 0x6e,
  0x83, 0x72, 0x79, 0x6f, 0x93, 0x81, 0x68, 0x7a, 0x81, 0x92, 0x76, 0x6a,
  0x7d, 0x67, 0x83, 0x4e, 0x88, 0x6b, 0x82, 0x83, 0xa8, 0xd3, 0x87, 0x9d,
  0x8f, 0x87, 0xbf, 0x93, 0x7d, 0xec, 0x6f, 0x8d, 0xc3, 0x7e, 0x9d, 0x7c,
  0x82, 0xb1, 0x65, 0xa1, 0xb2, 0x78, 0x9e, 0x8f, 0x82, 0x8f, 0x5b, 0x89,
  0x6f, 0x5b, 0x70, 0xb9, 0x76, 0xac, 0x6a, 0x9a, 0x9a, 0x85, 0x95, 0x96,
  0x50, 0x6c, 0x8a, 0x5d, 0xa8, 0xa6, 0xa4, 0x80, 0x77, 0x65, 0x80, 0x93,
  0xa1, 0x9e, 0x90, 0x61, 0x86, 0x83, 0x7c, 0x63, 0x9b, 0x7d, 0xbf, 0x5e,
  0x74, 0x9c, 0x80, 0x6b, 0xbe, 0x77, 0xb2, 0x7a, 0x9e, 0x8d, 0x6f, 0x87,
  0xa7, 0x8f, 0x93, 0x65, 0xa2, 0x8f, 0x60, 0x89, 0x80, 0x66, 0x93, 0x78,
  0x81, 0x92, 0x67, 0x86, 0x79, 0x78, 0x82, 0x76, 0xa4, 0x94, 0x8d, 0x7d,
  0x9e, 0x82, 0x9f, 0x88, 0x65, 0x82, 0x73, 0x76, 0x8b, 0xa0, 0x93, 0x65,
  0x68, 0x8c, 0x7a, 0x9a, 0x82, 0x65, 0x8e, 0x5f, 0x84, 0x7e, 0x81, 0x90,
  0x95, 0xa3, 0x70, 0x6a, 0x88, 0x71, 0x83, 0xa3, 0x7e, 0x89, 0x86, 0x63,
  0x9c, 0x9b, 0x66, 0x4f, 0x7e, 0x82, 0x83, 0x88, 0x79, 0x7d, 0x6c, 0x6e,
  0x8b, 0x9a, 0x86, 0x50, 0xa6, 0x72, 0x6d, 0x60, 0x95, 0x71, 0x88, 0x6f,
  0x71, 0xbd, 0x9b, 0x8e, 0x88, 0x93, 0xa5, 0x7e, 0x84, 0xf7, 0x6f, 0x9e,
  0xb8, 0x84, 0xa4, 0x9b, 0x71, 0xb3, 0x6c, 0x98, 0xa5, 0x70, 0x8f, 0x83,
  0x8f, 0x91, 0x50, 0x76, 0x76, 0x71, 0x67, 0xb6, 0x8e, 0x95, 0x67, 0x70,
  0x97, 0x82, 0x8f, 0x9f, 0x77, 0x7f, 0x89, 0x9c, 0x99, 0xad, 0x91, 0x7f,
  0x6a, 0x71, 0x73, 0x75, 0x90, 0xa1, 0x91, 0x66, 0x78, 0x77, 0x6e, 0x62,
  0x9e, 0x94, 0xab, 0x6a, 0x5f, 0xa4, 0x79, 0x68, 0xb5, 0x7b, 0xbf, 0x4c,
  0x74, 0x9f, 0x77, 0x8f, 0xa0, 0x67, 0xad, 0x7a, 0x69, 0x9a, 0x70, 0x8c,
  0x7e, 0x63, 0x8f, 0x86, 0x7c, 0x86, 0x6b, 0x89, 0x77, 0x6d, 0x82, 0x8f,
  0x90, 0x7c, 0x7c, 0x7c, 0x84, 0x7b, 0x98, 0x85, 0x4e, 0x84, 0x76, 0x5c,
  0x95, 0x8c, 0x97, 0x5a, 0x86, 0x76, 0x76, 0x75, 0x9f, 0x73, 0xa5, 0x7a,
  0x6e, 0x7d, 0x70, 0x68, 0x8d, 0x78, 0x82, 0x61, 0xad, 0x8f, 0x69, 0x79,
  0x7a, 0x85, 0x70, 0x62, 0x7d, 0x8e, 0x6c, 0x82, 0x80, 0x77, 0x90, 0x54,
  0x8b, 0x77, 0x51, 0x84, 0xa1, 0x9a, 0x81, 0x4c, 0x9b, 0x6b, 0x72, 0x7d,
  0x98, 0x67, 0x91, 0x5c, 0x76, 0xc8, 0xa3, 0x79, 0x93, 0x7a, 0xba, 0x93,
  0x8c, 0xf1, 0x73, 0x88, 0xbb, 0x83, 0x92, 0x8b, 0x98, 0xb4, 0x67, 0x9f,
  0xb5, 0x6e, 0xa4, 0x7f, 0x93, 0x89, 0x5e, 0x53, 0x83, 0x60, 0x6d, 0x84,
  0x6f, 0xa2, 0x77, 0x69, 0x7d, 0x72, 0x9b, 0xba, 0x9b, 0x87, 0x8a, 0x98,
  0x96, 0x8d, 0x9e, 0x83, 0x72, 0x7e, 0x76, 0x9a, 0xa4, 0x88, 0x8d, 0x4e,
  0x58, 0x86, 0x86, 0x91, 0xaa, 0x8e, 0xa2, 0x54, 0x64, 0x95, 0x78, 0x6e,
  0xb4, 0x81, 0xc6, 0x78, 0x6e, 0x9a, 0x74, 0x8e, 0x9e, 0x6e, 0x92, 0x59,
  0x71, 0x8d, 0x72, 0x7e, 0x7e, 0x81, 0x85, 0x8c, 0x64, 0x8c, 0x66, 0x5a,
  0x75, 0x87, 0x7d, 0x6e, 0x72, 0x8d, 0x7b, 0x7a, 0x85, 0x7c, 0x90, 0x75,
  0x7f, 0x8f, 0x7a, 0x9c, 0x82, 0x84, 0x89, 0x67, 0x8a, 0x80, 0x6b, 0x6c,
  0x76, 0x89, 0x99, 0x6e, 0x9a, 0x84, 0x61, 0x63, 0x80, 0x81, 0x80, 0x64,
  0x9e, 0x81, 0x5d, 0x9b, 0x81, 0x81, 0x90, 0x67, 0x8b, 0x86, 0x8b, 0x88,
  0x80, 0x7e, 0x71, 0x5e, 0x5b, 0x80, 0x64, 0x59, 0x84, 0x91, 0x8f, 0x51,
  0x78, 0x6f, 0x6e, 0x8e, 0x9c, 0x62, 0x81, 0x6a, 0x63, 0xdd, 0x93, 0x6c,
  0x8a, 0x7b, 0xa3, 0x6f, 0x56, 0xf0, 0x77, 0x6e, 0xb2, 0x85, 0x96, 0x80,
  0x7c, 0xab, 0x69, 0x9f, 0xbc, 0x80, 0x98, 0x8d, 0x87, 0x8e, 0x5d, 0x6a,
  0x76, 0x5a, 0x85, 0xac, 0x8d, 0xad, 0x80, 0x94, 0x80, 0x7e, 0x90, 0xa0,
  0x55, 0x8c, 0x96, 0x59, 0x90, 0x96, 0xa3, 0x72, 0x7c, 0x78, 0x77, 0xa7,
  0xa5, 0x9c, 0xa7, 0x58, 0x77, 0x79, 0x99, 0x7a, 0xa3, 0x8d, 0xc1, 0x6f,
  0xa2, 0xaa, 0x75, 0x9f, 0xb5, 0x8d, 0xaf, 0x6b, 0x57, 0xa4, 0x67, 0x82,
  0x99, 0x7a, 0x90, 0x71, 0x83, 0x91, 0x67, 0x75, 0x88, 0x60, 0x87, 0x75,
  0x91, 0x89, 0x66, 0x8e, 0x78, 0x6b, 0x88, 0x80, 0x7a, 0x86, 0x72, 0x79,
  0x7d, 0x7f, 0x93, 0x72, 0x5b, 0x89, 0x83, 0x7c, 0x8c, 0x83, 0x86, 0x71,
  0xa9, 0x97, 0x7b, 0x8e, 0x81, 0x95, 0x85, 0x63, 0x7a, 0x77, 0x6f, 0x98,
  0x9b, 0x7c, 0x82, 0x7a, 0x51, 0x63, 0x6d, 0x91, 0x70, 0x94, 0x72, 0x78,
  0x87, 0xa5, 0x88, 0x9e, 0x7f, 0x7e, 0x79, 0x69, 0x77, 0x7f, 0x68, 0x91,
  0x95, 0x9a, 0x7e, 0x58, 0x7c, 0x81, 0x73, 0x8b, 0xb3, 0x6f, 0x96, 0x82,
  0x5f, 0xce, 0xac, 0x97, 0xa2, 0x89, 0xb5, 0x8f, 0x9d, 0xef, 0x80, 0x6d,
  0xb8, 0x8c, 0x8d, 0x7f, 0xaa, 0xbb, 0x83, 0x70, 0xc2, 0x79, 0x7d, 0x69,
  0x86, 0x9e, 0x6f, 0x76, 0x81, 0x55, 0x7d, 0x97, 0x6f, 0x91, 0x86, 0x82,
  0x8a, 0x7c, 0x93, 0x91, 0x64, 0x8e, 0x81, 0x75, 0x8d, 0x85, 0x99, 0x68,
  0x78, 0x77, 0x7f, 0x75, 0xaa, 0x8b, 0x8c, 0x6f, 0x6b, 0x75, 0x79, 0x53,
  0xa6, 0x8a, 0xaf, 0x73, 0x95, 0x9d, 0x7e, 0x58, 0xa8, 0x7a, 0xac, 0x65,
  0x83, 0x9b, 0x7d, 0x71, 0x95, 0x82, 0xbd, 0x6a, 0x7c, 0xa1, 0x6e, 0x7c,
  0x94, 0x74, 0x85, 0x68, 0x94, 0x99, 0x5a, 0xac, 0x69, 0x76, 0x93, 0x76,
  0x6c, 0x87, 0x70, 0x6f, 0x82, 0x7b, 0x9c, 0x79, 0x6d, 0x91, 0x6c, 0x91,
  0x8a, 0x73, 0x8e, 0x73, 0x53, 0x96, 0x8e, 0x70, 0x7b, 0x77, 0x8d, 0x5b,
  0x8f, 0x80, 0x73, 0x88, 0x85, 0x75, 0x8b, 0x63, 0x6c, 0x89, 0x76, 0x82,
  0x6f, 0x89, 0x73, 0x4c, 0x64, 0x7b, 0x76, 0x5c, 0x6f, 0x53, 0xa4, 0x76,
  0x72, 0x7c, 0x68, 0x7c, 0x8b, 0x92, 0x90, 0x4a, 0xa0, 0x7f, 0x8a, 0x6d,
  0xa4, 0x62, 0x9a, 0x59, 0x86, 0xce, 0xac, 0x89, 0x94, 0x7d, 0xad, 0x51,
  0x9d, 0xef, 0x80, 0x6f, 0x9c, 0x8c, 0x7f, 0x79, 0x95, 0xbd, 0x81, 0x6e,
  0xaa, 0x7d, 0x85, 0x8a, 0x83, 0x97, 0x76, 0x98, 0x81, 0x78, 0x88, 0x92,
  0x8f, 0x8c, 0x6d, 0x60, 0x84, 0x7e, 0x91, 0x80, 0x6c, 0x7d, 0x9c, 0x7c,
  0xa2, 0x93, 0x98, 0x8d, 0x7d, 0x70, 0x85, 0x5e, 0xa1, 0x77, 0x92, 0x66,
  0x72, 0x70, 0x6c, 0x62, 0x9f, 0x93, 0x9e, 0x5d, 0x74, 0x9d, 0x6b, 0x76,
  0xac, 0x70, 0xb2, 0x5a, 0x92, 0xa2, 0x7d, 0x79, 0xa1, 0x8a, 0xa2, 0x7a,
  0x75, 0x8c, 0x62, 0x66, 0x89, 0x76, 0x8f, 0x6b, 0x72, 0x8c, 0x7e, 0x67,
  0x7d, 0x6f, 0x8c, 0x78, 0x78, 0x7b, 0x8d, 0x7f, 0x84, 0x7a, 0x93, 0x7a,
  0x7c, 0x90, 0x76, 0x9e, 0x8d, 0x65, 0x87, 0x80, 0x81, 0x88, 0x89, 0x89,
  0x86, 0x67, 0xa7, 0x7d, 0x5b, 0x75, 0x6f, 0x68, 0x85, 0x7c, 0xa4, 0x55,
  0x98, 0x7b, 0x73, 0x83, 0x72, 0x8a, 0x62, 0x68, 0x81, 0x87, 0x5d, 0x63,
  0x7e, 0x7a, 0x84, 0x72, 0x67, 0x79, 0x5f, 0x7a, 0x96, 0x94, 0x7f, 0x6a,
  0x63, 0x71, 0x7e, 0x82, 0xa4, 0x7e, 0x90, 0x47, 0x92, 0xbb, 0x97, 0x89,
  0x83, 0x7b, 0x9c, 0x76, 0x5a, 0xd8, 0x8f, 0x95, 0xa1, 0x7e, 0x98, 0x89,
  0x79, 0xb6, 0x89, 0x79, 0xa2, 0x67, 0x84, 0x72, 0x84, 0x92, 0x6f, 0x90,
  0x9c, 0x5a, 0x82, 0x7b, 0x7a, 0x95, 0x93, 0x6a, 0x8b, 0x84, 0x97, 0x98,
  0x76, 0x7e, 0x8e, 0x94, 0x87, 0x89, 0x78, 0x64, 0x9b, 0x62, 0x81, 0x96,
  0x9c, 0x92, 0x90, 0x61, 0x7d, 0x6f, 0x8b, 0x7c, 0x9b, 0x95, 0x85, 0x6a,
  0x74, 0x9d, 0x79, 0x9c, 0xc1, 0x84, 0xa9, 0x69, 0x83, 0xa2, 0x86, 0x97,
  0x92, 0x7b, 0x7e, 0x75, 0x88, 0x8f, 0x85, 0x94, 0x83, 0x7e, 0x8f, 0x7e,
  0x7d, 0x94, 0x6d, 0x62, 0x6d, 0x77, 0x8a, 0x76, 0x95, 0x8c, 0x85, 0x89,
  0x97, 0x90, 0x92, 0x8a, 0x90, 0x84, 0x76, 0x54, 0x85, 0x85, 0x92, 0x85,
  0x6d, 0x88, 0x85, 0xa5, 0x83, 0x7e, 0x93, 0x79, 0x91, 0x79, 0x7a, 0x73,
  0x76, 0x93, 0x8d, 0x75, 0x8e, 0x69, 0x87, 0x7f, 0x6e, 0x83, 0x6c, 0x65,
  0x74, 0x81, 0x6a, 0x80, 0x8d, 0x9b, 0x4c, 0x85, 0x80, 0x83, 0x66, 0x8f,
  0x85, 0x91, 0x86, 0x3e, 0x77, 0x62, 0x7f, 0x87, 0x8d, 0x9c, 0x92, 0x57,
  0x69, 0x8d, 0x9f, 0x94, 0x71, 0xa0, 0x7c, 0x62, 0x6c, 0xdb, 0x86, 0x6a,
  0x96, 0x7c, 0xae, 0x7a, 0x84, 0xa6, 0x7d, 0x7b, 0x95, 0x61, 0x84, 0x97,
  0x96, 0x93, 0x75, 0x5b, 0x80, 0x7d, 0x79, 0x9e, 0x8f, 0x9d, 0x85, 0x78,
  0x90, 0x86, 0x7e, 0x95, 0x97, 0x8b, 0x7e, 0x7d, 0x8a, 0x84, 0x9d, 0x83,
  0x8d, 0x68, 0x72, 0x64, 0x85, 0x7f, 0x70, 0x7b, 0x76, 0x6b, 0x8d, 0x7f,
  0xa8, 0x7c, 0x80, 0x69, 0x9f, 0x82, 0x7e, 0x7c, 0x9f, 0x91, 0x8d, 0x59,
  0x7b, 0x94, 0x8b, 0x8a, 0x66, 0x82, 0x77, 0x5d, 0x68, 0x85, 0x7a, 0x82,
  0x80, 0x86, 0x7d, 0x6c, 0x68, 0x7c, 0x79, 0xa5, 0x81, 0x78, 0x87, 0x67,
  0x65, 0x84, 0x7b, 0x8b, 0x7f, 0x97, 0xa4, 0x80, 0xa9, 0x81, 0x89, 0x60,
  0x89, 0x66, 0x99, 0x73, 0x90, 0x7c, 0x7f, 0x64, 0x82, 0x7d, 0x89, 0x62,
  0x80, 0x7f, 0x79, 0x80, 0x72, 0x79, 0x8c, 0x6d, 0x69, 0x86, 0x62, 0x80,
  0x76, 0x99, 0x82, 0x5b, 0x81, 0x47, 0x9e, 0x62, 0x81, 0x50, 0x86, 0x9c,
  0x57, 0x72, 0x66, 0x6f, 0x70, 0x72, 0x83, 0x6e, 0x72, 0x69, 0x92, 0x5c,
  0x79, 0x98, 0x80, 0x45, 0x5d, 0x8d, 0x9e, 0x66, 0x66, 0x9c, 0x91, 0x84,
  0xa2, 0xb4, 0xa0, 0x8d, 0x68, 0x86, 0x9c, 0x81, 0x5a, 0xb9, 0x89, 0x8b,
  0x95, 0x8a, 0x92, 0xba, 0x9b, 0x9f, 0x7d, 0x77, 0xa3, 0x73, 0x8c, 0x95,
  0x81, 0xb0, 0x8c, 0xa9, 0x9a, 0x89, 0x9a, 0x6c, 0xaa, 0x7d, 0x71, 0x8e,
  0x7c, 0x72, 0x7b, 0x93, 0x72, 0x52, 0x6e, 0x67, 0x8a, 0x74, 0x71, 0x75,
  0xa5, 0x4f, 0x79, 0x5a, 0x9e, 0x8b, 0x71, 0x81, 0xa5, 0x7e, 0x7c, 0x8e,
  0x86, 0x6b, 0x92, 0x66, 0x86, 0x74, 0x8f, 0x84, 0x6f, 0x6c, 0x8b, 0x78,
  0x9b, 0x70, 0x79, 0x79, 0x7c, 0x7c, 0x88, 0x4c, 0x92, 0x7e, 0x79, 0x81,
  0x71, 0x96, 0x7c, 0x79, 0x92, 0x8a, 0x83, 0xac, 0x9a, 0x81, 0x79, 0x63,
  0x9f, 0x7c, 0x7e, 0x7a, 0x76, 0x86, 0x87, 0x6e, 0x7c, 0x70, 0x89, 0x84,
  0x79, 0x7c, 0x8a, 0x99, 0x54, 0x6d, 0x82, 0x73, 0x78, 0x7e, 0x83, 0x80,
  0x73, 0x63, 0x84, 0x83, 0x70, 0x7f, 0x7d, 0x88, 0xa3, 0x8a, 0x86, 0x96,
  0x83, 0x6c, 0x7c, 0x6a, 0x5e, 0x5e, 0x93, 0x73, 0x69, 0x7b, 0x4f, 0x5e,
  0x80, 0x91, 0x92, 0x4e, 0x59, 0x64, 0x5b, 0x70, 0x7d, 0x80, 0x84, 0x9d,
  0x78, 0x8e, 0x82, 0x7d, 0x79, 0x8f, 0x7e, 0x7e, 0x90, 0x9f, 0x9f, 0x77,
  0x68, 0x6d, 0x7e, 0x74, 0x7f, 0x6c, 0x81, 0x81, 0x72, 0x59, 0x76, 0x7a,
  0x79, 0xa2, 0x6b, 0x86, 0xa5, 0x67, 0x77, 0x60, 0x8a, 0xae, 0x86, 0x86,
  0x58, 0x96, 0x7b, 0x70, 0x85, 0x5b, 0xa4, 0x7c, 0x80, 0x52, 0x83, 0x90,
  0x7a, 0x7c, 0x78, 0x81, 0x91, 0x6c, 0x79, 0x6b, 0x92, 0x8e, 0x73, 0x91,
  0x7c, 0x5f, 0x80, 0x7c, 0x5c, 0x80, 0x65, 0x8e, 0x74, 0x75, 0x72, 0x82,
  0x6d, 0x77, 0x6c, 0x7f, 0x66, 0x6d, 0x72, 0x8e, 0x6f, 0x97, 0x89, 0x7e,
  0x7f, 0x51, 0x6f, 0x57, 0x88, 0x78, 0x92, 0x89, 0x72, 0x5a, 0x9b, 0x7f,
  0x71, 0x83, 0x62, 0x8f, 0x89, 0x83, 0x61, 0x98, 0x92, 0x7a, 0x7c, 0x7f,
  0x6d, 0x66, 0x6f, 0x80, 0x6a, 0x89, 0x94, 0x83, 0x8a, 0x7c, 0x78, 0x8d,
  0x77, 0x7e, 0x70, 0x8a, 0x5d, 0x77, 0x80, 0x92, 0xa3, 0x82, 0x98, 0x7b,
  0xa4, 0x9c, 0x87, 0x7b, 0x81, 0x6f, 0x8e, 0x69, 0xab, 0x76, 0x96, 0x80,
  0x86, 0x79, 0x77, 0x6c, 0x91, 0x49, 0x83, 0x71, 0x61, 0x4c, 0x7e, 0x7c,
  0x91, 0x60, 0x73, 0x73, 0x65, 0x68, 0x84, 0x7d, 0x7c, 0x6c, 0x5d, 0x96,
  0x93, 0x75, 0x7a, 0x78, 0x5b, 0xa9, 0x75, 0x72, 0x9f, 0x90, 0x68, 0x79,
  0xa9, 0x6d, 0x85, 0x92, 0xaa, 0x8d, 0x85, 0x7b, 0x5e, 0x94, 0x69, 0x9e,
  0x56, 0x7f, 0xa5, 0x81, 0xa1, 0x7d, 0x4c, 0x74, 0x7f, 0x90, 0x90, 0x7d,
  0x8e, 0x8a, 0x62, 0x62, 0x95, 0x71, 0x93, 0x84, 0x91, 0x76, 0x6e, 0x6a,
  0x5e, 0x77, 0x89, 0x87, 0x6b, 0xa6, 0x88, 0x84, 0x77, 0xa6, 0x5b, 0x92,
  0x86, 0x65, 0x6d, 0x8d, 0x58, 0x98, 0x96, 0x84, 0x92, 0x90, 0x8a, 0x8e,
  0x6c, 0xac, 0x89, 0x7d, 0x7a, 0x66, 0x70, 0x50, 0x83, 0x4d, 0x92, 0x86,
  0x8c, 0x75, 0x91, 0x71, 0x7e, 0x5f, 0x7b, 0x83, 0x54, 0x66, 0x66, 0x6d,
  0x8f, 0x91, 0x79, 0x6d, 0x82, 0x7f, 0x9b, 0x7f, 0xa6, 0x75, 0x6f, 0x7b,
  0x93, 0x96, 0x71, 0x7a, 0x79, 0x8d, 0x7f, 0x73, 0x99, 0x6e, 0x98, 0x88,
  0x76, 0x80, 0x5d, 0x74, 0x74, 0x7e, 0x70, 0x8b, 0x80, 0xb0, 0x9e, 0x8b,
  0x58, 0x6e, 0x92, 0x93, 0x8d, 0x6a, 0x79, 0x5c, 0x65, 0x78, 0x78, 0x79,
  0x76, 0x85, 0x74, 0x56, 0x85, 0x67, 0x9e, 0x53, 0x71, 0x7a, 0x6a, 0x78,
  0x91, 0x9f, 0x9a, 0x6c, 0x90, 0xb6, 0x81, 0x77, 0x5a, 0x80, 0xa4, 0x92,
  0x91, 0xa6, 0x85, 0x63, 0x76, 0x7a, 0x82, 0x95, 0x80, 0x97, 0x87, 0x8b,
  0x71, 0x84, 0x89, 0x74, 0x7e, 0x8b, 0x83, 0x7f, 0x87, 0x79, 0x6d, 0xa6,
  0x76, 0x96, 0x99, 0x93, 0x87, 0x85, 0x98, 0xa0, 0x76, 0x93, 0xa1, 0x60,
  0x84, 0xa0, 0x80, 0x66, 0x85, 0x72, 0x8a, 0x74, 0x79, 0x65, 0x74, 0x8a,
  0x82, 0x98, 0xa4, 0x9b, 0x84, 0x7b, 0x78, 0x7c, 0x74, 0x7e, 0x80, 0x8d,
  0x65, 0x94, 0x72, 0x91, 0x8b, 0x66, 0x70, 0xa8, 0xad, 0x6e, 0x87, 0x69,
  0x7c, 0x70, 0x8b, 0x83, 0x7b, 0x83, 0x69, 0x7b, 0x89, 0x8a, 0x6e, 0x6e,
  0x8a, 0x8c, 0x74, 0x85, 0x6c, 0x7e, 0x8b, 0x87, 0x65, 0x5b, 0x64, 0x97,
  0x88, 0x75, 0x8c, 0x86, 0x85, 0xa6, 0x95, 0x6b, 0x96, 0x5f, 0x87, 0xaf,
  0x81, 0x76, 0x80, 0x7d, 0x67, 0x90, 0x9c, 0x85, 0x6e, 0x6a, 0x79, 0x93,
  0x7e, 0x99, 0x83, 0x66, 0x79, 0x72, 0x77, 0x98, 0x78, 0x79, 0x87, 0x5b,
  0x87, 0x7b, 0x7c, 0x78, 0xa8, 0x71, 0x85, 0x88, 0x54, 0x75, 0x8c, 0xa6,
  0x5b, 0xae, 0x7a, 0x6d, 0xa3, 0x89, 0xbf, 0x73, 0x77, 0xae, 0xa9, 0x6b,
  0x61, 0xaa, 0xb5, 0x8a, 0x81, 0xad, 0xb1, 0x5d, 0x5e, 0x86, 0x9c, 0x6f,
  0x70, 0x94, 0x7c, 0x6e, 0x96, 0x80, 0xab, 0x92, 0x86, 0x9c, 0x6f, 0x72,
  0x77, 0x82, 0x96, 0x63, 0x65, 0x79, 0x63, 0x8e, 0x59, 0x95, 0xaa, 0x61,
  0x56, 0x9f, 0x68, 0x8b, 0x88, 0x9c, 0x91, 0x74, 0x6b, 0xa5, 0x95, 0x97,
  0x65, 0x58, 0x7b, 0x87, 0x89, 0x7d, 0x7e, 0x94, 0x7f, 0x70, 0x78, 0x5e,
  0x6f, 0x7e, 0x62, 0x83, 0x68, 0x5d, 0x8e, 0x5d, 0x9b, 0x98, 0x91, 0x75,
  0x78, 0x68, 0x6f, 0x61, 0x98, 0x61, 0xa9, 0x58, 0x6a, 0x95, 0x73, 0x65,
  0x78, 0x7e, 0xa9, 0x8f, 0x7a, 0x84, 0x8b, 0x51, 0x76, 0x95, 0x80, 0x7a,
  0x8e, 0xa1, 0x6e, 0x71, 0x65, 0x75, 0x86, 0x84, 0x73, 0x4d, 0x73, 0x82,
  0x6d, 0x7c, 0x5d, 0x96, 0xa8, 0x5a, 0x80, 0x6b, 0x7d, 0x61, 0x78, 0x8e,
  0x90, 0x7f, 0x6c, 0x69, 0x81, 0x91, 0xa0, 0x6d, 0x53, 0x6d, 0x6b, 0x54,
  0x82, 0x74, 0x80, 0x50, 0x66, 0x73, 0x95, 0x85, 0x85, 0x78, 0x79, 0x78,
  0x8e, 0x76, 0xa6, 0x66, 0x75, 0xa4, 0x9d, 0x71, 0x70, 0x9b, 0xcb, 0x77,
  0x70, 0xb7, 0x97, 0x70, 0x96, 0xa4, 0xa7, 0x85, 0x77, 0xb3, 0x9c, 0x7d,
  0x8b, 0x9b, 0x82, 0x6b, 0x71, 0xb0, 0x90, 0x67, 0x65, 0x7e, 0x92, 0x9c,
  0x55, 0x8d, 0x6b, 0x75, 0x8b, 0x65, 0x8d, 0x77, 0x60, 0xa2, 0xae, 0x65,
  0x93, 0x86, 0x82, 0x7e, 0x59, 0xad, 0xa7, 0x70, 0x77, 0x97, 0x90, 0x84,
  0x66, 0xa3, 0xb2, 0x7f, 0x91, 0x5e, 0x91, 0x87, 0x80, 0x79, 0x8b, 0x62,
  0x82, 0x7a, 0x89, 0x61, 0x64, 0x7b, 0x71, 0x80, 0x8f, 0x50, 0x7b, 0x6e,
  0x7d, 0x64, 0x70, 0x9b, 0x5c, 0x48, 0x8c, 0xa0, 0x78, 0x8c, 0x63, 0x91,
  0x7c, 0x73, 0x97, 0x86, 0x70, 0x65, 0x9b, 0x80, 0x7c, 0x99, 0x6f, 0x7b,
  0x6d, 0x7e, 0x95, 0x6e, 0x91, 0x8d, 0x78, 0x67, 0x6d, 0x72, 0x82, 0x75,
  0x64, 0x7a, 0x68, 0x89, 0x75, 0x6e, 0x5e, 0x76, 0x71, 0xa5, 0x9e, 0x94,
  0x6e, 0x8a, 0x77, 0x59, 0x68, 0x69, 0x67, 0x51, 0x8f, 0x58, 0x67, 0x77,
  0x75, 0x6e, 0x7b, 0x93, 0xbe, 0x7a, 0x7f, 0x58, 0x94, 0x69, 0x7f, 0x90,
  0x89, 0x78, 0x84, 0x73, 0x9d, 0x69, 0xb8, 0xa3, 0x58, 0xb5, 0xa6, 0x74,
  0x9e, 0xa0, 0xc7, 0x70, 0x34, 0xc4, 0xd5, 0x81, 0x8f, 0x97, 0xb6, 0x63,
  0x3f, 0xc0, 0xd9, 0x81, 0x6e, 0x8e, 0x8b, 0x9b, 0x69, 0xa3, 0x88, 0x85,
  0x72, 0x9e, 0x80, 0x92, 0x4e, 0x84, 0x8e, 0x62, 0x53, 0x70, 0x93, 0x6d,
  0x50, 0x9b, 0x7c, 0x87, 0xa7, 0x77, 0x91, 0x93, 0x37, 0xab, 0x83, 0x60,
  0x8d, 0x86, 0x8e, 0x97, 0x82, 0xb5, 0x92, 0x70, 0x63, 0x9b, 0x7c, 0x6a,
  0x80, 0x99, 0x88, 0x81, 0x96, 0x6a, 0x6c, 0x7d, 0x6c, 0x64, 0x78, 0x66,
  0x77, 0x64, 0x69, 0x6c, 0x7d, 0x7b, 0x8a, 0x7e, 0x67, 0x8c, 0x70, 0x76,
  0x92, 0x7c, 0x4b, 0x5e, 0x91, 0x87, 0x8d, 0xaa, 0x63, 0x8b, 0x58, 0x75,
  0x8c, 0x6a, 0x87, 0x7f, 0x69, 0x7b, 0x99, 0x5a, 0x62, 0x93, 0x6a, 0x6e,
  0x78, 0x7b, 0x83, 0xa3, 0x6a, 0x6f, 0x84, 0x76, 0x63, 0x78, 0x98, 0x86,
  0x8f, 0x64, 0x6b, 0x72, 0x79, 0x84, 0x83, 0x74, 0x68, 0x6f, 0x6e, 0x6f,
  0x8a, 0x5e, 0x75, 0x9c, 0x7d, 0x76, 0x6f, 0x83, 0xbf, 0x86, 0x83, 0x4e,
  0x71, 0x78, 0x98, 0x7d, 0x86, 0x94, 0x8d, 0x3e, 0x7a, 0x7c, 0xc7, 0xa1,
  0x40, 0xbc, 0xb2, 0x5b, 0x6b, 0x89, 0xcb, 0x9b, 0x34, 0xd1, 0xc4, 0x54,
  0x9d, 0x96, 0xb9, 0xa1, 0x48, 0xbf, 0xc0, 0x88, 0x9f, 0x92, 0x89, 0x76,
  0x55, 0x9e, 0x80, 0x8c, 0xa9, 0x8a, 0x8c, 0x91, 0x50, 0x90, 0x88, 0x78,
  0xa8, 0x97, 0x9d, 0x85, 0x20, 0x95, 0x72, 0x99, 0x6a, 0x68, 0xad, 0x9d,
  0x42, 0xba, 0xb1, 0x66, 0x60, 0x8c, 0x89, 0x6f, 0x62, 0xa0, 0x8d, 0x79,
  0x8a, 0x82, 0x87, 0x77, 0x9e, 0x89, 0x6b, 0x95, 0x8f, 0x7b, 0x80, 0x60,
  0x6f, 0x87, 0x5f, 0x9c, 0x97, 0x86, 0x5f, 0x7f, 0x65, 0x7e, 0x7a, 0x70,
  0x78, 0x89, 0x68, 0x90, 0x76, 0x90, 0x7c, 0x87, 0x6e, 0x83, 0x7c, 0x93,
  0x79, 0x71, 0x7a, 0x8c, 0x95, 0x73, 0x77, 0x7b, 0x55, 0x9b, 0xa0, 0x74,
  0x63, 0x94, 0x68, 0x59, 0x66, 0xaf, 0xa2, 0x90, 0x64, 0x78, 0x61, 0x5b,
  0x67, 0x6f, 0x81, 0x5f, 0x75, 0x70, 0x84, 0x61, 0x73, 0x83, 0x6b, 0x76,
  0x78, 0x84, 0x66, 0x6e, 0x78, 0x6f, 0x8a, 0x6f, 0x79, 0x73, 0x81, 0x9d,
  0x85, 0x87, 0x80, 0x3d, 0xa8, 0x87, 0x9c, 0x92, 0x8d, 0x96, 0x87, 0x60,
  0x7d, 0x73, 0xb2, 0x6f, 0x5a, 0xc2, 0x9d, 0x5d, 0x74, 0xb5, 0xc8, 0x6b,
  0x33, 0xce, 0xd9, 0x6d, 0x52, 0x9c, 0xad, 0x79, 0x56, 0xaf, 0xd5, 0x54,
  0x7c, 0x80, 0x96, 0x8c, 0x41, 0x95, 0x75, 0x87, 0x5f, 0x88, 0x8c, 0xa3,
  0x45, 0x8a, 0x81, 0x7e, 0x7a, 0x77, 0x8e, 0x69, 0x23, 0x97, 0x7f, 0x74,
  0x70, 0x85, 0xa5, 0x8d, 0x44, 0xb0, 0x95, 0x7e, 0x64, 0x7f, 0x8c, 0xa0,
  0x67, 0x9e, 0xa4, 0x87, 0xaf, 0x8d, 0x72, 0x91, 0x80, 0x90, 0x79, 0x8f,
  0x99, 0x8a, 0x75, 0x98, 0x7c, 0x6f, 0x5a, 0x81, 0xb1, 0x60, 0x94, 0x5f,
  0x6c, 0x83, 0x7b, 0x86, 0x77, 0x90, 0x86, 0x72, 0x69, 0x80, 0x50, 0x6d,
  0x54, 0x89, 0x80, 0x78, 0x6c, 0x88, 0x5c, 0x84, 0x9b, 0x77, 0x68, 0x93,
  0x67, 0x9f, 0xb9, 0x79, 0x87, 0x8a, 0x86, 0x83, 0x54, 0xaa, 0xa7, 0x6d,
  0x87, 0x5a, 0x64, 0x84, 0x6a, 0x73, 0x85, 0x8c, 0x64, 0x74, 0x77, 0x8e,
  0x6e, 0x60, 0x81, 0x92, 0x98, 0x72, 0x90, 0x9e, 0x7b, 0x87, 0x75, 0x6c,
  0x68, 0x75, 0x81, 0x9e, 0xa1, 0x80, 0x82, 0x51, 0x93, 0x90, 0xb7, 0x70,
  0x72, 0x97, 0x9a, 0x60, 0x92, 0x59, 0xbd, 0x7e, 0x40, 0xcb, 0xa5, 0x62,
  0x7d, 0xa7, 0xb2, 0x9b, 0x29, 0xd8, 0xc4, 0x6e, 0x93, 0x80, 0xb4, 0x92,
  0x42, 0xbd, 0xc1, 0x6d, 0x66, 0xab, 0x93, 0x7b, 0x62, 0xa8, 0x7f, 0x75,
  0x96, 0x9c, 0x9b, 0x8c, 0x3b, 0x9c, 0x58, 0x7d, 0x7e, 0x63, 0xac, 0x82,
  0x1b, 0x98, 0x79, 0x70, 0x61, 0x6b, 0x8e, 0x57, 0x2a, 0xb0, 0x94, 0x8b,
  0x86, 0x71, 0x92, 0x83, 0x54, 0xb6, 0x85, 0x86, 0x5b, 0x97, 0x83, 0x7d,
  0x7c, 0x8b, 0x6b, 0x84, 0x7d, 0x7f, 0x6e, 0x9c, 0x76, 0x90, 0x6a, 0x69,
  0x6a, 0x88, 0x88, 0x7a, 0x6b, 0x7b, 0x89, 0x97, 0x74, 0x9a, 0x65, 0x7a,
  0x6e, 0x87, 0x70, 0x71, 0x7a, 0x84, 0x8b, 0x67, 0x5e, 0x8c, 0x84, 0x89,
  0x94, 0x8c, 0x6f, 0x7d, 0x68, 0x95, 0xa5, 0x7c, 0xad, 0x77, 0x7a, 0x61,
  0x65, 0x9f, 0x9d, 0x65, 0x5a, 0x88, 0x6a, 0xa3, 0x5c, 0x7b, 0x97, 0x83,
  0x64, 0x73, 0x9c, 0x73, 0x6b, 0x84, 0x63, 0x9a, 0x7f, 0x6a, 0x56, 0x56,
  0x84, 0x9c, 0x94, 0x98, 0x5b, 0x81, 0x7a, 0x95, 0x85, 0x86, 0x72, 0x5b,
  0x68, 0x84, 0x9b, 0x83, 0x76, 0x8a, 0x84, 0x56, 0x6b, 0x73, 0xd0, 0x82,
  0x36, 0xcd, 0xa6, 0x52, 0x85, 0xa7, 0xc6, 0x9a, 0x1e, 0xdf, 0xd0, 0x76,
  0x8b, 0x7a, 0xa9, 0xb2, 0x40, 0xbc, 0xc3, 0x70, 0x5f, 0x8b, 0x8c, 0x7c,
  0x5a, 0x8a, 0x89, 0x71, 0xb0, 0x86, 0x94, 0x7c, 0x39, 0x7b, 0x88, 0x8d,
  0x85, 0x4a, 0x8f, 0x71, 0x0e, 0xab, 0x5e, 0x7d, 0x67, 0x5a, 0x9b, 0x8d,
  0x43, 0xbd, 0x8d, 0x6a, 0x79, 0x7c, 0x9a, 0x93, 0x64, 0xa4, 0x8d, 0x77,
  0x69, 0xad, 0x8b, 0x72, 0x77, 0x99, 0x80, 0x89, 0x64, 0xa0, 0x6c, 0x6f,
  0x68, 0x7c, 0x54, 0x7e, 0x6b, 0x80, 0x84, 0x7c, 0x72, 0x7d, 0x76, 0x96,
  0x58, 0x85, 0x69, 0x85, 0x7f, 0x82, 0x61, 0x75, 0x74, 0x63, 0x82, 0x7b,
  0x69, 0x7c, 0x77, 0x76, 0x7b, 0x73, 0x7d, 0x6a, 0x5d, 0xb2, 0x98, 0x75,
  0x6c, 0x88, 0x7a, 0x60, 0x62, 0x9a, 0xa7, 0x8d, 0xaf, 0x73, 0x54, 0x61,
  0x62, 0x7c, 0xbb, 0x73, 0x87, 0x74, 0x74, 0x79, 0x67, 0x81, 0xac, 0x72,
  0x7f, 0x7a, 0x53, 0x75, 0x7f, 0x82, 0x9e, 0x8e, 0x7f, 0x75, 0x73, 0x94,
  0x89, 0x92, 0x80, 0x65, 0x7e, 0x7f, 0xaf, 0x7f, 0x7b, 0xa5, 0x93, 0x46,
  0x6f, 0x80, 0xca, 0x90, 0x26, 0xc3, 0x91, 0x52, 0x68, 0x87, 0xc8, 0x91,
  0x1c, 0xdb, 0xbe, 0x6a, 0x81, 0x8d, 0xaa, 0x61, 0x4c, 0xc7, 0xb0, 0x83,
  0x98, 0xac, 0x93, 0x79, 0x65, 0x8f, 0x8b, 0x82, 0x95, 0x8d, 0x94, 0x75,
  0x2c, 0x87, 0x5e, 0x91, 0x6b, 0x37, 0xa4, 0x81, 0x19, 0xa7, 0x74, 0x82,
  0x71, 0x55, 0x95, 0x7f, 0x2d, 0xbd, 0x7f, 0x76, 0xa0, 0x8d, 0x9e, 0x56,
  0x60, 0xc3, 0x87, 0x76, 0x79, 0x9b, 0x7b, 0xad, 0x6e, 0x94, 0x7c, 0x79,
  0x62, 0x85, 0x80, 0x7a, 0x77, 0x73, 0x60, 0x6c, 0x79, 0x80, 0x81, 0x86,
  0x6d, 0x71, 0x8b, 0x8c, 0x90, 0x92, 0x62, 0x90, 0x6c, 0x77, 0x94, 0x92,
  0x94, 0x62, 0x75, 0x82, 0x55, 0x93, 0x89, 0x86, 0x79, 0x7d, 0x7d, 0x7c,
  0x66, 0x90, 0x9e, 0x85, 0x82, 0x83, 0x77, 0x7d, 0x59, 0xb1, 0xad, 0x8c,
  0x99, 0x78, 0x5c, 0x7a, 0x49, 0x89, 0xa4, 0x83, 0x85, 0x70, 0x6d, 0x4d,
  0x6a, 0x7a, 0x9e, 0x94, 0x85, 0x97, 0x76, 0x84, 0x8e, 0x5d, 0x5f, 0x96,
  0xb0, 0x5e, 0x7f, 0x67, 0x7c, 0x8a, 0x8b, 0x5d, 0x65, 0x90, 0xb5, 0x7a,
  0x75, 0xa1, 0x99, 0x74, 0x58, 0x86, 0xc2, 0xa3, 0x44, 0xcf, 0xb5, 0x6f,
  0x99, 0xa6, 0xbe, 0x94, 0x19, 0xda, 0xd6, 0x65, 0x8e, 0x99, 0xa8, 0x85,
  0x51, 0xbf, 0x9f, 0x58, 0x81, 0xa8, 0x8b, 0x94, 0x65, 0x87, 0x91, 0x88,
  0x62, 0x76, 0x95, 0x80, 0x2e, 0x7f, 0x55, 0x90, 0x71, 0x3c, 0x99, 0x97,
  0x0e, 0xa4, 0x5c, 0x8c, 0x70, 0x46, 0xa6, 0x6a, 0x28, 0xbf, 0x8d, 0x5d,
  0x85, 0x77, 0xa2, 0x82, 0x60, 0x9d, 0xa1, 0x7e, 0x54, 0x98, 0x83, 0x9f,
  0x84, 0x89, 0x78, 0x7a, 0x56, 0x88, 0x7e, 0x66, 0x86, 0x74, 0x79, 0x74,
  0x71, 0x79, 0x84, 0x77, 0x54, 0x78, 0x8c, 0x83, 0xac, 0x88, 0x74, 0x9b,
  0x61, 0x84, 0x8a, 0x96, 0x75, 0x76, 0x6f, 0x98, 0x4f, 0x8b, 0x8f, 0x91,
  0x8b, 0x7f, 0x97, 0x92, 0x64, 0x8c, 0x90, 0x8c, 0x8b, 0x84, 0x74, 0x96,
  0x57, 0xa7, 0xa3, 0x89, 0x60, 0x93, 0x74, 0x71, 0x55, 0x9a, 0x98, 0x7a,
  0x50, 0x89, 0x88, 0x8b, 0x5f, 0x82, 0x85, 0x84, 0xa2, 0x79, 0x99, 0x71,
  0x7b, 0x54, 0xa0, 0xa7, 0x73, 0x64, 0x81, 0x81, 0x79, 0x8f, 0x86, 0x6d,
  0xa4, 0x71, 0xa7, 0x81, 0x69, 0x99, 0x89, 0x3f, 0x92, 0x78, 0xc8, 0x7b,
  0x3d, 0xd3, 0x9e, 0x63, 0x90, 0x99, 0xba, 0x9f, 0x32, 0xe7, 0xc3, 0x79,
  0x91, 0x92, 0xaf, 0x71, 0x45, 0xac, 0xa0, 0x6f, 0x99, 0xc2, 0x8b, 0x7e,
  0x69, 0x8c, 0x8c, 0x7b, 0x8e, 0x82, 0x8b, 0x7b, 0x23, 0x6b, 0x6a, 0x86,
  0x74, 0x30, 0x99, 0x97, 0x10, 0x9e, 0x5c, 0x78, 0x9a, 0x56, 0x96, 0x61,
  0x40, 0xc6, 0x93, 0x56, 0x83, 0x9b, 0x97, 0xa4, 0x5f, 0xb0, 0x9e, 0x7f,
  0x5c, 0x8e, 0x6a, 0x81, 0x6f, 0x8a, 0x5c, 0x9b, 0x74, 0x86, 0x65, 0x91,
  0x71, 0x88, 0x51, 0x8d, 0x71, 0x7f, 0x87, 0x7f, 0x73, 0x7f, 0x91, 0x74,
  0xa6, 0x89, 0x7a, 0x84, 0x55, 0x86, 0x7a, 0x8f, 0x7b, 0x79, 0x87, 0x7a,
  0x4b, 0x8e, 0x9f, 0x92, 0x82, 0x6b, 0x70, 0x65, 0x70, 0x91, 0xa7, 0x85,
  0x7a, 0x82, 0x7f, 0xa7, 0x5b, 0xb9, 0xbc, 0x8f, 0x97, 0x72, 0x56, 0x6e,
  0x63, 0x7e, 0x9f, 0x87, 0x86, 0x77, 0x89, 0x9f, 0x6b, 0x7d, 0x9c, 0xb2,
  0x71, 0x89, 0x77, 0x80, 0x76, 0x94, 0xa7, 0x7c, 0x77, 0x75, 0x68, 0x91,
  0x77, 0x81, 0x89, 0x6f, 0x75, 0x7e, 0xb0, 0xa1, 0x7d, 0x92, 0x93, 0x82,
  0x94, 0x69, 0xbc, 0x90, 0x47, 0xc4, 0xa5, 0x5d, 0x81, 0xab, 0xba, 0x98,
  0x3e, 0xda, 0xd9, 0x6d, 0x91, 0x8a, 0xb6, 0x9d, 0x52, 0xa5, 0xae, 0x65,
  0x5b, 0x9d, 0x86, 0x6d, 0x5f, 0x97, 0xa0, 0x94, 0x99, 0x6d, 0x94, 0x76,
  0x28, 0x7e, 0x4b, 0xa2, 0x75, 0x1e, 0xa2, 0x7f, 0x1b, 0xa5, 0x50, 0x80,
  0x53, 0x58, 0x98, 0x9d, 0x38, 0xb5, 0x8f, 0x62, 0x50, 0x8e, 0x95, 0x78,
  0x44, 0xab, 0x8d, 0x69, 0x9a, 0x9e, 0x72, 0x79, 0x59, 0x8a, 0x74, 0x85,
  0x84, 0x77, 0x78, 0x81, 0x79, 0x7c, 0x6d, 0x8a, 0x7c, 0x7d, 0x89, 0x65,
  0x71, 0x73, 0x97, 0x8f, 0x5c, 0x91, 0x80, 0x8d, 0x60, 0x8a, 0x8f, 0x8d,
  0x97, 0x60, 0x74, 0xa2, 0x4a, 0x97, 0x85, 0x8d, 0xa5, 0x6c, 0x8c, 0x72,
  0x5a, 0x9f, 0xa1, 0x87, 0xa1, 0x75, 0x83, 0x86, 0x67, 0x92, 0xa1, 0x7f,
  0x71, 0x7e, 0x4b, 0x75, 0x65, 0x8d, 0xa9, 0x88, 0x79, 0x74, 0x8e, 0x89,
  0x67, 0x73, 0x9a, 0x83, 0x54, 0x85, 0x76, 0x95, 0x7e, 0x71, 0x99, 0x95,
  0x83, 0x74, 0x85, 0x98, 0x95, 0x8c, 0x7d, 0x67, 0x5e, 0x72, 0xb1, 0x74,
  0x78, 0xa2, 0x99, 0x60, 0x94, 0x87, 0xd4, 0x7f, 0x4f, 0xbe, 0xa1, 0x5e,
  0x53, 0xae, 0xb7, 0x8c, 0x2f, 0xdd, 0xd8, 0x5e, 0x6d, 0x99, 0xb5, 0x6d,
  0x3c, 0xc9, 0xb5, 0x5d, 0x9d, 0xaa, 0x83, 0x81, 0x6b, 0x83, 0x86, 0x9d,
  0x7d, 0x6c, 0x87, 0x6c, 0x2b, 0x87, 0x49, 0x87, 0x7d, 0x34, 0x93, 0x64,
  0x24, 0xa6, 0x67, 0x73, 0x7a, 0x54, 0x96, 0x67, 0x2f, 0xac, 0x7b, 0x81,
  0x93, 0x89, 0x92, 0x56, 0x58, 0xb7, 0x91, 0x8a, 0x5f, 0x8b, 0x6d, 0x9e,
  0x66, 0xa3, 0x66, 0x7c, 0x84, 0x82, 0x80, 0x92, 0x68, 0x6d, 0x71, 0x8f,
  0x80, 0x79, 0x88, 0x7f, 0x63, 0x6f, 0xa7, 0x8c, 0x70, 0x8d, 0x84, 0x8f,
  0x6e, 0x8e, 0x99, 0x9c, 0x8c, 0x5c, 0x70, 0x8e, 0x60, 0x9b, 0xa4, 0x94,
  0xa0, 0x6c, 0x85, 0x83, 0x66, 0x9d, 0xbc, 0x91, 0x58, 0x78, 0x8a, 0x99,
  0x67, 0x95, 0xa2, 0x91, 0xaa, 0x65, 0x7a, 0x79, 0x57, 0x6c, 0x7b, 0x9a,
  0x5d, 0x6b, 0x76, 0x59, 0x5e, 0x80, 0xa7, 0x82, 0x7f, 0x6d, 0x7d, 0x86,
  0x6d, 0x6f, 0x8f, 0x97, 0x87, 0x75, 0x84, 0x99, 0x80, 0x85, 0x83, 0x5c,
  0x72, 0x78, 0xae, 0x7c, 0x6e, 0x88, 0x78, 0x75, 0x79, 0x78, 0xc6, 0x8d,
  0x4f, 0xb7, 0xaa, 0x5f, 0x88, 0xb6, 0xbf, 0x74, 0x2f, 0xd8, 0xda, 0x77,
  0xa4, 0x81, 0xa6, 0x9c, 0x54, 0xbf, 0xaf, 0x78, 0x7f, 0x9d, 0x85, 0xa8,
  0x65, 0x92, 0x98, 0x94, 0xa4, 0x78, 0x8f, 0x64, 0x3b, 0x92, 0x63, 0x80,
  0x64, 0x25, 0x92, 0x9c, 0x1f, 0x8f, 0x6a, 0x64, 0xab, 0x5b, 0x9c, 0xa6,
  0x1e, 0xbe, 0x7f, 0x7d, 0x7d, 0x97, 0x8f, 0xac, 0x42, 0xa7, 0x80, 0x88,
  0x53, 0xa9, 0x7c, 0x74, 0x70, 0x93, 0x77, 0x72, 0x81, 0x83, 0x70, 0x74,
  0x69, 0x69, 0x6e, 0x88, 0x63, 0x79, 0x8c, 0x5d, 0x6f, 0x65, 0x98, 0x84,
  0x70, 0x8a, 0x76, 0x99, 0x71, 0x89, 0x9d, 0x92, 0x95, 0x6d, 0x6b, 0x7d,
  0x5d, 0x86, 0x80, 0x94, 0x86, 0x62, 0x84, 0x82, 0x65, 0x95, 0x9d, 0x7e,
  0x6a, 0x78, 0x71, 0x90, 0x62, 0xa0, 0xa5, 0x8e, 0x5c, 0x60, 0x6b, 0x89,
  0x5a, 0x84, 0xa2, 0x90, 0x80, 0x82, 0x8c, 0x5a, 0x75, 0x77, 0x95, 0x98,
  0x64, 0x60, 0xb3, 0x91, 0x85, 0x7e, 0x7c, 0x9b, 0x75, 0x78, 0x82, 0x86,
  0x96, 0x7f, 0x7a, 0x89, 0xa0, 0x6e, 0xb2, 0x9a, 0x58, 0x8b, 0x89, 0x78,
  0x72, 0x90, 0xbf, 0x6e, 0x4b, 0xb1, 0x9e, 0x67, 0x89, 0xb8, 0xb8, 0x67,
  0x48, 0xc6, 0xc6, 0x49, 0x99, 0xa3, 0xa6, 0x9a, 0x51, 0xb6, 0xc2, 0x6a,
  0x6c, 0xb1, 0x83, 0x87, 0x68, 0x92, 0x7e, 0x95, 0x83, 0x84, 0x77, 0x65,
  0x41, 0x9e, 0x65, 0x87, 0x7f, 0x24, 0x9c, 0x69, 0x39, 0x9b, 0x74, 0x78,
  0x93, 0x50, 0xa1, 0x9e, 0x2f, 0xbc, 0x82, 0x5e, 0x53, 0x99, 0x8d, 0x77,
  0x3a, 0x89, 0xa2, 0x8b, 0x7e, 0xa2, 0x81, 0x98, 0x66, 0x81, 0x7a, 0x93,
  0x5e, 0x79, 0x6a, 0x60, 0x6f, 0x6f, 0x65, 0x82, 0x97, 0x8e, 0x7c, 0x9b,
  0x60, 0x6d, 0x9b, 0x79, 0x91, 0x97, 0x7a, 0x8a, 0x6f, 0x88, 0x8f, 0x88,
  0x83, 0x71, 0x7e, 0x69, 0x6d, 0x97, 0x9f, 0x92, 0x7f, 0x69, 0x84, 0x71,
  0x51, 0xb5, 0xa3, 0x81, 0x8a, 0x80, 0x77, 0x91, 0x60, 0x8c, 0xab, 0x84,
  0x7a, 0x66, 0x66, 0x92, 0x66, 0x91, 0x86, 0xa1, 0x8a, 0x82, 0x7b, 0x95,
  0x70, 0x7b, 0x82, 0x82, 0x85, 0x75, 0x93, 0x5d, 0x86, 0x91, 0x8b, 0x8d,
  0x98, 0x6d, 0x86, 0x78, 0x86, 0x87, 0x82, 0x7c, 0x79, 0x6f, 0xa8, 0x70,
  0x81, 0x91, 0x8e, 0x68, 0x99, 0x92, 0xcc, 0xa1, 0x50, 0xc4, 0x91, 0x5f,
  0x67, 0xc0, 0xb5, 0x9a, 0x3b, 0xcf, 0xd0, 0x6f, 0x55, 0xa0, 0x98, 0xa2,
  0x59, 0xc3, 0xaf, 0x7e, 0x95, 0x9e, 0x84, 0x8e, 0x68, 0x86, 0x97, 0x95,
  0x94, 0x85, 0x86, 0x5c, 0x38, 0x7c, 0x56, 0x7f, 0x77, 0x1a, 0x94, 0x95,
  0x38, 0xb4, 0x60, 0x76, 0x94, 0x51, 0xa4, 0x7d, 0x26, 0xbd, 0x8e, 0x6c,
  0x98, 0x8f, 0x79, 0x70, 0x42, 0xa3, 0x84, 0x66, 0x90, 0xa8, 0x78, 0x70,
  0x60, 0x7e, 0x78, 0x7c, 0x81, 0x8c, 0x74, 0x83, 0x6b, 0x5c, 0x7b, 0xa2,
  0x86, 0x8e, 0x92, 0x72, 0x5d, 0x73, 0x88, 0x8e, 0x93, 0x93, 0x81, 0x7c,
  0x63, 0x7d, 0xa6, 0x93, 0xab, 0x5d, 0x74, 0x9d, 0x6d, 0x84, 0x99, 0x90,
  0x84, 0x71, 0x70, 0x5b, 0x62, 0x99, 0xa6, 0x8b, 0x62, 0x6b, 0x7c, 0x7f,
  0x6f, 0x83, 0xa7, 0xa2, 0x72, 0x7d, 0x5d, 0x64, 0x64, 0x7e, 0x99, 0x94,
  0x93, 0x60, 0x79, 0x5c, 0x65, 0x7d, 0x95, 0xaa, 0x6b, 0x95, 0x90, 0x75,
  0x8e, 0x86, 0x76, 0x79, 0x61, 0x72, 0x64, 0xad, 0x67, 0x85, 0x7f, 0x54,
  0x70, 0x74, 0x9b, 0x82, 0x84, 0x86, 0x8e, 0x62, 0x6a, 0x88, 0xcc, 0xa1,
  0x58, 0xc1, 0x9e, 0x78, 0x6d, 0xba, 0xb2, 0x75, 0x44, 0xcf, 0xb4, 0x64,
  0x82, 0xa0, 0xaa, 0x81, 0x58, 0xb5, 0xb6, 0x6d, 0x80, 0xbd, 0x79, 0x8a,
  0x70, 0x8c, 0x9c, 0x9e, 0x77, 0x80, 0x7c, 0x9a, 0x3b, 0x85, 0x59, 0xa6,
  0x93, 0x3c, 0x93, 0x8a, 0x2f, 0x86, 0x50, 0x74, 0x63, 0x59, 0x9f, 0x8a,
  0x3b, 0xa8, 0x8a, 0x5f, 0x99, 0x8c, 0x8f, 0xaa, 0x5f, 0x9b, 0x92, 0x7b,
  0x7a, 0x94, 0x82, 0x86, 0x6e, 0x7e, 0x89, 0x8a, 0xa3, 0x84, 0x63, 0xac,
  0x69, 0x70, 0x64, 0x7d, 0x7f, 0x6b, 0x96, 0x64, 0x59, 0x81, 0x7a, 0xa4,
  0x92, 0x85, 0x76, 0x77, 0x6c, 0x99, 0x91, 0x92, 0x8d, 0x6d, 0x7e, 0x6e,
  0x63, 0x93, 0x81, 0x86, 0x9d, 0x79, 0x7f, 0x6a, 0x55, 0x8c, 0x8d, 0x8c,
  0x83, 0x78, 0x75, 0xa1, 0x6b, 0x80, 0xa9, 0x9c, 0x5b, 0x7d, 0x70, 0x86,
  0x64, 0x7a, 0x92, 0x8d, 0x58, 0x6d, 0x89, 0x67, 0x6c, 0x88, 0x9b, 0x8b,
  0x79, 0x6a, 0x97, 0x84, 0x8a, 0x78, 0x91, 0x9b, 0xa9, 0x77, 0x79, 0x97,
  0x49, 0x87, 0x8c, 0x7c, 0x84, 0x73, 0xa0, 0x76, 0x6a, 0x8c, 0x7b, 0x68,
  0x99, 0x97, 0xb3, 0x77, 0x5e, 0xa7, 0x8c, 0x5d, 0x8f, 0xb8, 0xba, 0xaa,
  0x62, 0xe1, 0xc2, 0x74, 0x6e, 0xb0, 0x99, 0x98, 0x7c, 0xc1, 0x9a, 0x82,
  0xa3, 0xbe, 0x76, 0x8a, 0x6c, 0x87, 0x88, 0x91, 0xaa, 0x75, 0x96, 0xac,
  0x48, 0x76, 0x51, 0x93, 0x9a, 0x2a, 0x93, 0xa8, 0x39, 0xa0, 0x5c, 0x75,
  0x8d, 0x53, 0xa2, 0x85, 0x3a, 0xa8, 0x89, 0x66, 0x5c, 0x99, 0xa6, 0x7f,
  0x4f, 0xa2, 0xac, 0x70, 0x76, 0x9e, 0x76, 0x7f, 0x70, 0x85, 0x80, 0x90,
  0x7d, 0x84, 0x67, 0x78, 0x72, 0x6d, 0x7b, 0x95, 0x6c, 0x78, 0x79, 0x79,
  0x68, 0x80, 0x94, 0x81, 0x75, 0x84, 0x8c, 0x6e, 0x78, 0x73, 0xa2, 0x7d,
  0x69, 0x68, 0x6f, 0x7c, 0x5b, 0x81, 0x95, 0x89, 0xa2, 0x73, 0x6b, 0x73,
  0x71, 0x99, 0x99, 0x87, 0x54, 0x90, 0x79, 0x8d, 0x75, 0x9f, 0x98, 0xa2,
  0x8f, 0x6a, 0x6e, 0x96, 0x78, 0x71, 0x8e, 0xac, 0x90, 0x5b, 0x82, 0x7e,
  0x64, 0x90, 0x79, 0x96, 0x7d, 0x79, 0x7b, 0x76, 0x88, 0x73, 0x7d, 0x81,
  0x89, 0x73, 0x75, 0x6a, 0x7c, 0x90, 0x7a, 0x52, 0x75, 0x7f, 0xa2, 0x91,
  0x8a, 0x80, 0x98, 0x72, 0x8a, 0x7a, 0xbb, 0x9c, 0x68, 0xba, 0x94, 0x8d,
  0x96, 0x9f, 0xbc, 0x7c, 0x62, 0xd0, 0xb1, 0x6a, 0x6a, 0xb4, 0xa8, 0x91,
  0x70, 0xb7, 0xa3, 0x6d, 0xb3, 0xbb, 0x7a, 0x95, 0x73, 0x7f, 0xa9, 0x9c,
  0x7a, 0x68, 0x7b, 0x74, 0x45, 0x76, 0x59, 0x97, 0x7e, 0x37, 0x81, 0x6a,
  0x3b, 0x87, 0x68, 0x4e, 0x70, 0x4f, 0x8f, 0x87, 0x44, 0x9b, 0x86, 0x63,
  0x96, 0xa0, 0x8c, 0x65, 0x73, 0x9e, 0x8d, 0x91, 0xb4, 0x98, 0x8c, 0x85,
  0x7c, 0x83, 0x91, 0x90, 0x81, 0x84, 0x8f, 0x69, 0x5c, 0x76, 0x89, 0x80,
  0x74, 0x89, 0x86, 0xa4, 0x6a, 0x83, 0x93, 0x85, 0x71, 0x9b, 0x6c, 0x83,
  0x5c, 0x98, 0xa6, 0x7d, 0x60, 0x5a, 0x73, 0x7e, 0x5b, 0x95, 0xa2, 0x9c,
  0x7d, 0x74, 0x7f, 0x7e, 0x77, 0x96, 0xa2, 0x9e, 0x7b, 0x8e, 0x8e, 0x67,
  0x72, 0x87, 0x9b, 0x91, 0x60, 0x87, 0x66, 0x88, 0x73, 0x80, 0xaa, 0x9b,
  0x78, 0x6a, 0x63, 0x54, 0x70, 0x87, 0x98, 0x94, 0x9a, 0x72, 0x84, 0x8a,
  0x88, 0x6a, 0x75, 0xae, 0xad, 0x7a, 0x5e, 0x85, 0x52, 0x8a, 0x7d, 0x76,
  0x7b, 0x6d, 0x95, 0x82, 0x7c, 0x97, 0x9a, 0x90, 0x90, 0x93, 0xb6, 0x95,
  0x5b, 0xad, 0x8c, 0x6e, 0x69, 0xc6, 0xa7, 0x77, 0x65, 0xcb, 0xab, 0x65,
  0x95, 0x8c, 0x91, 0x82, 0x73, 0xac, 0xa7, 0x5c, 0x88, 0xc2, 0x8f, 0x7e,
  0x77, 0x98, 0x9f, 0xae, 0x80, 0x75, 0x88, 0xa0, 0x40, 0x60, 0x60, 0x8e,
  0x74, 0x34, 0x84, 0x79, 0x3b, 0x83, 0x6b, 0x81, 0x79, 0x45, 0xa5, 0x95,
  0x5d, 0x87, 0x86, 0x70, 0x6b, 0x96, 0x76, 0x8b, 0x63, 0xa0, 0x9c, 0x82,
  0x7f, 0xa4, 0x7c, 0x75, 0x67, 0x79, 0x84, 0x7a, 0x76, 0x96, 0x78, 0x9a,
  0x6d, 0x76, 0x6d, 0x75, 0x6d, 0x6b, 0x72, 0x9b, 0x74, 0x7b, 0x8d, 0x73,
  0xae, 0x95, 0x93, 0x8c, 0x70, 0x86, 0x92, 0x92, 0x9e, 0x6e, 0x7c, 0x5e,
  0x5e, 0x93, 0x97, 0x8a, 0xac, 0x80, 0x7c, 0x96, 0x5e, 0x9d, 0x95, 0x9d,
  0x58, 0x78, 0x72, 0x58, 0x6f, 0x89, 0xa3, 0x9a, 0x9d, 0x66, 0x64, 0x7d,
  0x7a, 0x7e, 0xa9, 0x94, 0xad, 0x62, 0x7e, 0x96, 0x73, 0x7e, 0x8b, 0xa8,
  0x54, 0x6e, 0xa7, 0x65, 0x80, 0x83, 0x7d, 0x77, 0x6b, 0x76, 0x75, 0x69,
  0x7d, 0x86, 0x7a, 0x7a, 0xae, 0x81, 0x94, 0x90, 0x6f, 0xa0, 0x90, 0x6e,
  0x8c, 0x6b, 0xb1, 0x80, 0x66, 0xb3, 0x8b, 0x6f, 0x70, 0x8d, 0xb6, 0x82,
  0x82, 0xbc, 0xb2, 0x7d, 0x90, 0x94, 0xa0, 0x83, 0x72, 0x9a, 0x82, 0x5b,
  0xa2, 0xd4, 0x8f, 0xaa, 0x83, 0x9d, 0x8f, 0x86, 0x60, 0x7f, 0x65, 0x74,
  0x63, 0x6a, 0x78, 0x7a, 0xa5, 0x30, 0x8e, 0x7c, 0x3f, 0x6a, 0x61, 0x86,
  0x5d, 0x30, 0x8d, 0x98, 0x53, 0xb3, 0x92, 0x69, 0x6a, 0x90, 0x91, 0x56,
  0x7a, 0x95, 0x86, 0x80, 0x7c, 0x8a, 0x87, 0x79, 0x77, 0x71, 0x93, 0x8a,
  0x86, 0x83, 0x82, 0xa6, 0x78, 0x80, 0x6b, 0x80, 0xab, 0x75, 0x80, 0x5f,
  0x63, 0x75, 0x86, 0x79, 0x6c, 0x9b, 0x8c, 0x97, 0x5f, 0x8a, 0x99, 0x7e,
  0x7f, 0x72, 0x71, 0x9f, 0x78, 0x8b, 0x8c, 0x80, 0x82, 0x6a, 0x83, 0x82,
  0x8b, 0x94, 0x94, 0x89, 0x78, 0x84, 0x79, 0x7d, 0x78, 0x8d, 0x99, 0x82,
  0x57, 0x77, 0x63, 0x93, 0x79, 0x92, 0xa8, 0x7b, 0x73, 0x5e, 0xad, 0x7e,
  0x7f, 0x70, 0x8b, 0x8b, 0xa5, 0x56, 0x5d, 0x74, 0x90, 0x60, 0x6b, 0x76,
  0x79, 0x80, 0x6d, 0x94, 0x8f, 0x78, 0x79, 0x5d, 0x85, 0x72, 0x83, 0xa1,
  0x6c, 0x9c, 0x8c, 0x58, 0xa8, 0x71, 0x97, 0x6b, 0x5c, 0xb6, 0x75, 0x81,
  0x64, 0x8b, 0x83, 0x92, 0x8f, 0xb7, 0xa7, 0x71, 0xa0, 0x88, 0x93, 0xa0,
  0x9a, 0x97, 0x87, 0x8d, 0x90, 0xb0, 0x6f, 0x89, 0x81, 0x95, 0x98, 0xa9,
  0xa3, 0x88, 0x67, 0x82, 0x7e, 0x60, 0x7b, 0x87, 0x8c, 0x2f, 0x5e, 0x79,
  0x65, 0x75, 0x73, 0x7e, 0x9c, 0x3f, 0x83, 0x5f, 0x5e, 0x8b, 0x7f, 0x68,
  0x60, 0x7f, 0x88, 0x74, 0x84, 0x95, 0x91, 0x80, 0x83, 0x84, 0x73, 0x8f,
  0x7b, 0x7e, 0x7c, 0x77, 0x75, 0x6e, 0x7d, 0x8b, 0x77, 0x8f, 0x5e, 0x7f,
  0x84, 0x77, 0x83, 0xa4, 0x6c, 0x82, 0x89, 0x88, 0x64, 0x82, 0x81, 0x74,
  0x71, 0x9f, 0x96, 0x9c, 0x6f, 0x70, 0x79, 0xae, 0x7c, 0x9e, 0x95, 0x8f,
  0x9a, 0x7c, 0x96, 0x65, 0x82, 0x85, 0xac, 0x80, 0x8c, 0x8c, 0x82, 0x75,
  0x82, 0x9f, 0x94, 0x8c, 0x60, 0x83, 0x7d, 0x8a, 0x79, 0xa4, 0x85, 0x99,
  0x7d, 0x7d, 0x8b, 0x67, 0x94, 0x7c, 0xa4, 0x83, 0x78, 0x9a, 0x8f, 0x6b,
  0x8a, 0x92, 0x83, 0x8e, 0x62, 0x6c, 0x65, 0x92, 0x5b, 0x5f, 0x72, 0x91,
  0x7a, 0x90, 0x7f, 0x94, 0x48, 0x7c, 0x6b, 0x88, 0xad, 0x60, 0x7d, 0x8e,
  0x56, 0x8d, 0x87, 0x9b, 0x76, 0x86, 0x87, 0x8a, 0x54, 0x89, 0x97, 0x8c,
  0x7d, 0x89, 0x8b, 0x69, 0x8e, 0x95, 0xa5, 0x75, 0x66, 0xad, 0x9a, 0xa2,
  0x7a, 0x6b, 0xa0, 0x8d, 0x79, 0x8d, 0x58, 0x75, 0x7f, 0x78, 0x59, 0x96,
  0x5b, 0x29, 0x62, 0x73, 0x66, 0x85, 0x58, 0x8e, 0x63, 0x21, 0x8f, 0x91,
  0x68, 0x8a, 0x6c, 0x91, 0xa1, 0x75, 0x89, 0x93, 0x6f, 0x82, 0x79, 0x7d,
  0x64, 0x91, 0x77, 0x95, 0x6d, 0x88, 0x6a, 0x93, 0x92, 0x6d, 0x83, 0x7a,
  0x71, 0x90, 0x79, 0x96, 0x6e, 0x65, 0x7f, 0x5f, 0x75, 0x7f, 0x78, 0x6f,
  0x77, 0x92, 0x8d, 0x71, 0x6d, 0x8d, 0x7e, 0x91, 0x58, 0x75, 0x8c, 0x8c,
  0x77, 0x98, 0x9a, 0xb7, 0x76, 0x75, 0x93, 0x8d, 0x95, 0xa1, 0x97, 0x92,
  0x7d, 0x85, 0x9b, 0x7b, 0x78, 0x9f, 0x85, 0x83, 0x7a, 0x7e, 0x98, 0x87,
  0x8a, 0x89, 0x92, 0xb1, 0x76, 0x62, 0x8e, 0x70, 0x8b, 0x92, 0x7f, 0x8e,
  0x74, 0x6e, 0x85, 0x57, 0x97, 0xa7, 0x52, 0x80, 0x86, 0x64, 0x70, 0x9d,
  0x96, 0x71, 0x93, 0x73, 0x9c, 0x77, 0x7a, 0x70, 0x72, 0x78, 0x85, 0x69,
  0x71, 0x63, 0x68, 0x6a, 0x82, 0x63, 0x57, 0x7a, 0x81, 0x81, 0x73, 0x8e,
  0x88, 0x81, 0x66, 0x71, 0x9f, 0x7c, 0x8b, 0x9e, 0x7f, 0x9d, 0xab, 0x83,
  0xae, 0x6f, 0x75, 0x91, 0x7b, 0x8e, 0xa3, 0x8b, 0x6f, 0x56, 0x8e, 0x7d,
  0x90, 0x82, 0x95, 0x86, 0x91, 0x65, 0x8b, 0xa6, 0x84, 0x60, 0x50, 0x7f,
  0x5d, 0x68, 0x5a, 0x4e, 0x6b, 0x9d, 0x74, 0x68, 0x9f, 0x82, 0x89, 0x6a,
  0x91, 0x87, 0x8a, 0x82, 0x50, 0x91, 0x6b, 0x76, 0x79, 0x90, 0xae, 0x74,
  0x81, 0x48, 0x8f, 0x5e, 0x71, 0x69, 0x68, 0x82, 0x69, 0x49, 0x61, 0x81,
  0x72, 0x97, 0x88, 0x8f, 0x94, 0x8f, 0x7d, 0x77, 0x5d, 0xad, 0x4f, 0x6a,
  0x6b, 0x83, 0x55, 0x63, 0x5a, 0x83, 0x93, 0x93, 0x92, 0x8f, 0x96, 0x93,
  0x71, 0x72, 0x79, 0x5a, 0x9b, 0x74, 0x66, 0xa6, 0x78, 0x88, 0x88, 0x76,
  0x89, 0x73, 0x87, 0x72, 0x96, 0x8d, 0x84, 0x88, 0x8d, 0x68, 0x92, 0x9d,
  0x78, 0x6e, 0xa1, 0x6e, 0x96, 0x95, 0x62, 0x93, 0x86, 0x87, 0x98, 0x62,
  0x89, 0x6b, 0x51, 0x82, 0x50, 0x78, 0x7b, 0x74, 0x9d, 0x76, 0xa5, 0x8a,
  0x69, 0x9e, 0x7d, 0x89, 0x64, 0x8b, 0x77, 0x71, 0x99, 0x8f, 0x74, 0x81,
  0x88, 0x7c, 0x73, 0x88, 0x93, 0x80, 0x9f, 0x7f, 0x66, 0x69, 0x88, 0xae,
  0x89, 0x80, 0x78, 0x6d, 0x7f, 0xa0, 0x54, 0x74, 0x83, 0x91, 0x87, 0x7a,
  0x8c, 0x71, 0x58, 0x8f, 0x70, 0x76, 0x56, 0x76, 0x7d, 0x6e, 0x84, 0x95,
  0x85, 0x65, 0xad, 0x7f, 0x66, 0x74, 0x80, 0x50, 0x7d, 0x9b, 0x8a, 0x76,
  0x67, 0x7b, 0x61, 0x5c, 0x73, 0x71, 0x89, 0x77, 0x57, 0x79, 0x98, 0x90,
  0x69, 0x88, 0x7d, 0x84, 0x6a, 0x9e, 0x8f, 0x8d, 0xad, 0xa1, 0x6f, 0x8b,
  0x91, 0x5b, 0xaa, 0x9a, 0x77, 0x8f, 0x80, 0x8a, 0x5e, 0x8f, 0x8e, 0x75,
  0x7a, 0x86, 0x79, 0x7d, 0x75, 0x6e, 0x70, 0x93, 0x81, 0x87, 0x5f, 0x74,
  0x93, 0x6f, 0x78, 0x7f, 0x51, 0x9b, 0x9d, 0x72, 0xa1, 0x8b, 0x78, 0x8c,
  0x6d, 0x88, 0x63, 0x84, 0x93, 0x7b, 0x81, 0x76, 0x66, 0x5e, 0x7d, 0x86,
  0x89, 0x6a, 0x93, 0x8a, 0x65, 0x8d, 0x5c, 0x74, 0x93, 0x55, 0x8d, 0x98,
  0x83, 0x84, 0x4f, 0x5e, 0x5c, 0x67, 0x83, 0x5e, 0x61, 0x6b, 0x78, 0x86,
  0x7f, 0xa3, 0x86, 0x90, 0x75, 0x8d, 0x7a, 0x8a, 0x5e, 0x85, 0x5f, 0x83,
  0x6b, 0x65, 0x6d, 0x67, 0x9a, 0x95, 0x69, 0x5c, 0xaa, 0x63, 0x8c, 0x56,
  0x66, 0x85, 0x74, 0x9d, 0xa5, 0x7a, 0x5f, 0x8d, 0x5a, 0x62, 0x7f, 0x7b,
  0x87, 0x71, 0x86, 0x69, 0x9c, 0xa2, 0x85, 0xa6, 0x6c, 0x72, 0x8d, 0x63,
  0x60, 0x88, 0x8e, 0x7b, 0x4e, 0x93, 0x51, 0x7f, 0x80, 0x91, 0xb1, 0xa1,
  0x52, 0x94, 0x95, 0x5d, 0x91, 0x82, 0x91, 0x80, 0x74, 0xa6, 0x98, 0x71,
  0x8d, 0x6e, 0xb3, 0x79, 0x89, 0xb0, 0x71, 0x9c, 0x95, 0x7d, 0x96, 0x8a,
  0x6c, 0x81, 0xb0, 0x9a, 0x6c, 0x8e, 0xa5, 0x87, 0x91, 0x68, 0x91, 0x67,
  0x95, 0x9b, 0x8f, 0x6a, 0x6e, 0x73, 0x70, 0x99, 0x80, 0x58, 0x8b, 0x6a,
  0x98, 0x9b, 0x86, 0x65, 0x6e, 0x7b, 0x95, 0x6f, 0x7b, 0x84, 0xa7, 0x7c,
  0x5d, 0x80, 0x6f, 0x89, 0x9a, 0x58, 0x74, 0x67, 0xa5, 0x6a, 0x6c, 0x73,
  0x8c, 0x77, 0x58, 0x76, 0x7d, 0x89, 0x72, 0x70, 0x6b, 0x61, 0x58, 0x85,
  0x87, 0x75, 0x75, 0x7c, 0x81, 0x84, 0x5f, 0xa6, 0x58, 0x6a, 0x88, 0xa2,
  0x82, 0x69, 0x85, 0x90, 0x80, 0x77, 0x89, 0x7b, 0x83, 0x92, 0x7a, 0x74,
  0xa0, 0x52, 0x5b, 0x84, 0x76, 0x90, 0x7c, 0x86, 0x74, 0x79, 0x6d, 0x79,
  0x9b, 0x8f, 0xa2, 0x63, 0x64, 0x77, 0x59, 0x6c, 0xb9, 0x7a, 0x7a, 0x80,
  0x84, 0x7e, 0x7a, 0x8b, 0x9c, 0x8b, 0x6c, 0x92, 0x85, 0x77, 0x72, 0x66,
  0x7a, 0x53, 0x5b, 0x89, 0x52, 0x52, 0x92, 0x8e, 0x5b, 0x7b, 0x69, 0x70,
  0x4e, 0x9e, 0xa8, 0x86, 0x40, 0x9b, 0xa1, 0x65, 0x6f, 0xbd, 0xa4, 0x60,
  0x65, 0xcb, 0xa1, 0x7b, 0x8c, 0x9c, 0xc9, 0x8d, 0x6e, 0xb4, 0xb8, 0x54,
  0x85, 0x84, 0xb1, 0x69, 0x76, 0x8d, 0xa4, 0x8c, 0x81, 0x86, 0x8f, 0x8f,
  0x79, 0x8b, 0xab, 0x81, 0x92, 0x5d, 0x76, 0x7d, 0x92, 0x85, 0x66, 0x5c,
  0x99, 0x85, 0x8a, 0x88, 0x87, 0x89, 0x65, 0x70, 0x5c, 0x60, 0x7b, 0x7f,
  0x6c, 0x70, 0x77, 0x71, 0x96, 0x7a, 0x85, 0x64, 0x94, 0x82, 0x7f, 0x82,
  0x98, 0x59, 0x82, 0x67, 0x94, 0x7e, 0x7c, 0x84, 0x6d, 0x91, 0x91, 0x7e,
  0x6d, 0x7d, 0x88, 0x61, 0x85, 0x6c, 0x8f, 0x94, 0x7f, 0x78, 0x75, 0x80,
  0x85, 0x67, 0x9c, 0x87, 0x6b, 0x68, 0x7b, 0x70, 0x64, 0x75, 0x7b, 0xa1,
  0x78, 0x78, 0x86, 0x62, 0x66, 0x66, 0x85, 0x76, 0x8c, 0x76, 0x55, 0x7b,
  0x67, 0x85, 0x6d, 0x6e, 0xb0, 0x6f, 0x89, 0x9b, 0x7b, 0x5c, 0x5a, 0x97,
  0xaa, 0x70, 0x7b, 0x77, 0x84, 0x73, 0x53, 0xa3, 0x97, 0x91, 0x76, 0x74,
  0x5d, 0x63, 0x5f, 0x7a, 0x59, 0x86, 0x5b, 0x79, 0x6f, 0x6e, 0x96, 0x77,
  0x3e, 0x8b, 0x99, 0x58, 0x7f, 0x95, 0x87, 0x81, 0x3d, 0xb2, 0x8d, 0x6e,
  0xa9, 0xa5, 0x99, 0x62, 0x5d, 0xa6, 0xa1, 0x71, 0x76, 0xac, 0xbc, 0x7e,
  0x6c, 0xc8, 0xaa, 0x6d, 0x76, 0xb3, 0xb0, 0x5d, 0x84, 0x9f, 0xa2, 0x64,
  0x9a, 0xa9, 0x99, 0x70, 0x6f, 0xa2, 0xa0, 0x6b, 0x6c, 0x6b, 0x89, 0x71,
  0x6e, 0x8c, 0x82, 0x5c, 0x63, 0x94, 0x94, 0x81, 0x7d, 0x8b, 0x6f, 0x69,
  0x81, 0x78, 0x89, 0x7b, 0x77, 0x71, 0x62, 0x84, 0x79, 0x8e, 0x89, 0x79,
  0x85, 0x93, 0x78, 0x8a, 0x59, 0x74, 0x54, 0x84, 0x79, 0x45, 0x7d, 0x75,
  0x74, 0x93, 0x83, 0x7f, 0x62, 0x92, 0x91, 0x5d, 0x85, 0x7d, 0x67, 0x60,
  0x8b, 0x6b, 0x64, 0x89, 0x56, 0x6d, 0x8d, 0x74, 0xa6, 0x76, 0x7e, 0x78,
  0x9f, 0x90, 0x7d, 0x86, 0x82, 0x94, 0x84, 0x6c, 0x8e, 0x7e, 0x5e, 0x7d,
  0x96, 0x60, 0x75, 0x69, 0x91, 0x80, 0x55, 0x84, 0xa1, 0x5e, 0xac, 0x63,
  0x85, 0x81, 0x55, 0x7a, 0x91, 0x63, 0x98, 0x5c, 0x66, 0x55, 0x57, 0x9e,
  0x8b, 0x75, 0x56, 0x8a, 0x9e, 0x6b, 0x7a, 0x90, 0x54, 0x76, 0x4f, 0x68,
  0x4d, 0x65, 0x8f, 0xad, 0x41, 0xa3, 0x4d, 0x94, 0x6c, 0x73, 0xaa, 0x61,
  0x38, 0xb2, 0x9c, 0x71, 0x87, 0xa0, 0xb2, 0x95, 0x55, 0xb6, 0xbd, 0x40,
  0x7e, 0x9b, 0xb8, 0x5e, 0x73, 0xb2, 0xc4, 0x43, 0x86, 0xa3, 0xa0, 0x72,
  0x82, 0x9a, 0xca, 0x78, 0x6a, 0x9a, 0x98, 0x6c, 0x79, 0xaa, 0x6f, 0x61,
  0x52, 0x81, 0xa4, 0x9a, 0x66, 0xb1, 0x88, 0x7a, 0x70, 0x90, 0x8b, 0xac,
  0x4e, 0x9e, 0x97, 0x7d, 0x87, 0x6a, 0x7c, 0x9c, 0x7a, 0x80, 0x6f, 0x58,
  0x75, 0x5a, 0x82, 0xa6, 0x87, 0x51, 0x91, 0x70, 0x82, 0x61, 0x61, 0xa6,
  0x7d, 0x7a, 0x82, 0x88, 0x7c, 0x81, 0x77, 0x71, 0x76, 0x4b, 0x78, 0x7c,
  0x9e, 0x6e, 0x83, 0x97, 0x87, 0x6e, 0x82, 0x62, 0x97, 0x70, 0x89, 0x86,
  0x79, 0x82, 0x83, 0x79, 0x57, 0x85, 0x7e, 0x95, 0x7d, 0x7e, 0x82, 0x7b,
  0x81, 0x79, 0x53, 0x94, 0x88, 0x4f, 0x75, 0x72, 0xa2, 0x8e, 0x56, 0x73,
  0xb1, 0x6e, 0xa3, 0x4b, 0x65, 0x65, 0x6f, 0x80, 0x97, 0x8a, 0x71, 0x5e,
  0x6e, 0x78, 0x59, 0x8d, 0x81, 0x66, 0x5a, 0xa0, 0x5f, 0x5b, 0x8a, 0x72,
  0x66, 0x7c, 0x73, 0x68, 0x77, 0x57, 0x9d, 0x94, 0x1d, 0xac, 0x5c, 0x97,
  0x70, 0x7e, 0xb2, 0x70, 0x2a, 0xbb, 0xa6, 0x77, 0x82, 0x96, 0xac, 0x64,
  0x65, 0xc6, 0xab, 0x6f, 0x8f, 0x9a, 0xb4, 0x87, 0x4f, 0xcc, 0xbc, 0x42,
  0x78, 0x87, 0xbd, 0x83, 0x5e, 0xbc, 0xba, 0x7e, 0x77, 0x88, 0xa6, 0x60,
  0x65, 0xaf, 0xa4, 0x67, 0x6e, 0x58, 0x76, 0x6d, 0x61, 0x8a, 0x7f, 0x59,
  0x99, 0x59, 0x8c, 0x8f, 0x58, 0x94, 0x5e, 0x85, 0x8f, 0x69, 0x83, 0xa4,
  0x69, 0xa0, 0x85, 0x5a, 0x7c, 0x6d, 0x5e, 0xa3, 0x89, 0x88, 0x89, 0x64,
  0xb0, 0x4a, 0x54, 0x69, 0x92, 0x5a, 0x7e, 0x73, 0x94, 0x6a, 0xa1, 0x70,
  0x76, 0x63, 0x5d, 0x8c, 0xa5, 0x8d, 0x9b, 0x53, 0x73, 0x76, 0xa8, 0x91,
  0x81, 0x71, 0x98, 0x6e, 0x87, 0x86, 0x74, 0x64, 0x9d, 0x86, 0x7c, 0x8f,
  0x7f, 0x8d, 0x83, 0x53, 0x65, 0x68, 0x4a, 0x7f, 0xb1, 0x47, 0x80, 0x86,
  0x9e, 0x93, 0x61, 0xa2, 0xb7, 0x84, 0xc1, 0x72, 0x85, 0x7d, 0x59, 0x9f,
  0xaa, 0x62, 0x7c, 0x66, 0x60, 0x7a, 0x6f, 0x8e, 0x7a, 0x70, 0x5a, 0x84,
  0x7d, 0x63, 0x93, 0x69, 0x5a, 0x81, 0x5d, 0x80, 0x85, 0x72, 0x92, 0x8b,
  0x1d, 0xb5, 0x7e, 0x92, 0x8c, 0x97, 0xb5, 0x87, 0x20, 0xc5, 0xa7, 0x56,
  0x64, 0x86, 0xaa, 0x92, 0x39, 0xcd, 0xab, 0x4f, 0x82, 0x8e, 0xc1, 0x81,
  0x4e, 0xd2, 0xd2, 0x6e, 0x84, 0x82, 0xb0, 0x91, 0x6d, 0xba, 0xad, 0x5a,
  0x64, 0x82, 0x9b, 0x95, 0x64, 0x9e, 0x6e, 0x63, 0x6e, 0x7e, 0x95, 0x6c,
  0x43, 0x8c, 0x67, 0x6b, 0x64, 0x81, 0x78, 0xa8, 0x5a, 0xab, 0x69, 0x51,
  0x79, 0x66, 0x6d, 0x8b, 0x63, 0x92, 0x83, 0x7d, 0x80, 0x59, 0x7a, 0x7d,
  0x6c, 0x86, 0x80, 0x72, 0x5c, 0x5e, 0x5b, 0x89, 0x74, 0x5c, 0x72, 0x64,
  0x6b, 0x75, 0x6c, 0x57, 0x7c, 0x5e, 0x84, 0x87, 0x78, 0xa3, 0x67, 0x9d,
  0x73, 0x80, 0x83, 0x9a, 0x8f, 0x76, 0x9e, 0x90, 0x7b, 0x7d, 0x82, 0x4e,
  0x89, 0x98, 0x7f, 0x73, 0x84, 0x72, 0x84, 0x72, 0x82, 0x6d, 0x49, 0xa3,
  0x9f, 0x54, 0x8f, 0x6b, 0x89, 0xaa, 0x56, 0xa2, 0xb9, 0x72, 0xc9, 0x51,
  0x78, 0x79, 0x66, 0xaa, 0x95, 0x5e, 0x8d, 0x6e, 0x95, 0x80, 0x71, 0x76,
  0x8a, 0x68, 0x68, 0x71, 0x63, 0x64, 0x9e, 0x79, 0x58, 0x97, 0x37, 0x9b,
  0x4f, 0x6d, 0xb9, 0x81, 0x1d, 0xb9, 0x76, 0x8e, 0x82, 0x8b, 0x9a, 0x64,
  0x01, 0xbe, 0xa3, 0x70, 0x99, 0x88, 0x9a, 0x5b, 0x2a, 0xc7, 0xc3, 0x4e,
  0x70, 0x86, 0xb4, 0x80, 0x50, 0xc1, 0x9d, 0x6c, 0x83, 0x80, 0xa0, 0x54,
  0x6a, 0xbe, 0xb3, 0x46, 0x77, 0xb0, 0x8e, 0x83, 0x64, 0xa1, 0x9f, 0x56,
  0x52, 0x8f, 0x8b, 0x69, 0x35, 0xa3, 0x5d, 0x77, 0x59, 0x80, 0x96, 0x9b,
  0x42, 0xa7, 0x8e, 0x72, 0x87, 0x5a, 0x6e, 0x92, 0x71, 0x9b, 0x7a, 0x89,
  0x8a, 0x5b, 0x83, 0x77, 0x7d, 0x73, 0x7e, 0x6b, 0x8d, 0x73, 0x74, 0x6f,
  0x90, 0x51, 0x71, 0x80, 0x59, 0x82, 0x7b, 0x96, 0x65, 0x6a, 0x75, 0x8a,
  0x79, 0xa9, 0x89, 0x7c, 0x7b, 0x6c, 0x5e, 0x6f, 0xa1, 0x78, 0x96, 0x6d,
  0x87, 0x83, 0x73, 0x63, 0x8b, 0x95, 0x67, 0x68, 0x7b, 0x82, 0x86, 0x6f,
  0x98, 0x8f, 0x46, 0x9c, 0x91, 0x42, 0x9b, 0x63, 0x64, 0x9e, 0x60, 0x6e,
  0xb0, 0x61, 0xe5, 0x6e, 0x75, 0x81, 0x6d, 0x71, 0x9a, 0x7a, 0xa2, 0x51,
  0x8e, 0x78, 0x6e, 0x95, 0x89, 0x51, 0x3f, 0x8b, 0x9d, 0x5f, 0x9d, 0x70,
  0x57, 0x7e, 0x3b, 0x81, 0x6d, 0x78, 0x9f, 0x8e, 0x22, 0xc5, 0x69, 0x7d,
  0x85, 0x77, 0xaf, 0x8c, 0x11, 0xcc, 0xac, 0x7f, 0x5f, 0x76, 0xad, 0x69,
  0x31, 0xb3, 0xbb, 0x67, 0x89, 0x89, 0xcc, 0x74, 0x2c, 0xd8, 0xac, 0x54,
  0x7b, 0x92, 0xa1, 0x74, 0x61, 0xc1, 0xba, 0x73, 0x63, 0x8d, 0x88, 0x95,
  0x53, 0xa3, 0x8e, 0x47, 0x7c, 0x7b, 0x92, 0xa9, 0x56, 0x95, 0x5d, 0x59,
  0x7e, 0x5f, 0x7f, 0x8c, 0x5e, 0xa6, 0x8a, 0x6e, 0x75, 0x6a, 0xa0, 0x95,
  0x6c, 0x93, 0x80, 0x7b, 0x7a, 0x61, 0x62, 0x56, 0x7c, 0x71, 0x8a, 0x8b,
  0x8a, 0x58, 0x4f, 0x97, 0x74, 0x69, 0x7f, 0x77, 0x6d, 0x6e, 0x87, 0x8c,
  0x7b, 0x56, 0x80, 0x83, 0x94, 0x7a, 0xa3, 0x67, 0x72, 0x6a, 0x76, 0x82,
  0x8d, 0x68, 0x93, 0x87, 0x93, 0x8c, 0x79, 0x58, 0x9b, 0x93, 0x75, 0x76,
  0x74, 0x8e, 0x92, 0x79, 0x87, 0x76, 0x54, 0x83, 0x7b, 0x4f, 0x85, 0x77,
  0x75, 0x99, 0x64, 0x97, 0xa7, 0x77, 0xc0, 0x50, 0x95, 0xa1, 0x6f, 0x80,
  0xab, 0x7a, 0x8e, 0x70, 0x9b, 0x98, 0x6f, 0x81, 0x96, 0x6e, 0x52, 0x93,
  0x74, 0x72, 0x9e, 0x59, 0x58, 0x85, 0x41, 0x8f, 0x62, 0x6d, 0xae, 0x5f,
  0x23, 0xcd, 0x7e, 0x76, 0x71, 0x8b, 0xae, 0x99, 0x00, 0xc7, 0xa2, 0x73,
  0x86, 0x8f, 0xb2, 0x9b, 0x22, 0xcf, 0xb0, 0x58, 0x53, 0x85, 0xb5, 0x81,
  0x3c, 0xcb, 0xc9, 0x5c, 0x85, 0x92, 0x9b, 0xaa, 0x69, 0xb6, 0x97, 0x5b,
  0x95, 0xa4, 0x8e, 0xa0, 0x5e, 0x9f, 0xa0, 0x5f, 0x99, 0x5a, 0x91, 0x69,
  0x48, 0x8d, 0x8c, 0x79, 0x99, 0x73, 0x84, 0x7d, 0x64, 0xaa, 0x8e, 0x71,
  0x84, 0x68, 0x84, 0x79, 0x69, 0x86, 0x82, 0x8e, 0x85, 0x51, 0x7e, 0x6d,
  0x69, 0x7f, 0x60, 0x88, 0x6c, 0x36, 0x75, 0x64, 0x6b, 0x73, 0x5b, 0x97,
  0x90, 0x46, 0x5e, 0x6d, 0x72, 0x60, 0x7d, 0x8f, 0x6c, 0x76, 0x91, 0x8d,
  0x81, 0x8a, 0x7d, 0x79, 0x8a, 0x65, 0x9b, 0x74, 0x9e, 0x89, 0x80, 0x5e,
  0x80, 0x9c, 0x81, 0x81, 0x77, 0x90, 0x9d, 0x66, 0x7d, 0x75, 0x50, 0x84,
  0x99, 0x59, 0x98, 0x52, 0x9d, 0x9b, 0x4e, 0x9c, 0xa1, 0x6f, 0xe4, 0x66,
  0x74, 0xa5, 0x63, 0x67, 0xaa, 0x69, 0x90, 0x7b, 0x60, 0x78, 0x69, 0x80,
  0x9d, 0x67, 0x5b, 0x92, 0x9e, 0x64, 0x99, 0x74, 0x59, 0x85, 0x30, 0x81,
  0x6e, 0x72, 0xac, 0xab, 0x1b, 0xb9, 0x88, 0x8e, 0x86, 0x7d, 0xae, 0x77,
  0x04, 0xbb, 0xb1, 0x6e, 0xa6, 0x77, 0xac, 0x8e, 0x12, 0xb4, 0xb0, 0x69,
  0x7a, 0x88, 0xb4, 0x83, 0x49, 0xc9, 0xaf, 0x59, 0x68, 0x96, 0x95, 0x67,
  0x69, 0xba, 0xa7, 0x5c, 0x7f, 0x8a, 0x83, 0x8f, 0x46, 0x97, 0x89, 0x82,
  0x83, 0x59, 0x9e, 0x88, 0x4c, 0x8b, 0x72, 0x7e, 0x7f, 0x80, 0x8a, 0x6c,
  0x56, 0x9c, 0x87, 0x94, 0x89, 0x58, 0x8c, 0x97, 0x69, 0x9b, 0x76, 0x85,
  0x77, 0x62, 0x7d, 0x69, 0x6d, 0x7c, 0x88, 0x9d, 0x51, 0x5a, 0x84, 0xb1,
  0x7a, 0x7a, 0x8f, 0x87, 0x8e, 0x47, 0x84, 0x74, 0x60, 0x63, 0x76, 0x80,
  0x7d, 0x88, 0x84, 0x74, 0x6d, 0x86, 0x5c, 0x7f, 0x95, 0x5e, 0x9f, 0x94,
  0x78, 0x7c, 0x80, 0x72, 0x87, 0x86, 0x7c, 0x9a, 0x5b, 0x9b, 0x82, 0x66,
  0x5f, 0x55, 0x50, 0x92, 0x9e, 0x46, 0x8d, 0x63, 0x8f, 0xc1, 0x5f, 0xac,
  0xb2, 0x71, 0xd6, 0x45, 0x76, 0x94, 0x69, 0x7f, 0xad, 0x62, 0xa1, 0x87,
  0x81, 0xaf, 0x67, 0x7f, 0x8e, 0x60, 0x67, 0x8b, 0x70, 0x7b, 0x87, 0x8c,
  0x51, 0x74, 0x51, 0x9a, 0x82, 0x6d, 0xa7, 0x89, 0x21, 0xbc, 0x71, 0x98,
  0x99, 0x84, 0x9b, 0x64, 0x17, 0xd2, 0xaf, 0x6e, 0x91, 0x85, 0x9b, 0x7e,
  0x26, 0xb6, 0xba, 0x5b, 0x5b, 0x76, 0xaa, 0x5f, 0x17, 0xbe, 0xbc, 0x5e,
  0x89, 0x96, 0x8c, 0x89, 0x68, 0xc0, 0xb6, 0x6c, 0x8d, 0x90, 0x86, 0x8b,
  0x5b, 0x96, 0x9c, 0x6a, 0x7f, 0x6e, 0x95, 0x99, 0x40, 0x94, 0x76, 0x79,
  0x75, 0x7a, 0x8b, 0x8f, 0x58, 0xa1, 0xa3, 0x77, 0x82, 0x62, 0x7d, 0x99,
  0x7b, 0x86, 0x9e, 0x85, 0x77, 0x66, 0x87, 0x67, 0x75, 0x94, 0x83, 0x84,
  0xa6, 0x4a, 0x77, 0x6e, 0x7e, 0x81, 0x87, 0x99, 0x89, 0x65, 0x7b, 0x75,
  0x6d, 0x5e, 0x7a, 0x9a, 0xa3, 0x6d, 0x84, 0x80, 0x6a, 0xa6, 0x87, 0x8f,
  0x97, 0x6e, 0x96, 0x71, 0x5b, 0x78, 0x84, 0x57, 0x89, 0x92, 0x85, 0x59,
  0x6e, 0x8b, 0x8d, 0x7e, 0x77, 0x8b, 0x49, 0x89, 0x93, 0x37, 0x8b, 0x5e,
  0x60, 0x92, 0x5b, 0x88, 0xba, 0x6b, 0xe2, 0x56, 0x78, 0xa5, 0x75, 0x74,
  0xb0, 0x62, 0xa4, 0x81, 0x6c, 0x86, 0x67, 0x8d, 0x84, 0x5e, 0x4f, 0xb1,
  0x77, 0x4a, 0xa1, 0x8c, 0x68, 0x86, 0x25, 0x9a, 0x7e, 0x65, 0xb6, 0x8f,
  0x33, 0xbe, 0x75, 0x96, 0x88, 0x76, 0xa5, 0x92, 0x07, 0xb8, 0xa1, 0x79,
  0x55, 0x77, 0xa0, 0x96, 0x2d, 0xbd, 0xb8, 0x4c, 0x60, 0x95, 0xa0, 0x8a,
  0x15, 0xc4, 0xc8, 0x55, 0x8f, 0x8e, 0x97, 0xa7, 0x54, 0xb6, 0xa4, 0x63,
  0x6d, 0x9d, 0x82, 0x61, 0x4e, 0x83, 0x7e, 0x8d, 0x76, 0x69, 0x98, 0x9e,
