/* Copyright 2018 The TensorFlow Authors. All Rights Reserved.

Licensed under the Apache License, Version 2.0 (the "License");
you may not use this file except in compliance with the License.
You may obtain a copy of the License at

    http://www.apache.org/licenses/LICENSE-2.0

Unless required by applicable law or agreed to in writing, software
distributed under the License is distributed on an "AS IS" BASIS,
WITHOUT WARRANTIES OR CONDITIONS OF ANY KIND, either express or implied.
See the License for the specific language governing permissions and
limitations under the License.
==============================================================================*/

// Automatically created from a TensorFlow Lite flatbuffer using the command:
// xxd -i tiny_conv.tflite > tiny_conv_simple_features_model_data.cc
// See the README for a full description of the creation process.

#include "tiny_conv_micro_features_model_data.h"

// We need to keep the data array aligned on some architectures.
#ifdef __has_attribute
#define HAVE_ATTRIBUTE(x) __has_attribute(x)
#else
#define HAVE_ATTRIBUTE(x) 0
#endif
#if HAVE_ATTRIBUTE(aligned) || (defined(__GNUC__) && !defined(__clang__))
#define DATA_ALIGN_ATTRIBUTE __attribute__((aligned(4)))
#else
#define DATA_ALIGN_ATTRIBUTE
#endif

const unsigned char
    g_tiny_conv_micro_features_model_data[] DATA_ALIGN_ATTRIBUTE = {
        0x1c, 0x00, 0x00, 0x00, 0x54, 0x46, 0x4c, 0x33, 0x00, 0x00, 0x12, 0x00,
  0x1c, 0x00, 0x04, 0x00, 0x08, 0x00, 0x0c, 0x00, 0x10, 0x00, 0x14, 0x00,
  0x00, 0x00, 0x18, 0x00, 0x12, 0x00, 0x00, 0x00, 0x03, 0x00, 0x00, 0x00,
  0xec, 0x46, 0x00, 0x00, 0x10, 0x00, 0x00, 0x00, 0x1c, 0x00, 0x00, 0x00,
  0x2c, 0x00, 0x00, 0x00, 0x0c, 0x00, 0x00, 0x00, 0x01, 0x00, 0x00, 0x00,
  0xc0, 0x00, 0x00, 0x00, 0x01, 0x00, 0x00, 0x00, 0x94, 0x00, 0x00, 0x00,
  0x0f, 0x00, 0x00, 0x00, 0x54, 0x4f, 0x43, 0x4f, 0x20, 0x43, 0x6f, 0x6e,
  0x76, 0x65, 0x72, 0x74, 0x65, 0x64, 0x2e, 0x00, 0x0a, 0x00, 0x00, 0x00,
  0x60, 0x00, 0x00, 0x00, 0x54, 0x00, 0x00, 0x00, 0x48, 0x00, 0x00, 0x00,
  0x3c, 0x00, 0x00, 0x00, 0x34, 0x00, 0x00, 0x00, 0x2c, 0x00, 0x00, 0x00,
  0x24, 0x00, 0x00, 0x00, 0x18, 0x00, 0x00, 0x00, 0x10, 0x00, 0x00, 0x00,
  0x04, 0x00, 0x00, 0x00, 0x3e, 0xba, 0xff, 0xff, 0x38, 0x00, 0x00, 0x00,
  0xec, 0xb9, 0xff, 0xff, 0x4a, 0xba, 0xff, 0xff, 0x9c, 0x01, 0x00, 0x00,
  0xf8, 0xb9, 0xff, 0xff, 0xfc, 0xb9, 0xff, 0xff, 0x00, 0xba, 0xff, 0xff,
  0x5e, 0xba, 0xff, 0xff, 0xa8, 0x05, 0x00, 0x00, 0x66, 0xba, 0xff, 0xff,
  0x4c, 0x06, 0x00, 0x00, 0x6e, 0xba, 0xff, 0xff, 0x38, 0x45, 0x00, 0x00,
  0x1c, 0xba, 0xff, 0xff, 0x05, 0x00, 0x00, 0x00, 0x31, 0x2e, 0x35, 0x2e,
  0x30, 0x00, 0x00, 0x00, 0x08, 0x00, 0x0c, 0x00, 0x04, 0x00, 0x08, 0x00,
  0x08, 0x00, 0x00, 0x00, 0x08, 0x00, 0x00, 0x00, 0x09, 0x00, 0x00, 0x00,
  0x13, 0x00, 0x00, 0x00, 0x6d, 0x69, 0x6e, 0x5f, 0x72, 0x75, 0x6e, 0x74,
  0x69, 0x6d, 0x65, 0x5f, 0x76, 0x65, 0x72, 0x73, 0x69, 0x6f, 0x6e, 0x00,
  0x40, 0xfa, 0xff, 0xff, 0x20, 0x00, 0x00, 0x00, 0x14, 0x00, 0x00, 0x00,
  0x08, 0x00, 0x00, 0x00, 0xfc, 0x44, 0x00, 0x00, 0x01, 0x00, 0x00, 0x00,
  0x07, 0x00, 0x00, 0x00, 0x01, 0x00, 0x00, 0x00, 0x03, 0x00, 0x00, 0x00,
  0x08, 0x00, 0x00, 0x00, 0xdc, 0x04, 0x00, 0x00, 0x6c, 0x44, 0x00, 0x00,
  0x8c, 0x03, 0x00, 0x00, 0x14, 0x00, 0x00, 0x00, 0xf4, 0x03, 0x00, 0x00,
  0x40, 0x05, 0x00, 0x00, 0x7c, 0x00, 0x00, 0x00, 0x50, 0x04, 0x00, 0x00,
  0xbe, 0xbb, 0xff, 0xff, 0x00, 0x00, 0x00, 0x03, 0x10, 0x00, 0x00, 0x00,
  0x08, 0x00, 0x00, 0x00, 0x1c, 0x00, 0x00, 0x00, 0x28, 0x00, 0x00, 0x00,
  0x04, 0x00, 0x00, 0x00, 0x01, 0x00, 0x00, 0x00, 0x31, 0x00, 0x00, 0x00,
  0x28, 0x00, 0x00, 0x00, 0x01, 0x00, 0x00, 0x00, 0x09, 0x00, 0x00, 0x00,
  0x52, 0x65, 0x73, 0x68, 0x61, 0x70, 0x65, 0x5f, 0x32, 0x00, 0x00, 0x00,
  0xc4, 0xfa, 0xff, 0xff, 0x2c, 0x00, 0x00, 0x00, 0x20, 0x00, 0x00, 0x00,
  0x14, 0x00, 0x00, 0x00, 0x04, 0x00, 0x00, 0x00, 0x01, 0x00, 0x00, 0x00,
  0x00, 0x00, 0x00, 0x00, 0x00, 0x00, 0x00, 0x00, 0x01, 0x00, 0x00, 0x00,
  0xc6, 0xd0, 0xd0, 0x3d, 0x01, 0x00, 0x00, 0x00, 0xf5, 0xff, 0xcf, 0x41,
  0x01, 0x00, 0x00, 0x00, 0x00, 0x00, 0x00, 0x00, 0x32, 0xbc, 0xff, 0xff,
  0x00, 0x00, 0x00, 0x03, 0x10, 0x00, 0x00, 0x00, 0x07, 0x00, 0x00, 0x00,
  0x1c, 0x00, 0x00, 0x00, 0x2c, 0x00, 0x00, 0x00, 0x04, 0x00, 0x00, 0x00,
  0x01, 0x00, 0x00, 0x00, 0x0a, 0x00, 0x00, 0x00, 0x08, 0x00, 0x00, 0x00,
  0x08, 0x00, 0x00, 0x00, 0x0d, 0x00, 0x00, 0x00, 0x66, 0x69, 0x72, 0x73,
  0x74, 0x5f, 0x77, 0x65, 0x69, 0x67, 0x68, 0x74, 0x73, 0x00, 0x00, 0x00,
  0x3c, 0xfb, 0xff, 0xff, 0x30, 0x00, 0x00, 0x00, 0x24, 0x00, 0x00, 0x00,
  0x18, 0x00, 0x00, 0x00, 0x04, 0x00, 0x00, 0x00, 0x01, 0x00, 0x00, 0x00,
  0x79, 0x00, 0x00, 0x00, 0x00, 0x00, 0x00, 0x00, 0x00, 0x00, 0x00, 0x00,
  0x01, 0x00, 0x00, 0x00, 0xa9, 0x12, 0x5d, 0x3a, 0x01, 0x00, 0x00, 0x00,
  0x52, 0x1e, 0xe7, 0x3d, 0x01, 0x00, 0x00, 0x00, 0xdb, 0x4c, 0xd1, 0xbd,
  0x80, 0x02, 0x00, 0x00, 0x5d, 0x7f, 0x6d, 0x95, 0x87, 0x5e, 0x59, 0xbb,
  0x6e, 0x76, 0x7c, 0xa1, 0x89, 0x0f, 0x8a, 0xb6, 0x59, 0xb9, 0x32, 0x90,
  0x86, 0xa7, 0x8e, 0xa1, 0x75, 0x73, 0x5f, 0x96, 0x58, 0x2b, 0x78, 0x95,
  0x55, 0xde, 0x33, 0x7c, 0x6d, 0xa7, 0x84, 0x79, 0x58, 0x86, 0x5c, 0x79,
  0x77, 0x3b, 0xbb, 0x78, 0x5c, 0xc7, 0x5f, 0x3b, 0x6f, 0xcf, 0xab, 0x41,
  0x65, 0x71, 0x69, 0x40, 0x75, 0x88, 0xb4, 0x4d, 0x62, 0x5b, 0x7e, 0xc3,
  0x7f, 0xaf, 0x40, 0xab, 0x7e, 0x46, 0xa8, 0x96, 0x85, 0x4a, 0x69, 0xaf,
  0x5a, 0x8f, 0x4e, 0xac, 0x77, 0xde, 0x7c, 0x80, 0x66, 0x5b, 0x8b, 0x8f,
  0x4b, 0x44, 0x71, 0x98, 0x58, 0xdb, 0x5c, 0x7c, 0x67, 0xc1, 0x81, 0x6f,
  0x72, 0x63, 0x7c, 0x74, 0x6e, 0x5f, 0xae, 0x7b, 0x65, 0xd3, 0x87, 0x32,
  0x7e, 0xc3, 0xb1, 0x32, 0x6c, 0x84, 0x72, 0x3b, 0x85, 0x90, 0xb0, 0x47,
  0x5a, 0x54, 0x81, 0xd5, 0x81, 0xd4, 0x2a, 0xa5, 0x6f, 0x2e, 0xaf, 0x8e,
  0x7c, 0x72, 0x38, 0x9b, 0x69, 0x88, 0x51, 0xb3, 0x81, 0xd7, 0x57, 0x74,
  0x76, 0x47, 0x82, 0x84, 0x51, 0x5f, 0x3c, 0x8f, 0x54, 0xcf, 0x66, 0x82,
  0x6c, 0xb2, 0x4e, 0x63, 0x70, 0x50, 0x85, 0x6f, 0x8e, 0x5e, 0x7d, 0x72,
  0x75, 0xd6, 0x89, 0x3e, 0x8d, 0x98, 0x7a, 0x30, 0x63, 0x89, 0x71, 0x2b,
  0x9b, 0x86, 0x86, 0x46, 0x49, 0x4c, 0x72, 0xf2, 0x71, 0xdc, 0x42, 0xa8,
  0x62, 0x29, 0xcc, 0x88, 0x6f, 0x72, 0x29, 0xac, 0x59, 0x90, 0x49, 0xc4,
  0x76, 0xc4, 0x4e, 0x75, 0x62, 0x47, 0x8c, 0x7c, 0x5d, 0x55, 0x10, 0xa2,
  0x64, 0xcd, 0x60, 0x78, 0x58, 0x8d, 0x2e, 0x5e, 0x77, 0x54, 0x8d, 0x6c,
  0x8d, 0x59, 0x56, 0x7c, 0x65, 0xde, 0x73, 0x2e, 0x82, 0x69, 0x41, 0x1b,
  0x67, 0x85, 0x71, 0x21, 0x91, 0x56, 0x65, 0x52, 0x4e, 0x47, 0x78, 0xfd,
  0x55, 0xc7, 0xa5, 0x96, 0x5d, 0x2d, 0xef, 0x7d, 0x54, 0x6f, 0x68, 0xa2,
  0x5b, 0x92, 0x4b, 0xca, 0x54, 0xad, 0x93, 0x6a, 0x67, 0x43, 0xa7, 0x6c,
  0x43, 0x49, 0x41, 0x9d, 0x61, 0xc8, 0x66, 0x79, 0x47, 0x79, 0x53, 0x4d,
  0x5f, 0x4a, 0x98, 0x63, 0x81, 0x53, 0x5c, 0x85, 0x68, 0xd7, 0x7b, 0x34,
  0x71, 0x53, 0x34, 0x17, 0x5e, 0x85, 0x7e, 0x1d, 0x8b, 0x4f, 0x4d, 0x56,
  0x5a, 0x37, 0x63, 0xff, 0x61, 0xc3, 0xd0, 0x86, 0x87, 0x2d, 0x9e, 0x83,
  0x56, 0x7e, 0xb0, 0x9c, 0x85, 0x92, 0x3c, 0xb6, 0x57, 0x93, 0xaa, 0x65,
  0x79, 0x45, 0x6e, 0x69, 0x43, 0x4a, 0x7f, 0xa2, 0x7b, 0xc6, 0x4e, 0x6e,
  0x5b, 0x63, 0x68, 0x44, 0x81, 0x5d, 0x85, 0x69, 0x8b, 0x6b, 0x78, 0x7d,
  0x71, 0xde, 0x69, 0x22, 0x98, 0x31, 0x36, 0x14, 0x64, 0xad, 0x72, 0x1c,
  0xa9, 0x4a, 0x37, 0x66, 0x6c, 0x3a, 0x64, 0xe8, 0x6b, 0xbe, 0xd8, 0x66,
  0x79, 0x2d, 0xae, 0x78, 0x5a, 0x80, 0xb8, 0x8d, 0x93, 0x75, 0x4d, 0xae,
  0x78, 0x81, 0xad, 0x50, 0x7d, 0x53, 0x9d, 0x5f, 0x4f, 0x67, 0x8a, 0x9d,
  0x96, 0xa5, 0x65, 0x5c, 0x6b, 0x4c, 0x5d, 0x43, 0x81, 0x7a, 0x8f, 0x65,
  0x8c, 0x88, 0x95, 0x73, 0x82, 0xcd, 0x74, 0x2a, 0xba, 0x2f, 0x16, 0x35,
  0x56, 0xc0, 0x7b, 0x30, 0xbf, 0x5b, 0x35, 0x7c, 0x84, 0x3c, 0x76, 0xca,
  0x7d, 0xa7, 0xb9, 0x4f, 0x86, 0x37, 0xaf, 0x73, 0x62, 0x91, 0xa8, 0x5f,
  0x88, 0x56, 0x5b, 0x86, 0x77, 0x68, 0x9f, 0x60, 0x85, 0x52, 0x94, 0x54,
  0x52, 0x74, 0x71, 0x87, 0x95, 0x76, 0x68, 0x3d, 0x6f, 0x48, 0x60, 0x67,
  0x73, 0x8e, 0x7f, 0x65, 0x87, 0x93, 0x8c, 0x79, 0x86, 0x98, 0x7c, 0x32,
  0xaf, 0x31, 0x03, 0x56, 0x66, 0xd1, 0x79, 0x43, 0xb3, 0x73, 0x31, 0x7f,
  0x86, 0x2b, 0x61, 0x82, 0x8e, 0x62, 0xea, 0x36, 0x9b, 0x1a, 0x91, 0x64,
  0x6c, 0x82, 0xb4, 0x2a, 0xa1, 0x3e, 0x43, 0x5b, 0x80, 0x60, 0x94, 0x4e,
  0x92, 0x27, 0x74, 0x4c, 0x5e, 0x73, 0x89, 0x72, 0x9f, 0x33, 0x5c, 0x3f,
  0x7d, 0x48, 0x5c, 0x64, 0x81, 0x44, 0x76, 0x77, 0x81, 0xa7, 0x8b, 0x75,
  0x81, 0x3a, 0x6c, 0x50, 0xbb, 0x42, 0x17, 0x58, 0x5a, 0x6f, 0x7a, 0x71,
  0xb2, 0x7c, 0x45, 0x8d, 0x85, 0x55, 0x57, 0x37, 0x87, 0x23, 0xdb, 0x18,
  0x9e, 0x0b, 0x8e, 0x34, 0x6a, 0x45, 0xbc, 0x00, 0x84, 0x4f, 0x3e, 0x31,
  0x99, 0x56, 0xa1, 0x4a, 0x89, 0x24, 0x74, 0x39, 0x5d, 0x82, 0x84, 0x5b,
  0x95, 0x46, 0x70, 0x42, 0x80, 0x66, 0x7d, 0x66, 0x89, 0x12, 0x75, 0x7f,
  0x7e, 0xb2, 0x86, 0x71, 0x83, 0x22, 0x72, 0x6b, 0xa8, 0x58, 0x3b, 0x62,
  0x65, 0x25, 0x77, 0x8d, 0x8f, 0x91, 0x6f, 0x82, 0x32, 0xbf, 0xff, 0xff,
  0x00, 0x00, 0x00, 0x03, 0x10, 0x00, 0x00, 0x00, 0x06, 0x00, 0x00, 0x00,
  0x1c, 0x00, 0x00, 0x00, 0x24, 0x00, 0x00, 0x00, 0x04, 0x00, 0x00, 0x00,
  0x01, 0x00, 0x00, 0x00, 0x19, 0x00, 0x00, 0x00, 0x14, 0x00, 0x00, 0x00,
  0x08, 0x00, 0x00, 0x00, 0x04, 0x00, 0x00, 0x00, 0x52, 0x65, 0x6c, 0x75,
  0x00, 0x00, 0x00, 0x00, 0x34, 0xfe, 0xff, 0xff, 0x2c, 0x00, 0x00, 0x00,
  0x20, 0x00, 0x00, 0x00, 0x14, 0x00, 0x00, 0x00, 0x04, 0x00, 0x00, 0x00,
  0x01, 0x00, 0x00, 0x00, 0x00, 0x00, 0x00, 0x00, 0x00, 0x00, 0x00, 0x00,
  0x01, 0x00, 0x00, 0x00, 0x00, 0x00, 0x80, 0x3f, 0x01, 0x00, 0x00, 0x00,
  0x00, 0x00, 0x7f, 0x43, 0x01, 0x00, 0x00, 0x00, 0x00, 0x00, 0x00, 0x00,
  0xa2, 0xbf, 0xff, 0xff, 0x00, 0x00, 0x00, 0x03, 0x10, 0x00, 0x00, 0x00,
  0x05, 0x00, 0x00, 0x00, 0x14, 0x00, 0x00, 0x00, 0x1c, 0x00, 0x00, 0x00,
  0x02, 0x00, 0x00, 0x00, 0x01, 0x00, 0x00, 0x00, 0x04, 0x00, 0x00, 0x00,
  0x05, 0x00, 0x00, 0x00, 0x61, 0x64, 0x64, 0x5f, 0x31, 0x00, 0x00, 0x00,
  0x9c, 0xfe, 0xff, 0xff, 0x2c, 0x00, 0x00, 0x00, 0x20, 0x00, 0x00, 0x00,
  0x14, 0x00, 0x00, 0x00, 0x04, 0x00, 0x00, 0x00, 0x01, 0x00, 0x00, 0x00,
  0x00, 0x00, 0x00, 0x00, 0x00, 0x00, 0x00, 0x00, 0x01, 0x00, 0x00, 0x00,
  0x00, 0x00, 0x80, 0x3f, 0x01, 0x00, 0x00, 0x00, 0x00, 0x00, 0x7f, 0x43,
  0x01, 0x00, 0x00, 0x00, 0x00, 0x00, 0x00, 0x00, 0x0a, 0xc0, 0xff, 0xff,
  0x00, 0x00, 0x00, 0x03, 0x10, 0x00, 0x00, 0x00, 0x04, 0x00, 0x00, 0x00,
  0x14, 0x00, 0x00, 0x00, 0x24, 0x00, 0x00, 0x00, 0x02, 0x00, 0x00, 0x00,
  0x01, 0x00, 0x00, 0x00, 0x04, 0x00, 0x00, 0x00, 0x0e, 0x00, 0x00, 0x00,
  0x6c, 0x61, 0x62, 0x65, 0x6c, 0x73, 0x5f, 0x73, 0x6f, 0x66, 0x74, 0x6d,
  0x61, 0x78, 0x00, 0x00, 0x0c, 0xff, 0xff, 0xff, 0x2c, 0x00, 0x00, 0x00,
  0x20, 0x00, 0x00, 0x00, 0x14, 0x00, 0x00, 0x00, 0x04, 0x00, 0x00, 0x00,
  0x01, 0x00, 0x00, 0x00, 0x00, 0x00, 0x00, 0x00, 0x00, 0x00, 0x00, 0x00,
  0x01, 0x00, 0x00, 0x00, 0x00, 0x00, 0x80, 0x3b, 0x01, 0x00, 0x00, 0x00,
  0x00, 0x00, 0x7f, 0x3f, 0x01, 0x00, 0x00, 0x00, 0x00, 0x00, 0x00, 0x00,
  0x7a, 0xc0, 0xff, 0xff, 0x00, 0x00, 0x00, 0x02, 0x10, 0x00, 0x00, 0x00,
  0x03, 0x00, 0x00, 0x00, 0x10, 0x00, 0x00, 0x00, 0x1c, 0x00, 0x00, 0x00,
  0x01, 0x00, 0x00, 0x00, 0x08, 0x00, 0x00, 0x00, 0x0b, 0x00, 0x00, 0x00,
  0x43, 0x6f, 0x6e, 0x76, 0x32, 0x44, 0x5f, 0x62, 0x69, 0x61, 0x73, 0x00,
  0x6c, 0xc0, 0xff, 0xff, 0x18, 0x00, 0x00, 0x00, 0x04, 0x00, 0x00, 0x00,
  0x01, 0x00, 0x00, 0x00, 0x00, 0x00, 0x00, 0x00, 0x00, 0x00, 0x00, 0x00,
  0x00, 0x00, 0x00, 0x00, 0x01, 0x00, 0x00, 0x00, 0x73, 0x53, 0xb4, 0x38,
  0x20, 0x00, 0x00, 0x00, 0xee, 0xff, 0xff, 0xff, 0x1c, 0xfe, 0xff, 0xff,
  0xd8, 0x00, 0x00, 0x00, 0xb5, 0xfb, 0xff, 0xff, 0xf7, 0x00, 0x00, 0x00,
  0x7c, 0xfe, 0xff, 0xff, 0x00, 0x00, 0x00, 0x00, 0xdc, 0x00, 0x00, 0x00,
  0xf2, 0xc0, 0xff, 0xff, 0x00, 0x00, 0x00, 0x03, 0x10, 0x00, 0x00, 0x00,
  0x02, 0x00, 0x00, 0x00, 0x14, 0x00, 0x00, 0x00, 0x3c, 0x00, 0x00, 0x00,
  0x02, 0x00, 0x00, 0x00, 0x04, 0x00, 0x00, 0x00, 0xa0, 0x0f, 0x00, 0x00,
  0x1a, 0x00, 0x00, 0x00, 0x66, 0x69, 0x6e, 0x61, 0x6c, 0x5f, 0x66, 0x63,
  0x5f, 0x77, 0x65, 0x69, 0x67, 0x68, 0x74, 0x73, 0x2f, 0x74, 0x72, 0x61,
  0x6e, 0x73, 0x70, 0x6f, 0x73, 0x65, 0x00, 0x00, 0x0c, 0x00, 0x14, 0x00,
  0x04, 0x00, 0x08, 0x00, 0x0c, 0x00, 0x10, 0x00, 0x0c, 0x00, 0x00, 0x00,
  0x2c, 0x00, 0x00, 0x00, 0x20, 0x00, 0x00, 0x00, 0x14, 0x00, 0x00, 0x00,
  0x04, 0x00, 0x00, 0x00, 0x01, 0x00, 0x00, 0x00, 0x82, 0x00, 0x00, 0x00,
  0x00, 0x00, 0x00, 0x00, 0x01, 0x00, 0x00, 0x00, 0x49, 0x9c, 0xd3, 0x39,
  0x01, 0x00, 0x00, 0x00, 0x58, 0x10, 0x4f, 0x3d, 0x01, 0x00, 0x00, 0x00,
  0x01, 0x81, 0x56, 0xbd, 0x80, 0x3e, 0x00, 0x00, 0x59, 0x74, 0x78, 0x96,
  0x7e, 0x9f, 0x92, 0x7a, 0x6b, 0x64, 0x98, 0x9d, 0x39, 0x68, 0xac, 0x90,
  0x48, 0x87, 0x67, 0x89, 0x71, 0xa4, 0x5a, 0xa7, 0x3c, 0x79, 0x70, 0x80,
  0x87, 0x8a, 0x4c, 0x9d, 0x48, 0x8d, 0x92, 0x7d, 0x84, 0x7e, 0x2c, 0x88,
  0x36, 0x72, 0x89, 0x5f, 0x71, 0x85, 0x24, 0x88, 0x4a, 0x85, 0x80, 0x86,
  0x53, 0x8f, 0x55, 0x74, 0x4b, 0x82, 0x97, 0x6d, 0x6f, 0x8a, 0x36, 0x99,
  0x56, 0x79, 0x73, 0x9f, 0x79, 0x98, 0x4f, 0x9b, 0x75, 0x7c, 0x5c, 0x74,
  0x7a, 0xa0, 0x43, 0x7e, 0x5b, 0x7d, 0x95, 0x76, 0x76, 0x85, 0x59, 0x97,
  0x48, 0x67, 0x79, 0x83, 0x5d, 0xa2, 0x42, 0x89, 0x47, 0x8f, 0x78, 0x85,
  0x53, 0x66, 0x46, 0x9b, 0x72, 0x7a, 0x9f, 0x94, 0x60, 0x8b, 0x48, 0x73,
  0x71, 0x91, 0x92, 0x72, 0x8e, 0x66, 0x36, 0x83, 0x5d, 0x6e, 0x88, 0x75,
  0x9d, 0x92, 0x42, 0x88, 0x73, 0x93, 0xa7, 0x79, 0x46, 0x80, 0x76, 0x84,
  0x6e, 0x75, 0x67, 0x6f, 0x40, 0x69, 0x5d, 0x52, 0x99, 0x96, 0x63, 0x8d,
  0x79, 0xa1, 0x94, 0x69, 0x8b, 0xb1, 0x6f, 0x9e, 0x6b, 0x80, 0x7f, 0x6f,
  0x77, 0x9f, 0x67, 0x7b, 0x5d, 0x7d, 0x8c, 0x7d, 0x61, 0x6f, 0x85, 0x7a,
  0x3f, 0x66, 0x8c, 0x81, 0x70, 0x7e, 0x61, 0x8b, 0x8b, 0x97, 0x93, 0xb2,
  0x5c, 0x76, 0x5c, 0x89, 0x8f, 0x87, 0x74, 0x96, 0x58, 0x68, 0x4f, 0x5e,
  0xae, 0x76, 0x71, 0x6b, 0x6f, 0x69, 0x58, 0x7e, 0xb7, 0x86, 0x60, 0x6f,
  0x3e, 0x7b, 0x75, 0x83, 0x70, 0x71, 0x70, 0x8b, 0x59, 0x59, 0x51, 0x84,
  0x7f, 0x7b, 0x50, 0x75, 0x40, 0x74, 0x67, 0x96, 0x64, 0x80, 0x71, 0x8d,
  0x5b, 0x7e, 0x52, 0x85, 0x74, 0x87, 0x7d, 0x8d, 0x8b, 0x8e, 0x56, 0x6c,
  0x75, 0x7d, 0x8e, 0x90, 0x43, 0x8d, 0x6b, 0x6a, 0x85, 0x81, 0x81, 0xac,
  0x72, 0xa7, 0x8c, 0x82, 0x9b, 0x7c, 0x82, 0x78, 0x7d, 0x96, 0x75, 0x96,
  0x7d, 0x97, 0x84, 0x6e, 0x88, 0x6d, 0x79, 0x7e, 0x8a, 0x53, 0x76, 0x6c,
  0x8b, 0x8c, 0x74, 0x94, 0x8c, 0x71, 0x6b, 0x7f, 0x6e, 0x9d, 0x62, 0x70,
  0x7f, 0x78, 0x5f, 0x66, 0x75, 0x83, 0x61, 0xa2, 0x84, 0x8e, 0x8e, 0x7b,
  0x42, 0x85, 0x9a, 0x95, 0x8f, 0x8b, 0x5e, 0x66, 0x5c, 0x70, 0x78, 0x95,
  0x70, 0x98, 0x6b, 0xa0, 0x7a, 0x80, 0x75, 0x5d, 0x4e, 0x6d, 0x96, 0x7c,
  0xa7, 0x74, 0x6d, 0xa5, 0x7c, 0xa1, 0x70, 0x6f, 0x69, 0x7c, 0x76, 0xba,
  0x81, 0x83, 0x99, 0x79, 0x69, 0x4e, 0x8a, 0x46, 0xaa, 0x9a, 0x92, 0x9b,
  0x9e, 0x68, 0x7c, 0x85, 0xa5, 0x65, 0x7e, 0x99, 0x86, 0x7f, 0x5e, 0x5c,
  0x79, 0x9b, 0x7f, 0xa7, 0x77, 0x8f, 0x5c, 0x5c, 0x77, 0x77, 0x54, 0x67,
  0x5c, 0x67, 0x66, 0x71, 0x5f, 0x6e, 0x63, 0x8b, 0x89, 0x58, 0x83, 0x73,
  0x74, 0x89, 0x91, 0x9a, 0xa4, 0x69, 0x7e, 0x89, 0x9b, 0x7a, 0x94, 0x7e,
  0x8d, 0x85, 0x5b, 0xa2, 0xa8, 0x73, 0xa6, 0xa2, 0x76, 0x59, 0x77, 0xa5,
  0x90, 0x9b, 0x89, 0x85, 0xae, 0x6d, 0x74, 0x79, 0x88, 0x98, 0x99, 0x8e,
  0x60, 0xa2, 0x79, 0x8f, 0xa1, 0x60, 0x82, 0x7a, 0x7f, 0x91, 0x86, 0x55,
  0x89, 0x6b, 0x91, 0x9d, 0x75, 0x98, 0x73, 0x6e, 0x8d, 0x88, 0x72, 0x81,
  0x72, 0x83, 0x74, 0x81, 0x5f, 0x7e, 0x70, 0x74, 0x9c, 0x81, 0xa9, 0x7c,
  0x70, 0x5e, 0x73, 0x71, 0x8f, 0x79, 0x8a, 0x8a, 0x7f, 0xba, 0x87, 0xae,
  0x57, 0x92, 0x4e, 0x8a, 0x8f, 0xa9, 0x7f, 0x9c, 0x70, 0x67, 0x6c, 0x8b,
  0x59, 0x7f, 0x71, 0x9c, 0x6d, 0x4f, 0x9a, 0x6e, 0x8a, 0x6f, 0x88, 0x94,
  0x89, 0x8c, 0x9b, 0x6b, 0x8f, 0x94, 0x82, 0x6b, 0x87, 0x4b, 0x6e, 0x73,
  0x88, 0x81, 0x7e, 0x67, 0x64, 0x65, 0xa1, 0x7e, 0x6f, 0x55, 0x7e, 0x66,
  0x89, 0x6c, 0x85, 0x4e, 0x86, 0x79, 0x9c, 0x63, 0x65, 0x7b, 0x80, 0x68,
  0x7a, 0x6d, 0xaf, 0x78, 0xad, 0x71, 0x9b, 0x6d, 0x7a, 0x6b, 0x6c, 0x52,
  0x7c, 0x62, 0x6b, 0x67, 0x8b, 0xa7, 0x8a, 0x52, 0x75, 0x7c, 0x95, 0x85,
  0x8e, 0x92, 0x5f, 0x76, 0x98, 0x48, 0x7e, 0x8a, 0x99, 0x85, 0x8c, 0x95,
  0x92, 0x82, 0xb7, 0x83, 0x97, 0x6b, 0x67, 0x86, 0x6c, 0x86, 0x63, 0x70,
  0x86, 0xa8, 0xa2, 0x95, 0x87, 0x93, 0x76, 0x69, 0xc0, 0x8b, 0x7f, 0x6a,
  0x83, 0xac, 0x8d, 0x7a, 0x9e, 0x58, 0x7e, 0x85, 0x72, 0x7a, 0x51, 0x5b,
  0x74, 0x71, 0x94, 0x6f, 0x80, 0xb4, 0x5f, 0x9b, 0x9a, 0x8f, 0x7f, 0x89,
  0x7c, 0x7c, 0x87, 0x76, 0x8a, 0x8f, 0x64, 0x8c, 0x77, 0x94, 0x80, 0x8a,
  0x8b, 0x78, 0x94, 0x94, 0x90, 0xa3, 0x71, 0x7a, 0x85, 0x99, 0xa1, 0x90,
  0x5b, 0x69, 0x63, 0x65, 0x61, 0x76, 0x5c, 0x9a, 0x82, 0x5a, 0xc3, 0x99,
  0x74, 0x82, 0x6b, 0x60, 0x76, 0x49, 0x88, 0x79, 0x64, 0x69, 0x81, 0x79,
  0x62, 0x5b, 0x7d, 0x48, 0x9b, 0x69, 0x96, 0x5f, 0x64, 0x4e, 0xa3, 0x51,
  0x80, 0x87, 0x87, 0x92, 0x7e, 0x6c, 0x91, 0x6a, 0xad, 0x92, 0x88, 0x9d,
  0x5c, 0x54, 0x8c, 0x5c, 0x86, 0x5a, 0x79, 0x81, 0x86, 0x51, 0x80, 0x66,
  0x8c, 0x70, 0x83, 0x66, 0x6b, 0x57, 0xb3, 0x61, 0xb9, 0xae, 0x81, 0x90,
  0x91, 0x40, 0xa5, 0x87, 0x94, 0x7b, 0x7a, 0x92, 0x67, 0x8c, 0xac, 0x81,
  0x9c, 0x6b, 0x69, 0x85, 0x7a, 0x77, 0x8f, 0x81, 0x85, 0x69, 0x54, 0x8d,
  0x73, 0x79, 0x9a, 0x8e, 0x85, 0x82, 0x91, 0x6c, 0x77, 0xaf, 0x63, 0x87,
  0x96, 0x7c, 0x96, 0x93, 0x95, 0x8f, 0x81, 0x50, 0x97, 0x9a, 0x6e, 0x90,
  0x80, 0x91, 0x97, 0x79, 0x9e, 0xaa, 0x94, 0x91, 0x82, 0x81, 0x9a, 0x75,
  0x8c, 0x9c, 0x98, 0x6d, 0x8a, 0x8d, 0x82, 0x6d, 0x6a, 0x6b, 0xa4, 0x6d,
  0x86, 0x95, 0xab, 0x90, 0x79, 0xb9, 0x80, 0x6a, 0x7c, 0x97, 0xa7, 0x82,
  0x98, 0x84, 0xbd, 0x86, 0x8c, 0x5c, 0xa1, 0xaa, 0x63, 0xb0, 0x67, 0x77,
  0x98, 0x6d, 0x9c, 0x8f, 0x77, 0x6a, 0x90, 0x7d, 0x81, 0x76, 0x8c, 0x77,
  0x76, 0x85, 0x96, 0x6b, 0x8b, 0x43, 0x9b, 0x73, 0x8b, 0x66, 0x88, 0x6b,
  0x70, 0x55, 0x7a, 0x57, 0xa0, 0x80, 0x7f, 0x5c, 0x6b, 0x59, 0x83, 0x6a,
  0xa5, 0x56, 0x89, 0x7c, 0x69, 0x59, 0x96, 0x4e, 0xa5, 0x81, 0x9c, 0x4f,
  0x87, 0x57, 0x99, 0x52, 0x8a, 0x89, 0x78, 0x7b, 0x9c, 0x40, 0x9b, 0x64,
  0x86, 0x70, 0x96, 0x89, 0x96, 0x70, 0x9a, 0x75, 0x6e, 0x8c, 0x73, 0x71,
  0x52, 0x76, 0xb6, 0x9d, 0xa9, 0x95, 0x6f, 0x7d, 0x85, 0x65, 0xa1, 0x8f,
  0xbe, 0x82, 0x65, 0x65, 0x5a, 0x92, 0xb0, 0x77, 0x97, 0xae, 0xb4, 0x9b,
  0x6c, 0xa1, 0xc7, 0x70, 0x95, 0x90, 0xb3, 0x82, 0x9c, 0xa3, 0x95, 0x74,
  0x80, 0x7b, 0x76, 0x99, 0x92, 0x7b, 0x9e, 0x7c, 0xa5, 0x8d, 0x9a, 0x72,
  0x7f, 0x98, 0xb2, 0x3c, 0x87, 0x84, 0x9d, 0x6b, 0x98, 0x6e, 0xba, 0x5d,
  0x87, 0x96, 0x7d, 0x85, 0x71, 0x88, 0xa4, 0x87, 0x6e, 0xb3, 0x97, 0x87,
  0x7b, 0x89, 0xa5, 0x7b, 0x5f, 0x7e, 0xcf, 0x8e, 0x7b, 0x53, 0x92, 0x95,
  0x67, 0x7c, 0x94, 0x97, 0x68, 0x59, 0xaa, 0x7b, 0xae, 0x75, 0x82, 0x7d,
  0x68, 0x78, 0x92, 0x82, 0x8b, 0x99, 0x63, 0x61, 0x9d, 0x3d, 0x6f, 0x62,
  0x8d, 0x6c, 0x6b, 0x6a, 0x67, 0x40, 0x77, 0x7f, 0x87, 0x8f, 0xb5, 0x61,
  0x77, 0x51, 0x81, 0x3d, 0xa0, 0x57, 0x81, 0x72, 0x69, 0x59, 0x94, 0x73,
  0x8e, 0x62, 0x99, 0x81, 0x80, 0x4f, 0x74, 0x7a, 0xa2, 0x6f, 0x9f, 0xa7,
  0x84, 0x3e, 0x9c, 0x73, 0x84, 0x97, 0x80, 0x61, 0x91, 0x62, 0x97, 0x55,
  0x99, 0xaa, 0x8f, 0x87, 0x6b, 0x86, 0xb3, 0x86, 0x8c, 0x6a, 0x7c, 0x86,
  0x80, 0x76, 0x7c, 0x65, 0x9c, 0x70, 0x9c, 0x93, 0x76, 0x7f, 0xb2, 0x45,
  0xc9, 0x5e, 0x96, 0x8e, 0x7f, 0x9a, 0x9a, 0x74, 0xb3, 0x81, 0xa0, 0x7c,
  0x95, 0x81, 0xa3, 0x66, 0xa5, 0x7e, 0x90, 0x6f, 0x60, 0x99, 0x94, 0x68,
  0x85, 0x96, 0x94, 0x66, 0x90, 0x81, 0xa4, 0x69, 0x78, 0x8a, 0x81, 0xa2,
  0x99, 0x8a, 0xba, 0x54, 0xa8, 0xa4, 0x96, 0x61, 0x88, 0x8b, 0xb4, 0x7f,
  0x76, 0x8f, 0x90, 0x86, 0x96, 0x82, 0xad, 0x96, 0x7e, 0xa1, 0x95, 0x94,
  0x91, 0x44, 0x75, 0x9d, 0x8e, 0x9d, 0x85, 0x85, 0x7a, 0x44, 0x91, 0x79,
  0x8c, 0x9a, 0x7c, 0x63, 0x84, 0x45, 0x77, 0x8d, 0x88, 0x4b, 0x92, 0x59,
  0x73, 0x74, 0x8b, 0x49, 0x81, 0x4d, 0x7d, 0x98, 0x7e, 0x3f, 0x85, 0x96,
  0x84, 0x61, 0x90, 0x80, 0x5c, 0x60, 0x77, 0x4f, 0x78, 0x5c, 0x90, 0x79,
  0x82, 0x63, 0x89, 0x56, 0x91, 0x66, 0xac, 0x97, 0x81, 0x57, 0x97, 0x64,
  0x78, 0x96, 0x98, 0x66, 0x87, 0x47, 0x98, 0x78, 0xab, 0x71, 0x65, 0x8e,
  0x76, 0x67, 0x8b, 0x84, 0xab, 0x74, 0x8b, 0x76, 0x86, 0x67, 0x90, 0x84,
  0x7d, 0x5b, 0x95, 0x89, 0x8f, 0x69, 0x8d, 0x95, 0x9c, 0x7a, 0x78, 0x9f,
  0x77, 0x65, 0x83, 0x6f, 0xaa, 0x85, 0xad, 0x5f, 0x95, 0x98, 0x90, 0xa2,
  0xbd, 0x96, 0x7f, 0x55, 0x80, 0x83, 0x7b, 0x6d, 0x81, 0x6b, 0x8c, 0xab,
  0x88, 0x68, 0xa7, 0x64, 0x94, 0x92, 0x7c, 0x79, 0x78, 0x87, 0x8b, 0x68,
  0x98, 0x96, 0x93, 0x8f, 0x94, 0x75, 0xa0, 0x48, 0x8d, 0xb0, 0xa2, 0x99,
  0x84, 0x77, 0xb3, 0x79, 0x87, 0xc0, 0x9e, 0xb1, 0x7a, 0x8a, 0xa3, 0x74,
  0x92, 0x8b, 0x94, 0xa4, 0x96, 0x64, 0x75, 0x94, 0x67, 0x8f, 0x86, 0x82,
  0x83, 0x50, 0xa0, 0x6c, 0x8a, 0x83, 0x92, 0x8f, 0x85, 0x7f, 0x83, 0x48,
  0xac, 0x69, 0x70, 0x5a, 0x7f, 0x5f, 0x9c, 0x62, 0x77, 0x6e, 0x72, 0x64,
  0x83, 0x46, 0xa1, 0x79, 0x62, 0x70, 0x7b, 0x61, 0x96, 0x5c, 0x7f, 0x5b,
  0x81, 0x31, 0x78, 0x7e, 0xa3, 0x67, 0x9d, 0x65, 0x7a, 0x66, 0x87, 0x4d,
  0x9b, 0x35, 0x8e, 0x9c, 0xa7, 0x67, 0x86, 0xa3, 0x90, 0x36, 0x90, 0x4b,
  0x70, 0xa8, 0x9c, 0x7e, 0x77, 0x4f, 0x8c, 0x74, 0x7f, 0xa5, 0x69, 0xa3,
  0x80, 0x67, 0x8d, 0x87, 0x89, 0x94, 0x81, 0x99, 0x7d, 0x4f, 0x7b, 0x5d,
  0x9a, 0x7e, 0x87, 0x7d, 0x5e, 0x6c, 0x75, 0x6c, 0x86, 0x6f, 0x9a, 0x7b,
  0x5d, 0x82, 0x79, 0x81, 0x86, 0x9b, 0xb7, 0x96, 0x7f, 0x6a, 0x75, 0x57,
  0x82, 0x7a, 0xa8, 0x85, 0x6c, 0x67, 0x83, 0x4b, 0x90, 0x77, 0x8a, 0x63,
  0x89, 0x62, 0x8d, 0x50, 0x6e, 0x7f, 0xa1, 0x7d, 0xa6, 0x88, 0x75, 0x6f,
  0x8e, 0x9d, 0x93, 0x81, 0x8b, 0x8d, 0x8f, 0x9a, 0x99, 0x8b, 0xbe, 0xaa,
  0x8c, 0x6a, 0x92, 0x66, 0x8a, 0xa1, 0x97, 0x9d, 0x96, 0x3e, 0x74, 0x5a,
  0x8d, 0x70, 0x8b, 0x7f, 0x56, 0x73, 0xa5, 0x84, 0x92, 0x87, 0x76, 0x38,
  0xab, 0x48, 0x86, 0x95, 0xab, 0x57, 0x7f, 0x7a, 0xa6, 0x70, 0x98, 0x4a,
  0x86, 0x76, 0x5c, 0x86, 0x7b, 0x4a, 0x9f, 0x68, 0x84, 0x85, 0x7c, 0x4f,
  0x9e, 0x67, 0x80, 0x6f, 0x77, 0x6a, 0x93, 0x86, 0x73, 0x47, 0x7f, 0x4f,
  0x97, 0x45, 0x7f, 0x5a, 0x7a, 0x42, 0x87, 0x50, 0x7c, 0x81, 0xa7, 0x85,
  0x7b, 0x5c, 0x94, 0x78, 0x5d, 0x8e, 0xa2, 0xbd, 0x79, 0x5d, 0x7d, 0x72,
  0x88, 0x64, 0x72, 0x97, 0x8a, 0x82, 0x7a, 0x74, 0x89, 0x79, 0x91, 0x87,
  0x94, 0x76, 0x76, 0x75, 0x8d, 0x6a, 0x92, 0xa0, 0x6f, 0x68, 0x78, 0x90,
  0x93, 0x8e, 0xad, 0x77, 0x90, 0x80, 0x7d, 0x7a, 0xae, 0x73, 0x85, 0x84,
  0x92, 0x96, 0x81, 0x7a, 0x54, 0x75, 0xb6, 0x7b, 0x76, 0x68, 0x82, 0x56,
  0x7d, 0x5f, 0x87, 0x95, 0x90, 0x5d, 0x72, 0x6f, 0x8e, 0x9a, 0x9a, 0x9a,
  0x60, 0x73, 0x7c, 0x54, 0xa5, 0x74, 0xbb, 0x7a, 0x75, 0x72, 0x92, 0x7e,
  0x8f, 0x8b, 0xa1, 0x9e, 0x81, 0x80, 0x99, 0x88, 0x53, 0x99, 0x99, 0x93,
  0x8a, 0x2c, 0xae, 0x70, 0x81, 0x77, 0x77, 0x8c, 0x95, 0x65, 0x9d, 0x77,
  0x97, 0x69, 0x77, 0x71, 0x7a, 0x34, 0x97, 0x72, 0xa2, 0x81, 0x97, 0x6f,
  0x92, 0x5a, 0xaa, 0x5f, 0x8c, 0x71, 0x76, 0x7e, 0x77, 0x58, 0xa1, 0x62,
  0x59, 0x54, 0x56, 0x64, 0xa0, 0x4b, 0xa1, 0x46, 0x60, 0x56, 0x85, 0x7a,
  0x7a, 0x68, 0x93, 0x60, 0x67, 0x72, 0x87, 0x8f, 0xa4, 0x4a, 0x78, 0x88,
  0x86, 0x70, 0xa6, 0xaa, 0x92, 0x1e, 0x85, 0x5f, 0x7a, 0x69, 0x70, 0x88,
  0x97, 0x65, 0x9a, 0x8f, 0x6d, 0x5f, 0x91, 0xa5, 0x94, 0x6c, 0x70, 0x6f,
  0x72, 0x91, 0x69, 0x72, 0x7b, 0x84, 0x76, 0x63, 0x95, 0x6c, 0x8a, 0x8c,
  0x92, 0x71, 0x63, 0x8d, 0x77, 0x72, 0xc9, 0x94, 0x5c, 0x6b, 0x7d, 0xa7,
  0x6e, 0x71, 0x95, 0x7f, 0x89, 0x86, 0x7e, 0x76, 0x5a, 0x51, 0xb6, 0x91,
  0x9b, 0x6d, 0x67, 0x67, 0x61, 0x9c, 0xa2, 0x9f, 0x90, 0x96, 0x88, 0x3c,
  0x7c, 0x8e, 0x95, 0x7a, 0x79, 0x8c, 0x66, 0x50, 0x99, 0x93, 0xb3, 0x9f,
  0x84, 0x7c, 0x82, 0x96, 0x6e, 0x80, 0x88, 0xb0, 0x97, 0x63, 0x6e, 0x80,
  0x88, 0x82, 0x9c, 0x91, 0xa2, 0x3c, 0xa3, 0x6c, 0x8a, 0x8c, 0x69, 0x6a,
  0x8a, 0x40, 0x9d, 0x84, 0x93, 0x76, 0x8b, 0x48, 0xa3, 0x4c, 0xa3, 0x4a,
  0x9f, 0x65, 0x92, 0x73, 0x94, 0x4a, 0xad, 0x46, 0x72, 0x53, 0x65, 0x4f,
  0x82, 0x32, 0x95, 0x77, 0x4d, 0x67, 0x81, 0x59, 0xa2, 0x41, 0x83, 0x80,
  0x90, 0x6d, 0x7e, 0x8c, 0xaa, 0x55, 0x84, 0x6b, 0x94, 0x3d, 0x9a, 0x6e,
  0x85, 0x41, 0x9e, 0x5f, 0x89, 0x91, 0x56, 0xa1, 0x99, 0x2e, 0x95, 0x5e,
  0x6a, 0x84, 0x9c, 0x88, 0x72, 0x5d, 0x79, 0x9e, 0x79, 0x82, 0x8b, 0x77,
  0x7d, 0x58, 0x79, 0xaa, 0x95, 0x89, 0x78, 0x9d, 0x8f, 0x6a, 0x87, 0x91,
  0x65, 0x53, 0x94, 0x83, 0x85, 0x8c, 0x64, 0x5d, 0xaa, 0x81, 0xad, 0x6a,
  0x6b, 0x8a, 0x7e, 0x76, 0xa5, 0x81, 0xa3, 0x8e, 0xae, 0x6e, 0x74, 0x83,
  0x76, 0x6a, 0xa3, 0xa5, 0x6a, 0x61, 0x81, 0x47, 0x69, 0x83, 0x75, 0x7c,
  0x6a, 0x69, 0x63, 0x55, 0x75, 0x6c, 0xa1, 0x8e, 0x80, 0x94, 0x6a, 0x66,
  0x76, 0x83, 0xa4, 0xa6, 0x84, 0x7e, 0x76, 0x76, 0xaa, 0xb0, 0xbf, 0xba,
  0x6e, 0x87, 0x7b, 0x85, 0x9b, 0x88, 0xa3, 0x89, 0x90, 0x2a, 0x91, 0x75,
  0x95, 0x8d, 0x72, 0xb5, 0x91, 0x56, 0xb2, 0x55, 0xb2, 0x75, 0x8e, 0x53,
  0x8c, 0x70, 0x87, 0x50, 0xc3, 0x5d, 0x88, 0x5b, 0x95, 0x2e, 0xbd, 0x56,
  0x7f, 0x61, 0x49, 0x4f, 0x5d, 0x4a, 0x9e, 0x7d, 0x5b, 0x5b, 0x80, 0x54,
  0x72, 0x3f, 0x97, 0x76, 0x78, 0x40, 0xa9, 0x7e, 0xa5, 0x5a, 0x9b, 0x54,
  0x95, 0x51, 0x82, 0x9a, 0x74, 0x66, 0x95, 0x5d, 0x81, 0x6f, 0x94, 0xad,
  0x7e, 0x50, 0x87, 0x6d, 0x77, 0x7e, 0x88, 0x7c, 0x61, 0x5e, 0x8f, 0x78,
  0x61, 0x8d, 0x90, 0x85, 0x77, 0x5a, 0x80, 0x86, 0x83, 0xa2, 0x86, 0x85,
  0x7e, 0x61, 0x87, 0x52, 0x8d, 0x70, 0x92, 0x99, 0x7e, 0x8a, 0x79, 0x70,
  0x9f, 0x7e, 0xb4, 0x65, 0x7a, 0x7c, 0x7b, 0x7b, 0x80, 0x78, 0xb4, 0xb7,
  0x79, 0x67, 0x86, 0x63, 0x75, 0x85, 0xa1, 0x71, 0x71, 0x4d, 0x83, 0x4f,
  0x83, 0x59, 0x92, 0x91, 0x82, 0x71, 0x6a, 0x4e, 0x60, 0x86, 0x8a, 0x81,
  0x6c, 0x83, 0x78, 0x6b, 0x88, 0x8f, 0xb7, 0x7d, 0x9a, 0x5e, 0x8d, 0x77,
  0x9e, 0x98, 0xab, 0x8e, 0x7a, 0x8f, 0x63, 0x95, 0xa3, 0x85, 0x92, 0x87,
  0x7e, 0x3a, 0xa3, 0xaf, 0x97, 0x7f, 0x80, 0x79, 0x82, 0x6a, 0xa7, 0x6d,
  0xb9, 0x62, 0x8b, 0x63, 0x97, 0x56, 0xa3, 0x57, 0xad, 0x4c, 0x90, 0x6f,
  0x90, 0x59, 0xca, 0x55, 0x8f, 0x4c, 0x7e, 0x6b, 0x72, 0x3b, 0xb3, 0x89,
  0x4a, 0x79, 0x6f, 0x41, 0x6c, 0x5e, 0xa5, 0x6f, 0x6a, 0x63, 0x9e, 0x6a,
  0x91, 0x6d, 0x92, 0x84, 0xa2, 0x62, 0xb8, 0x5c, 0xa4, 0x6c, 0x93, 0x7d,
  0x7b, 0x58, 0x71, 0x69, 0x9a, 0x51, 0x9b, 0x6a, 0x6f, 0x7e, 0x92, 0x84,
  0x95, 0x43, 0x87, 0x94, 0x73, 0x6c, 0x7d, 0x92, 0x71, 0x50, 0x92, 0x7e,
  0x65, 0x74, 0x6c, 0x8e, 0x8f, 0x61, 0x8f, 0x93, 0x72, 0x64, 0x8d, 0xb1,
  0x86, 0x7f, 0x8c, 0x7c, 0x9d, 0x6a, 0xa8, 0xa7, 0x66, 0x97, 0x96, 0xa0,
  0xa0, 0x8a, 0xbc, 0x89, 0x88, 0x64, 0x73, 0x69, 0x8e, 0x7f, 0x84, 0x7a,
  0x5f, 0x6f, 0x68, 0x72, 0x63, 0x54, 0xbb, 0xa4, 0x92, 0x86, 0x8c, 0x4b,
  0x84, 0x6c, 0x85, 0x61, 0x78, 0x8f, 0x60, 0x52, 0x71, 0x86, 0x95, 0x72,
  0x97, 0x67, 0x84, 0x9b, 0xa0, 0x90, 0xa7, 0x75, 0x8f, 0x5e, 0x75, 0x63,
  0x71, 0x99, 0x9f, 0x94, 0xa8, 0x3c, 0x94, 0x8d, 0x8b, 0x8e, 0x8a, 0xb6,
  0x81, 0x6f, 0xc3, 0x80, 0xb3, 0x93, 0x6e, 0x69, 0x81, 0x5d, 0x8d, 0x85,
  0xac, 0x6c, 0x85, 0x47, 0x8f, 0x43, 0xde, 0x3b, 0x8a, 0x4b, 0x6e, 0x5e,
  0x86, 0x44, 0xc0, 0x81, 0x54, 0x70, 0x70, 0x4f, 0x86, 0x59, 0xb1, 0x73,
  0x5d, 0x7b, 0x8a, 0x67, 0x92, 0x64, 0x92, 0x6a, 0x71, 0x5b, 0x95, 0x7d,
  0xa2, 0x34, 0x6e, 0x64, 0x6c, 0x57, 0x81, 0x6a, 0x6f, 0x38, 0x7c, 0x7b,
  0x7c, 0x54, 0xa2, 0x77, 0x62, 0x4d, 0x92, 0x79, 0x90, 0x88, 0x81, 0x65,
  0x54, 0x78, 0x86, 0x92, 0x81, 0x7b, 0x65, 0x6e, 0x76, 0x5d, 0x69, 0x77,
  0x85, 0x87, 0x92, 0x94, 0x96, 0x58, 0x75, 0x7c, 0xaa, 0x79, 0x92, 0x6c,
  0x92, 0x80, 0x71, 0x8c, 0x7b, 0x6c, 0xb9, 0x8c, 0x64, 0x7e, 0x7c, 0x69,
  0x5f, 0x5f, 0x9b, 0x8a, 0x80, 0x57, 0x6f, 0x73, 0x72, 0x4d, 0x87, 0x55,
  0x8a, 0x8f, 0x7b, 0x4e, 0x75, 0x75, 0xa2, 0xa0, 0x78, 0x82, 0x74, 0x53,
  0x74, 0x6e, 0x8e, 0xa5, 0xb6, 0x74, 0x72, 0x6b, 0x96, 0x60, 0xa1, 0xb0,
  0x9a, 0x76, 0x71, 0x7f, 0xa4, 0x7e, 0x95, 0x86, 0x59, 0x2d, 0xab, 0x7d,
  0x95, 0x84, 0x5f, 0x5f, 0x81, 0x3a, 0xab, 0x92, 0xbc, 0x9f, 0x71, 0x51,
  0x65, 0x4c, 0xa9, 0x3a, 0xa7, 0x92, 0x9a, 0x40, 0x5a, 0x40, 0xc4, 0x3f,
  0x89, 0x4c, 0x6e, 0x5b, 0x9d, 0x2e, 0xc7, 0x6b, 0x5f, 0x70, 0x75, 0x51,
  0x9f, 0x50, 0xaa, 0x61, 0x57, 0x7b, 0x8d, 0x50, 0x8f, 0x5e, 0x96, 0x8c,
  0xa8, 0x5d, 0xa5, 0x4d, 0x9d, 0x62, 0x81, 0x94, 0x62, 0x54, 0x72, 0x79,
  0x8b, 0x4e, 0x7e, 0x59, 0x71, 0x8f, 0x60, 0xae, 0xa3, 0x48, 0x89, 0x80,
  0x8a, 0x96, 0x6a, 0x71, 0x5f, 0x72, 0x7e, 0x82, 0x83, 0x62, 0x87, 0x8e,
  0xae, 0x73, 0x88, 0x6a, 0x86, 0x75, 0x8e, 0x8d, 0x9b, 0x76, 0x86, 0x99,
  0x9a, 0x72, 0xc3, 0x76, 0xa0, 0x6e, 0x8a, 0x88, 0x7f, 0x96, 0xb1, 0x8f,
  0x8f, 0x7e, 0x81, 0x56, 0x81, 0x7d, 0x8c, 0x96, 0x85, 0x79, 0x73, 0x66,
  0x81, 0x62, 0x97, 0x6c, 0xa7, 0x85, 0x7f, 0x39, 0x60, 0x5e, 0xc2, 0x9c,
  0x67, 0x83, 0x6b, 0x78, 0x7a, 0x76, 0xcd, 0x72, 0xb8, 0x6e, 0x7c, 0x79,
  0xa7, 0x64, 0xb4, 0xaa, 0x97, 0x6c, 0x67, 0x8f, 0x9c, 0x88, 0xa5, 0x7d,
  0x84, 0x42, 0x91, 0x6c, 0x87, 0x91, 0x7c, 0x9e, 0x5e, 0x5b, 0xb6, 0x82,
  0xb3, 0x78, 0x7e, 0x39, 0x87, 0x42, 0x97, 0x6a, 0xb2, 0x6f, 0x99, 0x5c,
  0x5d, 0x18, 0xbd, 0x31, 0x8e, 0x6f, 0x8b, 0x58, 0x76, 0x63, 0xc0, 0x4b,
  0x41, 0x4a, 0x84, 0x3c, 0x5c, 0x54, 0xad, 0x63, 0x70, 0x5e, 0x97, 0x75,
  0x91, 0x69, 0xa3, 0x63, 0x97, 0x85, 0xa0, 0x73, 0x60, 0x58, 0x86, 0x8d,
  0x90, 0x5b, 0x6b, 0x4b, 0x83, 0x35, 0x95, 0x66, 0x82, 0x89, 0x9c, 0x75,
  0x8e, 0x73, 0x92, 0x79, 0x6b, 0x73, 0x7d, 0x95, 0x76, 0x78, 0x6d, 0x74,
  0x7d, 0x6c, 0x92, 0x8a, 0x6f, 0x75, 0x74, 0x78, 0x7f, 0x8f, 0x9e, 0x66,
  0xa4, 0x7d, 0x6e, 0x7c, 0xb0, 0x92, 0x8a, 0x79, 0x7b, 0x94, 0x77, 0x95,
  0x6f, 0x85, 0xc3, 0x99, 0x89, 0x66, 0x79, 0x74, 0x5d, 0x8d, 0x9a, 0x67,
  0x82, 0x50, 0x78, 0x39, 0x8b, 0x5b, 0x78, 0x7c, 0x94, 0x72, 0x64, 0x5f,
  0x65, 0x57, 0xb6, 0x82, 0x89, 0x83, 0x5f, 0x72, 0x65, 0xa4, 0xb9, 0x6b,
  0x95, 0x8a, 0x73, 0x8d, 0x73, 0x70, 0x8f, 0x7f, 0x86, 0x54, 0x70, 0x8b,
  0x89, 0x7f, 0xa2, 0x81, 0x8a, 0x3c, 0x9f, 0x77, 0xa1, 0x9f, 0x86, 0x72,
  0x77, 0x4b, 0xae, 0x53, 0xad, 0x86, 0x76, 0x4d, 0x5f, 0x52, 0xbd, 0x61,
  0xb1, 0x51, 0x64, 0x32, 0x6a, 0x4a, 0xb9, 0x60, 0x6c, 0x63, 0x79, 0x57,
  0x6f, 0x42, 0xb2, 0x62, 0x44, 0x5f, 0x7f, 0x58, 0x8c, 0x3c, 0x88, 0x6c,
  0x8f, 0x83, 0x88, 0x47, 0x81, 0x63, 0x8f, 0x61, 0x89, 0x70, 0xb9, 0x59,
  0x8b, 0x2f, 0x88, 0x6f, 0x8d, 0x60, 0x6e, 0x7f, 0x96, 0x33, 0x96, 0x59,
  0x4d, 0x8d, 0x97, 0x94, 0x96, 0x3f, 0x8c, 0x6d, 0x7f, 0x60, 0xa7, 0x6c,
  0x85, 0x73, 0x7e, 0x89, 0x77, 0x84, 0x8d, 0x6c, 0x77, 0x63, 0x88, 0x5b,
  0x6d, 0x9a, 0x93, 0x9a, 0x95, 0x8f, 0x70, 0x7a, 0x91, 0x67, 0xa3, 0xa4,
  0x9d, 0x77, 0x81, 0xa5, 0x9c, 0x61, 0x88, 0x6d, 0xab, 0x4e, 0x87, 0x70,
  0x53, 0x62, 0x94, 0x65, 0x7a, 0x86, 0x82, 0x3a, 0x85, 0x88, 0xae, 0x75,
  0x98, 0x67, 0x6e, 0x70, 0x90, 0x83, 0xb7, 0x86, 0xa6, 0x76, 0x5b, 0x60,
  0x5e, 0x78, 0xab, 0x87, 0x8a, 0x8b, 0x87, 0x71, 0x8f, 0x8c, 0x8e, 0x86,
  0x98, 0x88, 0x73, 0x77, 0x80, 0x6c, 0xa8, 0x71, 0x83, 0x38, 0xab, 0xad,
  0x86, 0x96, 0x7f, 0x75, 0xa2, 0x59, 0xae, 0x86, 0xd3, 0x86, 0x77, 0x6b,
  0x8f, 0x41, 0x9c, 0x6e, 0x94, 0x64, 0x94, 0x60, 0x97, 0x39, 0xb9, 0x3b,
  0x7f, 0x6c, 0x69, 0x3a, 0x9c, 0x3a, 0xbd, 0x51, 0x59, 0x63, 0x6f, 0x5b,
  0xba, 0x57, 0xae, 0x4c, 0x59, 0x5c, 0xa9, 0x71, 0x87, 0x4d, 0x9b, 0x50,
  0xa1, 0x78, 0x94, 0x64, 0x8d, 0x5a, 0x86, 0x47, 0x98, 0x9b, 0x84, 0x7c,
  0x92, 0x48, 0x99, 0x7b, 0x77, 0x93, 0x98, 0x7c, 0x83, 0x43, 0x93, 0x92,
  0x86, 0x97, 0x90, 0x6e, 0x85, 0x36, 0x8c, 0x71, 0x53, 0x74, 0x6a, 0xaa,
  0x91, 0x63, 0x80, 0x72, 0x84, 0x66, 0x89, 0x7e, 0x74, 0x64, 0x7a, 0x92,
  0x78, 0x7d, 0xa0, 0x94, 0x93, 0x95, 0x7c, 0x87, 0xaa, 0x85, 0x99, 0x77,
  0x94, 0x59, 0x71, 0x73, 0x68, 0x4c, 0xa5, 0x81, 0xa8, 0x58, 0x7a, 0x58,
  0x57, 0x6c, 0xa9, 0x47, 0x60, 0x6b, 0x72, 0x62, 0x63, 0x71, 0xae, 0x71,
  0xa6, 0x86, 0x6f, 0x7b, 0x81, 0xa2, 0x9e, 0x69, 0xa3, 0x66, 0x67, 0x8c,
  0x70, 0x98, 0xb4, 0x9a, 0xaa, 0x92, 0x86, 0x95, 0x8b, 0x75, 0xa8, 0x7b,
  0xa2, 0x43, 0xc3, 0x8a, 0xab, 0x68, 0x70, 0xa2, 0x5a, 0x62, 0xc3, 0x64,
  0xda, 0x60, 0x97, 0x3b, 0x85, 0x40, 0xad, 0x69, 0xa9, 0x7b, 0x5c, 0x68,
  0xa4, 0x33, 0xc3, 0x5b, 0x8f, 0x97, 0x75, 0x74, 0x76, 0x2c, 0xc9, 0x5b,
  0x7a, 0x62, 0x88, 0x75, 0x8d, 0x61, 0xbe, 0x5f, 0x54, 0x7f, 0x9a, 0x79,
  0xa5, 0x5c, 0xa2, 0x6f, 0x78, 0x64, 0xac, 0x51, 0x94, 0x5d, 0xa4, 0x58,
  0x61, 0x92, 0xa3, 0x69, 0xae, 0x29, 0x8b, 0x53, 0x78, 0x77, 0x78, 0x8e,
  0x9c, 0x78, 0x92, 0x82, 0x74, 0x88, 0x5e, 0x7b, 0x93, 0x49, 0x88, 0x77,
  0x67, 0x9d, 0x8f, 0x79, 0x85, 0x6f, 0x7b, 0x99, 0x76, 0x8c, 0x97, 0x7d,
  0xa6, 0x87, 0x81, 0x94, 0x9b, 0x63, 0xbb, 0x8b, 0x9b, 0x81, 0x73, 0x77,
  0x83, 0x93, 0xba, 0x5c, 0x97, 0x4d, 0x6e, 0x79, 0x7b, 0x6a, 0xb3, 0x6a,
  0x99, 0x74, 0x78, 0x38, 0x5e, 0x63, 0x9c, 0x64, 0x91, 0x67, 0x76, 0x55,
  0x67, 0x7d, 0x9c, 0x78, 0x85, 0x4f, 0x63, 0x75, 0x5a, 0x84, 0xa6, 0x66,
  0x79, 0x8f, 0x61, 0x72, 0x63, 0x6f, 0x92, 0x81, 0xa0, 0x81, 0x7a, 0x8a,
  0x54, 0x78, 0xbc, 0x6d, 0x68, 0x54, 0xaf, 0x79, 0x8f, 0x79, 0x80, 0x81,
  0x78, 0x5b, 0xdb, 0x7b, 0xe2, 0x88, 0xa3, 0x54, 0x55, 0x41, 0xb3, 0x77,
  0xb4, 0x69, 0x85, 0x5b, 0x5f, 0x32, 0xd9, 0x31, 0x96, 0x76, 0x6a, 0x6b,
  0x72, 0x38, 0xcf, 0x46, 0x4b, 0x70, 0x6d, 0x3e, 0x91, 0x4f, 0xb9, 0x68,
  0x77, 0x80, 0x76, 0x65, 0x76, 0x75, 0xb1, 0x75, 0x90, 0x6c, 0xa6, 0x6e,
  0x98, 0x48, 0x91, 0x62, 0x95, 0x51, 0x85, 0x62, 0x8c, 0x22, 0xaa, 0x83,
  0x8e, 0x67, 0x80, 0x83, 0x89, 0x5f, 0x99, 0x6c, 0x58, 0x7a, 0x61, 0x7e,
  0x84, 0x5f, 0x92, 0xac, 0x80, 0x79, 0x7e, 0x5a, 0x9f, 0x4d, 0x7f, 0x64,
  0x86, 0x90, 0x95, 0x8f, 0x9f, 0x83, 0x6e, 0xa5, 0x8c, 0x63, 0xa5, 0x5d,
  0x8c, 0x89, 0x8b, 0x95, 0x86, 0x79, 0x9a, 0x73, 0xa1, 0x7e, 0x8b, 0x61,
  0x94, 0x90, 0x88, 0x66, 0xa1, 0x60, 0x76, 0x5b, 0x7c, 0x6d, 0x8c, 0x8f,
  0x87, 0x74, 0x7f, 0x47, 0x86, 0x7b, 0xa6, 0x65, 0x7b, 0x8b, 0x69, 0x7a,
  0x5d, 0x71, 0x93, 0x7e, 0x8d, 0x8c, 0x77, 0x81, 0x6e, 0x71, 0xab, 0x73,
  0x82, 0x77, 0x6b, 0x94, 0x95, 0x7b, 0xb8, 0x82, 0x85, 0x32, 0xc9, 0x9d,
  0xa8, 0x57, 0x8d, 0x8b, 0x72, 0x2e, 0xd3, 0x65, 0xe0, 0x88, 0xb1, 0x62,
  0x97, 0x5a, 0xc5, 0x58, 0x91, 0x6c, 0x6e, 0x50, 0x5a, 0x30, 0xe2, 0x51,
  0xaa, 0x5c, 0x43, 0x4f, 0x7e, 0x54, 0xed, 0x69, 0x74, 0x4d, 0x87, 0x65,
  0x66, 0x45, 0xba, 0x57, 0x58, 0x67, 0x81, 0x7a, 0x69, 0x5a, 0xaf, 0x47,
  0x88, 0x3f, 0x89, 0x55, 0x7e, 0x67, 0x9c, 0x8d, 0x85, 0x66, 0x6b, 0x5b,
  0x84, 0x3e, 0x9f, 0x66, 0x8b, 0x79, 0x60, 0x83, 0x8c, 0x3c, 0x8e, 0x84,
  0x64, 0xa1, 0x71, 0x89, 0x8f, 0x47, 0x9a, 0x79, 0x8f, 0xab, 0x8f, 0x7a,
  0x85, 0x56, 0x86, 0x57, 0x9c, 0x6a, 0x87, 0x45, 0x88, 0x74, 0x7e, 0xa6,
  0xa8, 0x7e, 0x76, 0x97, 0xa0, 0x98, 0x96, 0x7a, 0x86, 0x5a, 0x90, 0x55,
  0x86, 0x7e, 0x7e, 0x6d, 0x78, 0x92, 0x99, 0x64, 0x95, 0x4f, 0x73, 0x67,
  0x6f, 0x8a, 0x9d, 0x86, 0x79, 0x65, 0x79, 0x52, 0x64, 0x5e, 0x8a, 0x64,
  0x79, 0x7f, 0x5f, 0x70, 0x6f, 0x7c, 0xab, 0x8c, 0xab, 0x88, 0x74, 0x79,
  0x91, 0x69, 0xbc, 0x81, 0x8c, 0xac, 0x63, 0x7f, 0x6e, 0x8e, 0xbd, 0x86,
  0x79, 0x4b, 0xce, 0xa4, 0x7d, 0x68, 0x86, 0x8a, 0xa2, 0x2b, 0xb9, 0x6b,
  0xf4, 0x7b, 0x84, 0x6f, 0x5a, 0x2c, 0xa9, 0x6c, 0xbe, 0x6c, 0x63, 0x58,
  0x71, 0x1c, 0xf6, 0x37, 0x7e, 0x90, 0x69, 0x7c, 0x8f, 0x23, 0xdc, 0x56,
  0x60, 0x58, 0xb8, 0x7a, 0x7f, 0x4e, 0xd7, 0x55, 0x6c, 0x57, 0x90, 0x85,
  0x65, 0x47, 0xc6, 0x4f, 0x9a, 0x6d, 0xa4, 0x6e, 0x85, 0x43, 0x95, 0x4b,
  0x92, 0x81, 0xa5, 0x5f, 0x8f, 0x1f, 0x9f, 0x55, 0x8b, 0x7a, 0x99, 0x84,
  0x7b, 0x32, 0xa6, 0x60, 0x5a, 0x93, 0x78, 0x7f, 0x99, 0x4e, 0x8c, 0x6d,
  0x7d, 0x87, 0x6f, 0x8d, 0x79, 0x6c, 0x8b, 0x6a, 0x85, 0x62, 0x6d, 0x6e,
  0x87, 0x95, 0x82, 0x93, 0x8d, 0x96, 0xb1, 0x63, 0x83, 0x88, 0x6c, 0x8f,
  0x9a, 0x83, 0x9e, 0x87, 0x9c, 0x62, 0x93, 0x3d, 0x9a, 0x7d, 0xac, 0x84,
  0x8a, 0x60, 0x79, 0x4e, 0x71, 0x84, 0xb7, 0x5a, 0x8c, 0x46, 0x6d, 0x4c,
  0x75, 0x60, 0x76, 0x68, 0x95, 0x41, 0x73, 0x43, 0x7f, 0x88, 0xb6, 0x71,
  0x76, 0x83, 0x5b, 0x73, 0x8a, 0x65, 0xa1, 0x88, 0x79, 0x82, 0x63, 0x83,
  0x7f, 0x87, 0xb6, 0x79, 0x79, 0x61, 0xe7, 0x8b, 0x94, 0x80, 0x7e, 0x6a,
  0x65, 0x43, 0xd6, 0x5d, 0xa6, 0x84, 0x84, 0x84, 0x7d, 0x5c, 0xe3, 0x60,
  0xa3, 0x74, 0x87, 0x7d, 0xa3, 0x3c, 0xe7, 0x29, 0x56, 0x5e, 0x6c, 0x7a,
  0x67, 0x64, 0xff, 0x36, 0x53, 0x56, 0x88, 0xcc, 0x68, 0x5d, 0xc8, 0x28,
  0x51, 0x68, 0x91, 0xbc, 0x9b, 0x45, 0xad, 0x50, 0x84, 0x73, 0x63, 0x9f,
  0x93, 0x3d, 0xad, 0x2f, 0x72, 0x62, 0x63, 0x85, 0x93, 0x3e, 0xab, 0x4c,
  0x7e, 0x63, 0x85, 0xbe, 0x87, 0x50, 0x93, 0x37, 0x73, 0x7f, 0x90, 0x97,
  0x5a, 0x5e, 0x89, 0x3a, 0x60, 0x6e, 0x54, 0x9a, 0x90, 0x7f, 0x7a, 0x3d,
  0x5e, 0x7b, 0x87, 0x8e, 0x77, 0x76, 0x7e, 0x86, 0x8e, 0x8d, 0x84, 0x89,
  0xa9, 0x73, 0x9a, 0x87, 0x8f, 0x7b, 0xbe, 0x8e, 0x74, 0x6e, 0x71, 0x67,
  0x86, 0x81, 0x8a, 0x87, 0x86, 0x71, 0x8d, 0x46, 0xa3, 0x8a, 0x90, 0x6e,
  0x69, 0x64, 0x77, 0x38, 0x70, 0x72, 0x8b, 0x79, 0x6f, 0x62, 0x8e, 0x55,
  0x66, 0x75, 0xbb, 0x7a, 0x67, 0x7e, 0x73, 0x89, 0xa3, 0x79, 0x7b, 0x7f,
  0xa7, 0x9f, 0x70, 0x8e, 0x76, 0x7b, 0xa4, 0x85, 0x9a, 0x3b, 0x9c, 0x84,
  0x86, 0x5c, 0x74, 0x75, 0x82, 0x25, 0xd8, 0x6f, 0x7b, 0x87, 0x6b, 0x9e,
  0x77, 0x40, 0xd7, 0x2b, 0x69, 0x46, 0x7e, 0x6f, 0x5a, 0x34, 0xdd, 0x29,
  0x86, 0x5b, 0x55, 0x9e, 0xa5, 0x5f, 0xf6, 0x48, 0x54, 0x38, 0x69, 0x9f,
  0x64, 0x4f, 0xcd, 0x47, 0x59, 0x35, 0x6a, 0xba, 0x95, 0x4c, 0xd5, 0x37,
  0x91, 0x4c, 0x88, 0xb7, 0x7e, 0x5d, 0xae, 0x3d, 0x89, 0x3b, 0x5b, 0x9b,
  0xab, 0x38, 0x97, 0x65, 0x83, 0x64, 0x5f, 0x9c, 0x7c, 0x66, 0xae, 0x3d,
  0x71, 0x62, 0x59, 0xa3, 0x9a, 0x87, 0x93, 0x77, 0x91, 0x4d, 0x68, 0x95,
  0x64, 0x68, 0x8d, 0x54, 0x87, 0x62, 0x81, 0x6f, 0x96, 0x75, 0x95, 0x81,
  0x87, 0x57, 0x8a, 0xb0, 0xa6, 0x70, 0x9b, 0x6c, 0x81, 0x5f, 0x98, 0x84,
  0x8d, 0x6b, 0x8a, 0x61, 0x77, 0x8e, 0x75, 0x76, 0x74, 0x6c, 0x7a, 0x30,
  0x78, 0x63, 0x97, 0x7e, 0x7c, 0x80, 0x9d, 0x48, 0x79, 0x7d, 0x7d, 0x88,
  0x85, 0x82, 0x7d, 0x59, 0x8a, 0x79, 0xab, 0x86, 0x90, 0x91, 0x98, 0x86,
  0x65, 0x6a, 0x74, 0x6b, 0x94, 0x80, 0x77, 0x7b, 0x66, 0x86, 0xa3, 0x7f,
  0x81, 0xab, 0xa6, 0x8c, 0x92, 0x7d, 0x89, 0x6f, 0x7b, 0x6e, 0x71, 0x84,
  0x85, 0x71, 0x96, 0x94, 0x9e, 0x5c, 0x6e, 0x80, 0x7e, 0x69, 0x72, 0x68,
  0x8b, 0x66, 0x8e, 0x7b, 0x98, 0x8d, 0x92, 0x84, 0x81, 0x64, 0x88, 0x8b,
  0x80, 0xae, 0xa9, 0x78, 0x86, 0x7e, 0x83, 0x94, 0x70, 0x8f, 0xac, 0xa0,
  0xa1, 0x8c, 0x73, 0x78, 0xa8, 0x5f, 0xae, 0x73, 0x75, 0x85, 0x90, 0x8c,
  0x82, 0x94, 0x9f, 0x7d, 0x92, 0x88, 0x99, 0x8c, 0xa8, 0x88, 0x67, 0x71,
  0x9f, 0x84, 0x71, 0x8e, 0x78, 0x5f, 0x71, 0x65, 0x8d, 0x81, 0x6d, 0x7f,
  0x98, 0x8e, 0x7b, 0x72, 0x71, 0x9a, 0x53, 0x77, 0x67, 0x5b, 0xa2, 0x67,
  0x91, 0x7a, 0x5e, 0x7c, 0x8a, 0x70, 0x95, 0x6a, 0x8e, 0x93, 0x70, 0xa0,
  0x7a, 0x6f, 0x8d, 0x89, 0x8d, 0x74, 0x5e, 0x91, 0x8e, 0x7c, 0x78, 0x99,
  0x83, 0x98, 0x83, 0x83, 0x99, 0x67, 0x90, 0xa8, 0x78, 0x55, 0x68, 0x94,
  0xa1, 0x79, 0x8a, 0x96, 0xa0, 0x96, 0x65, 0xa0, 0x5f, 0x86, 0x92, 0x98,
  0x88, 0xa6, 0x4d, 0x80, 0xa5, 0x6d, 0x8a, 0x88, 0x75, 0x8b, 0x66, 0x57,
  0xa2, 0x81, 0x78, 0x63, 0x8e, 0x82, 0x7a, 0x9a, 0x7f, 0xa0, 0x5c, 0x60,
  0x8b, 0x6b, 0x82, 0x9a, 0x7e, 0x82, 0x74, 0x61, 0xa2, 0xa4, 0x93, 0x94,
  0x93, 0x79, 0x77, 0x89, 0x8f, 0x8f, 0x76, 0x68, 0x7d, 0x71, 0x88, 0x5d,
  0x7d, 0x8e, 0x91, 0xa8, 0x6c, 0x62, 0x8c, 0x8a, 0x7f, 0x86, 0x77, 0x71,
  0x67, 0x85, 0x79, 0x68, 0x8f, 0x59, 0x78, 0x87, 0x5d, 0x78, 0x8d, 0x67,
  0x81, 0x8f, 0x6c, 0x90, 0x71, 0x8d, 0x8b, 0x83, 0x6e, 0x87, 0x7b, 0x70,
  0x9c, 0x96, 0x73, 0x9b, 0x7f, 0x82, 0x70, 0x64, 0xa0, 0x85, 0x71, 0x91,
  0x82, 0x74, 0x76, 0x76, 0x7b, 0x63, 0x52, 0x7d, 0x78, 0x81, 0x8a, 0x71,
  0x82, 0x95, 0x74, 0x7d, 0x75, 0x61, 0x77, 0x78, 0x91, 0x6b, 0x7a, 0x99,
  0x92, 0x7b, 0xa4, 0x87, 0x83, 0xad, 0x8f, 0x8f, 0x86, 0x66, 0x95, 0x6c,
  0x6c, 0x72, 0x72, 0x86, 0x9c, 0x5d, 0x7c, 0x57, 0x70, 0x8c, 0x71, 0x59,
  0x99, 0x76, 0x70, 0x94, 0x6f, 0x91, 0x7e, 0x99, 0x8b, 0x8b, 0x7d, 0xa8,
  0x6c, 0x6b, 0x83, 0x94, 0xaf, 0x93, 0x7f, 0x72, 0x83, 0x96, 0x8b, 0x7b,
  0x99, 0x51, 0x81, 0x83, 0x8e, 0x87, 0xa6, 0x65, 0x7e, 0x77, 0xa1, 0xb3,
  0x8c, 0x52, 0x9d, 0x6c, 0x88, 0x86, 0x85, 0x5f, 0x71, 0x83, 0x79, 0x9f,
  0x65, 0xa6, 0xa1, 0x79, 0x71, 0x79, 0x64, 0x75, 0x7d, 0x7b, 0x8f, 0x75,
  0x98, 0xa2, 0x89, 0x64, 0x99, 0x90, 0x84, 0x81, 0x76, 0x74, 0x6e, 0x88,
  0x96, 0x9b, 0xa6, 0x7f, 0x70, 0x7b, 0x84, 0x77, 0x7b, 0x77, 0x8b, 0x73,
  0x76, 0x8e, 0x82, 0x83, 0x8e, 0x85, 0x8c, 0x85, 0x6b, 0x86, 0x6c, 0xaf,
  0x56, 0x7b, 0x86, 0x6d, 0x9e, 0x95, 0x65, 0x6d, 0x91, 0x6b, 0x9e, 0x8a,
  0xba, 0x88, 0x65, 0xac, 0x93, 0x66, 0x8f, 0x89, 0x70, 0x9c, 0x67, 0xa2,
  0x71, 0x7f, 0x79, 0x8a, 0x89, 0x7a, 0x5b, 0x86, 0x85, 0x75, 0x7d, 0x75,
  0x7a, 0x60, 0x76, 0x70, 0x9d, 0x96, 0x63, 0x71, 0x85, 0x81, 0x71, 0x5c,
  0x7b, 0x72, 0x73, 0x81, 0x72, 0x8c, 0x84, 0x9b, 0x7c, 0x8a, 0x89, 0x79,
  0x6e, 0x86, 0x8c, 0xa1, 0xaa, 0x74, 0x95, 0x80, 0x70, 0x87, 0x76, 0x9f,
  0xa1, 0x7a, 0x7a, 0x69, 0x6c, 0x75, 0x62, 0x8d, 0x8a, 0xac, 0x6c, 0x7d,
  0x86, 0x68, 0x94, 0x9c, 0x9e, 0x9f, 0x80, 0x80, 0x60, 0x8c, 0x7e, 0x78,
  0x5e, 0x70, 0x6f, 0x5f, 0x87, 0x68, 0x74, 0x98, 0x7c, 0x95, 0x79, 0x99,
  0x64, 0x74, 0x9f, 0x80, 0xa2, 0x96, 0x5f, 0x7f, 0x62, 0x8a, 0x72, 0x79,
  0x67, 0x94, 0xa5, 0x9b, 0x6b, 0x81, 0x78, 0xa4, 0x64, 0x90, 0xaf, 0x81,
  0x6b, 0x74, 0x6a, 0x71, 0x89, 0x95, 0x9e, 0x6a, 0x77, 0x68, 0x86, 0x67,
  0x8b, 0x97, 0x9c, 0x89, 0x80, 0x86, 0x84, 0x9f, 0x61, 0x76, 0x80, 0xb6,
  0x80, 0x70, 0x7e, 0x8f, 0x82, 0x7b, 0x8c, 0xaa, 0xae, 0x95, 0x44, 0x7e,
  0x83, 0x77, 0x7b, 0x81, 0x9a, 0x83, 0x61, 0xa8, 0x73, 0x75, 0xa6, 0x96,
  0x62, 0xa2, 0x5c, 0xa1, 0x86, 0x7e, 0x79, 0x92, 0x84, 0x81, 0x60, 0x8d,
  0x6f, 0x7b, 0x79, 0x6c, 0x92, 0x61, 0x6d, 0x82, 0x5f, 0xb0, 0x8a, 0x87,
  0xa2, 0x92, 0x8a, 0xb4, 0x9f, 0x79, 0x60, 0x9c, 0x7d, 0x86, 0x68, 0xa2,
  0x95, 0x7e, 0x76, 0x74, 0x7b, 0x98, 0x7f, 0x90, 0xb4, 0x86, 0x70, 0x84,
  0x7a, 0x68, 0x7c, 0x82, 0x91, 0x97, 0x4b, 0x76, 0x7e, 0x5f, 0x81, 0x5d,
  0x6c, 0x9d, 0x8b, 0x80, 0x81, 0x74, 0x8f, 0x88, 0x8d, 0x86, 0x85, 0x6f,
  0x6f, 0x86, 0x6f, 0x6c, 0x81, 0x8b, 0x80, 0x62, 0x84, 0x86, 0x99, 0x95,
  0x85, 0xa3, 0x84, 0x7c, 0x74, 0x7b, 0x81, 0x93, 0x5c, 0x97, 0x9b, 0x86,
  0x5b, 0x80, 0x8c, 0xa1, 0x6e, 0x5d, 0x88, 0x7d, 0x90, 0xa8, 0x6f, 0x88,
  0x64, 0x8e, 0x86, 0x86, 0x74, 0x73, 0x7b, 0x70, 0xa5, 0x8e, 0x86, 0xa0,
  0x53, 0x5e, 0x9a, 0x7c, 0xa7, 0x94, 0x7a, 0x9c, 0x6a, 0x5d, 0x9f, 0x79,
  0x8b, 0x85, 0x88, 0x9f, 0xae, 0x91, 0x69, 0x8c, 0x8a, 0x6e, 0x99, 0xd5,
  0x8e, 0xa2, 0x6b, 0xb2, 0x98, 0x6f, 0x89, 0x85, 0xb1, 0xa1, 0x43, 0x93,
  0x97, 0x70, 0x78, 0xa6, 0x86, 0x95, 0x3e, 0x99, 0x5f, 0x76, 0x7f, 0x9a,
  0x6a, 0x73, 0x54, 0x8b, 0x8a, 0x7b, 0x66, 0x83, 0x8d, 0x9a, 0x6c, 0x7d,
  0x7c, 0x8e, 0x92, 0x7c, 0x6e, 0x84, 0x81, 0x5d, 0x88, 0x7d, 0x77, 0x94,
  0x7b, 0x81, 0x74, 0xb7, 0x71, 0x7c, 0x6e, 0x8c, 0x71, 0x98, 0x89, 0x97,
  0x79, 0x77, 0x5c, 0x8b, 0x74, 0x8c, 0x8a, 0x92, 0xb8, 0x92, 0x83, 0x8d,
  0x78, 0x66, 0x8e, 0x91, 0x90, 0xa0, 0x8a, 0x7c, 0x9d, 0x7d, 0x8a, 0x89,
  0x8b, 0x88, 0x6b, 0x79, 0x5c, 0x74, 0x8e, 0x68, 0x80, 0x84, 0x8d, 0x88,
  0x86, 0x6b, 0x6e, 0x68, 0x8a, 0xbc, 0x62, 0x91, 0x60, 0xaf, 0x82, 0x93,
  0x87, 0xad, 0x81, 0xa3, 0x73, 0x82, 0x6b, 0x82, 0x8a, 0x73, 0x92, 0xa0,
  0x95, 0xa5, 0x71, 0x8c, 0x88, 0x92, 0x81, 0x8c, 0x5d, 0x7d, 0x7e, 0x8f,
  0x8d, 0x95, 0x9a, 0xa0, 0x52, 0x64, 0x79, 0x80, 0xa6, 0xad, 0x65, 0xb9,
  0x7d, 0x6f, 0x88, 0x72, 0x6e, 0x9b, 0x73, 0xb7, 0x90, 0x8b, 0x58, 0x72,
  0x79, 0x69, 0x66, 0xa6, 0xac, 0xa7, 0x63, 0xcf, 0x78, 0x5f, 0x72, 0xb5,
  0x8e, 0xa5, 0x47, 0x98, 0x67, 0x4c, 0x69, 0x98, 0x78, 0x83, 0x52, 0x9b,
  0x94, 0x80, 0x7b, 0x97, 0x80, 0x82, 0x7a, 0x9c, 0x81, 0x68, 0x84, 0x95,
  0x79, 0x86, 0x73, 0xa2, 0x95, 0x96, 0x83, 0x90, 0x70, 0x7e, 0x7a, 0xb3,
  0x9c, 0x72, 0x7f, 0xad, 0x80, 0x78, 0x79, 0x9f, 0x9c, 0x6e, 0x68, 0x95,
  0x89, 0x7f, 0x65, 0xa4, 0x81, 0x7a, 0x6a, 0xa1, 0x9d, 0x90, 0x9d, 0x90,
  0x8c, 0x78, 0x7b, 0xa4, 0x64, 0x90, 0x80, 0x8b, 0x87, 0xb2, 0x6c, 0x7d,
  0x6c, 0x85, 0x95, 0x8b, 0x98, 0x78, 0x98, 0x72, 0x6c, 0x6e, 0xa3, 0x72,
  0x69, 0x7b, 0x90, 0x8c, 0x81, 0x60, 0x90, 0x77, 0x99, 0xb3, 0x7c, 0x8b,
  0x7d, 0x77, 0x9c, 0x80, 0x72, 0xb2, 0x7e, 0x9e, 0x74, 0x94, 0x69, 0x82,
  0x91, 0x65, 0x8f, 0xbe, 0x88, 0xa5, 0x81, 0x9f, 0x7f, 0x82, 0x8e, 0x97,
  0x6e, 0x78, 0x76, 0x95, 0xa9, 0x78, 0x8c, 0xb3, 0x85, 0x50, 0x81, 0x7b,
  0x71, 0x8f, 0x97, 0xc8, 0x77, 0x64, 0x76, 0x88, 0x8a, 0x86, 0x52, 0xe3,
  0xa6, 0x7b, 0x6d, 0x9a, 0x92, 0x85, 0x79, 0xc9, 0x8d, 0xb8, 0x68, 0xb0,
  0x72, 0x4e, 0x6a, 0x8b, 0x9d, 0xb9, 0x57, 0xa5, 0x8c, 0x57, 0x7f, 0xa4,
  0x9c, 0xa8, 0x5f, 0x86, 0x8b, 0x84, 0x73, 0xae, 0x5a, 0x8f, 0x5d, 0x92,
  0x7e, 0x54, 0x7b, 0x92, 0x5f, 0xa0, 0x8f, 0x97, 0x6d, 0x8a, 0x71, 0xa9,
  0x88, 0x5c, 0x63, 0x8d, 0x6c, 0x87, 0x69, 0xa9, 0x83, 0x7d, 0x6b, 0x9b,
  0x8d, 0x7b, 0x67, 0xac, 0x90, 0x9b, 0x77, 0xbb, 0x98, 0x7e, 0x78, 0xa8,
  0x75, 0x80, 0x88, 0x84, 0x88, 0xa2, 0x75, 0x9c, 0x63, 0x6d, 0x75, 0x88,
  0x83, 0x87, 0x8b, 0x73, 0x8c, 0x8e, 0x87, 0x95, 0xb0, 0x88, 0x9c, 0x8f,
  0x59, 0x6d, 0x82, 0x6f, 0xaf, 0x79, 0x7d, 0x7d, 0x86, 0xa4, 0x9b, 0x8b,
  0x82, 0x9d, 0x63, 0xa5, 0x6f, 0x8b, 0x83, 0x80, 0x9a, 0xce, 0x69, 0x9e,
  0xb0, 0x96, 0x92, 0x91, 0x7a, 0x72, 0x96, 0xd3, 0x8e, 0xa3, 0x72, 0xb2,
  0x82, 0x8b, 0x92, 0x9d, 0x6f, 0x7c, 0x77, 0x9a, 0x79, 0x82, 0x85, 0xb3,
  0x6f, 0x4b, 0x8f, 0x7f, 0x91, 0x8a, 0x88, 0xd4, 0x88, 0x43, 0x65, 0x7e,
  0x65, 0x92, 0x86, 0xeb, 0x9c, 0x70, 0x5d, 0x89, 0x81, 0x67, 0x79, 0xc5,
  0xa8, 0x9d, 0x4f, 0x9d, 0x78, 0x65, 0x71, 0xa6, 0xa6, 0x98, 0x4f, 0xbc,
  0x94, 0x66, 0x85, 0xa8, 0x76, 0xa9, 0x4b, 0x8b, 0x95, 0x80, 0x84, 0x95,
  0x61, 0x7e, 0x67, 0x6f, 0x94, 0x67, 0x81, 0xa4, 0x6d, 0x81, 0x73, 0x72,
  0x80, 0x72, 0x7f, 0xba, 0xa7, 0x61, 0x77, 0xa1, 0x9b, 0x92, 0x69, 0xba,
  0x7b, 0x84, 0x89, 0x9a, 0x71, 0x74, 0x7a, 0x9c, 0xb0, 0x93, 0x5d, 0xc8,
  0x8c, 0x7c, 0x86, 0x97, 0x87, 0x9f, 0x84, 0x96, 0x76, 0x80, 0x81, 0xb3,
  0x8e, 0x96, 0x66, 0x88, 0x8e, 0xaa, 0x73, 0x76, 0x74, 0x8b, 0x95, 0xa1,
  0x81, 0xa5, 0x96, 0x74, 0x81, 0x85, 0x79, 0x80, 0x59, 0x96, 0x7c, 0x9f,
  0x83, 0x73, 0x84, 0x95, 0x9b, 0x89, 0x77, 0x91, 0x7b, 0xa3, 0xa3, 0x6f,
  0x94, 0xc5, 0x6c, 0x97, 0x9d, 0xa8, 0x66, 0x9b, 0x88, 0x83, 0x9e, 0xc4,
  0x8c, 0xa9, 0x72, 0xa2, 0x8e, 0x82, 0x96, 0xab, 0x77, 0x89, 0x6f, 0x9d,
  0x84, 0x94, 0x87, 0xa8, 0x7d, 0x69, 0x86, 0x78, 0x82, 0xa7, 0x90, 0xc2,
  0x85, 0x60, 0x75, 0x6e, 0x8f, 0x67, 0x79, 0xea, 0xa0, 0x8c, 0x54, 0x96,
  0x89, 0x79, 0x73, 0xe4, 0x98, 0xba, 0x51, 0x90, 0x8c, 0x6b, 0x85, 0xa5,
  0x9a, 0xb1, 0x57, 0x9c, 0x87, 0x70, 0x77, 0xa3, 0x6f, 0x9b, 0x50, 0xae,
  0x8b, 0x7f, 0x7b, 0x8b, 0x80, 0x7a, 0x66, 0x61, 0xa0, 0x79, 0x80, 0xbc,
  0x7c, 0x6c, 0x87, 0x82, 0x90, 0x64, 0x8c, 0xa2, 0x75, 0x61, 0x61, 0x88,
  0x5f, 0x53, 0x5e, 0xa1, 0x95, 0x76, 0x82, 0x95, 0x72, 0x76, 0x7e, 0xaf,
  0x9f, 0x8a, 0x54, 0xa8, 0x63, 0x45, 0x86, 0xa1, 0x7f, 0x97, 0x7b, 0xb6,
  0x68, 0x8f, 0x6e, 0x9c, 0x7c, 0x88, 0x76, 0x77, 0xa4, 0x77, 0x77, 0x8c,
  0xa4, 0x8f, 0x8f, 0x97, 0x8b, 0xa6, 0x91, 0x61, 0x65, 0x85, 0x8a, 0x8a,
  0x7b, 0x95, 0x65, 0x84, 0x8b, 0xa8, 0x91, 0x89, 0x78, 0xaa, 0x74, 0xae,
  0x72, 0x6c, 0x8b, 0x86, 0x83, 0xc4, 0x6a, 0xc8, 0xa5, 0x83, 0x81, 0x90,
  0x9d, 0x80, 0x9a, 0xae, 0x8c, 0xbc, 0x6d, 0xc3, 0x79, 0x8a, 0x8e, 0xb0,
  0x71, 0x90, 0x7d, 0x9d, 0x66, 0x8d, 0x8a, 0xc0, 0x90, 0x6b, 0x83, 0x76,
  0x8e, 0x84, 0x74, 0xd7, 0x8d, 0x4d, 0x51, 0x84, 0x7f, 0xa9, 0x80, 0xe6,
  0xa5, 0x82, 0x74, 0x9d, 0xa0, 0x86, 0x87, 0xd6, 0x8c, 0xb0, 0x58, 0xab,
  0x57, 0x85, 0x68, 0xb1, 0x9c, 0xd0, 0x52, 0xb7, 0x84, 0x6e, 0x7a, 0xa0,
  0xa1, 0x91, 0x5b, 0x88, 0x97, 0x7c, 0x73, 0x94, 0x81, 0x92, 0x80, 0x7e,
  0x79, 0x5e, 0x7e, 0xbd, 0x8f, 0x74, 0x69, 0x96, 0xa4, 0x60, 0x76, 0xa1,
  0x80, 0x6f, 0x64, 0x86, 0x89, 0x89, 0x88, 0xb5, 0x93, 0x70, 0x60, 0x7e,
  0x73, 0x8a, 0x70, 0xb8, 0x99, 0x76, 0x64, 0x9b, 0xa1, 0x47, 0x78, 0xa2,
  0x7f, 0x83, 0x78, 0x98, 0xa5, 0x77, 0x84, 0xba, 0x72, 0x7f, 0x8f, 0x8d,
  0x84, 0x9b, 0x8b, 0x6e, 0x96, 0x76, 0x85, 0x86, 0x71, 0x85, 0x87, 0x7d,
  0x82, 0x6f, 0x78, 0x7c, 0xb1, 0x94, 0xa4, 0x6f, 0x83, 0x62, 0x7b, 0x95,
  0x60, 0x9b, 0x73, 0xc8, 0x70, 0x6d, 0x61, 0x9b, 0x7a, 0xb6, 0x6e, 0xa3,
  0x9c, 0xa9, 0x9e, 0xa0, 0x71, 0x7a, 0x84, 0xc7, 0x88, 0x98, 0x7c, 0xbd,
  0x7f, 0x75, 0x81, 0xc0, 0x8e, 0x83, 0x89, 0x95, 0x84, 0x92, 0xa2, 0xaf,
  0x8f, 0x6c, 0x81, 0x6d, 0xa1, 0x9e, 0x8b, 0xdf, 0x7d, 0x62, 0x55, 0x8f,
  0x7e, 0x9d, 0x77, 0xe8, 0x96, 0x87, 0x75, 0xa3, 0x75, 0x86, 0x6e, 0xdc,
  0x96, 0xb4, 0x57, 0xa8, 0x6f, 0x90, 0x8d, 0xde, 0x9a, 0xa8, 0x5c, 0xa5,
  0x78, 0x65, 0x71, 0xb2, 0x8c, 0x8a, 0x57, 0x95, 0x7d, 0x94, 0x84, 0x8a,
  0x85, 0x5f, 0x83, 0x7e, 0x7e, 0x76, 0x78, 0xc9, 0x6b, 0x4d, 0x63, 0x91,
  0x6b, 0x6d, 0x7e, 0x94, 0x70, 0x8e, 0x65, 0x88, 0xa9, 0x72, 0x83, 0x96,
  0x75, 0x72, 0x75, 0x6d, 0x89, 0x8b, 0x65, 0x8d, 0xa1, 0x8e, 0x64, 0xa7,
  0x82, 0x75, 0x93, 0xa5, 0x85, 0x8d, 0x6a, 0xa2, 0xb1, 0x90, 0x61, 0xa4,
  0x7d, 0xa1, 0xa1, 0xb5, 0x9d, 0x63, 0x82, 0x7e, 0x7d, 0x9d, 0x5a, 0x95,
  0x84, 0x88, 0x76, 0x7c, 0x7e, 0x81, 0x82, 0x79, 0x81, 0x9d, 0x7b, 0x8c,
  0x80, 0x7f, 0x5f, 0x5e, 0x9d, 0x91, 0x7c, 0xe6, 0x6c, 0x9f, 0x58, 0xae,
  0x93, 0xad, 0x7c, 0xa3, 0x93, 0x91, 0x7f, 0xa9, 0x6c, 0x84, 0x86, 0xb3,
  0x8f, 0x84, 0x6d, 0xb4, 0x84, 0x7c, 0x75, 0x9f, 0x74, 0xa2, 0x7a, 0xa1,
  0x74, 0x73, 0x81, 0xac, 0x98, 0x6d, 0x98, 0x7a, 0x72, 0xa4, 0x82, 0xde,
  0xa5, 0x79, 0x7b, 0x8b, 0x7e, 0x89, 0x99, 0xed, 0xaa, 0x8c, 0x61, 0x94,
  0x93, 0x95, 0x8a, 0xc8, 0x8c, 0xa2, 0x53, 0xb2, 0x73, 0x6d, 0x6b, 0xa3,
  0x91, 0xd7, 0x52, 0xa2, 0x7c, 0x71, 0x7e, 0xc7, 0x85, 0xb5, 0x6e, 0x95,
  0x93, 0x8d, 0x89, 0x98, 0x89, 0x83, 0x64, 0x59, 0xa8, 0x72, 0x6c, 0xae,
  0x87, 0x57, 0x66, 0x8f, 0x61, 0x86, 0x7f, 0x8c, 0x7c, 0x65, 0x60, 0x95,
  0x9f, 0x79, 0x7d, 0x8c, 0x93, 0x97, 0x89, 0x84, 0x78, 0x9c, 0x88, 0xb0,
  0x80, 0x87, 0x7a, 0xa5, 0x7d, 0x86, 0x71, 0xa3, 0x89, 0x70, 0x7b, 0xa4,
  0x96, 0x7c, 0x70, 0x84, 0x76, 0x84, 0x7b, 0x80, 0x92, 0x95, 0x77, 0x72,
  0x8a, 0x85, 0x8a, 0x9a, 0x73, 0x51, 0x81, 0x7a, 0x72, 0x8d, 0x7e, 0x7f,
  0x76, 0x87, 0x6e, 0x8f, 0x9a, 0x77, 0x54, 0x7d, 0x70, 0x70, 0x8a, 0xae,
  0x76, 0x79, 0x43, 0xbc, 0x76, 0xbc, 0x68, 0xa5, 0xa4, 0x96, 0x7d, 0xa8,
  0x9e, 0x80, 0x90, 0xc0, 0x96, 0x84, 0x7d, 0xcc, 0x7a, 0x79, 0x73, 0xb4,
  0x82, 0x7c, 0x85, 0xa3, 0x80, 0x8c, 0x7e, 0xb0, 0x93, 0x61, 0x88, 0x6d,
  0x77, 0xae, 0x90, 0xcf, 0xa3, 0x6a, 0x86, 0x73, 0x87, 0xa4, 0x8a, 0xd5,
  0xab, 0x95, 0x5d, 0x8e, 0x7e, 0x98, 0x7c, 0xdb, 0x98, 0xb0, 0x4a, 0xa0,
  0x88, 0x8d, 0x7d, 0xab, 0xa8, 0xbe, 0x4f, 0xcc, 0x80, 0x6b, 0x8c, 0xc4,
  0x82, 0xa2, 0x5a, 0x97, 0xb1, 0x84, 0x82, 0xa9, 0x94, 0x75, 0x6b, 0x94,
  0x5e, 0x6d, 0x88, 0x8c, 0x7d, 0x5d, 0x77, 0xb6, 0xa2, 0x79, 0x74, 0x87,
  0x6b, 0x65, 0x5b, 0xa3, 0x7a, 0x86, 0x80, 0x95, 0x91, 0x73, 0x74, 0x68,
  0x64, 0x88, 0x8a, 0xb8, 0xa5, 0x67, 0x82, 0xb1, 0x92, 0x61, 0x71, 0xc1,
  0x81, 0x76, 0x6e, 0xac, 0xb2, 0x8b, 0x71, 0x9d, 0x6a, 0x74, 0x73, 0x8a,
  0x78, 0x86, 0x8a, 0x7e, 0x91, 0x99, 0x75, 0x78, 0x7e, 0x51, 0x6d, 0x85,
  0x97, 0x79, 0x88, 0x7f, 0x7c, 0x8f, 0x81, 0x69, 0x8b, 0x8f, 0x67, 0x80,
  0x7b, 0x88, 0x80, 0xa2, 0x89, 0x7e, 0x72, 0xb4, 0x8a, 0xce, 0x72, 0x90,
  0x6e, 0xae, 0x7c, 0xac, 0x7d, 0x96, 0x81, 0xc6, 0x8e, 0x8f, 0x7e, 0xb0,
  0x85, 0x62, 0x7d, 0xb2, 0x65, 0x82, 0x72, 0x9f, 0xa5, 0x87, 0x84, 0xa4,
  0x82, 0x64, 0xa4, 0x7c, 0x5b, 0xa9, 0x90, 0xca, 0xa9, 0x69, 0x8d, 0x7a,
  0x78, 0x93, 0x78, 0xcb, 0xb1, 0x7b, 0x75, 0x86, 0x9a, 0x83, 0x82, 0xe4,
  0x9a, 0xd7, 0x58, 0x9f, 0x70, 0x83, 0x8d, 0xb3, 0x97, 0xc2, 0x36, 0xc9,
  0x89, 0x75, 0x8b, 0xa7, 0x87, 0x98, 0x59, 0xaf, 0x87, 0x93, 0x8d, 0xb9,
  0x7d, 0x77, 0x63, 0xa5, 0x7c, 0x60, 0x8e, 0x9a, 0x8c, 0x5b, 0x6b, 0x99,
  0x9d, 0x73, 0x92, 0x74, 0x84, 0x6b, 0x66, 0x8e, 0x85, 0x75, 0x76, 0xa7,
  0x8d, 0x7c, 0x59, 0x80, 0x80, 0x75, 0x74, 0xa3, 0xa4, 0x5e, 0x88, 0x92,
  0x85, 0x6b, 0x87, 0xa6, 0x8f, 0x87, 0x84, 0x9a, 0x8f, 0x7f, 0x5e, 0x97,
  0x64, 0x86, 0x62, 0x8e, 0x9c, 0x81, 0x7c, 0x8b, 0x8b, 0xa9, 0x6f, 0x78,
  0x63, 0xa1, 0x85, 0x5c, 0x6d, 0x8c, 0x6e, 0x8f, 0x85, 0x91, 0x76, 0x6e,
  0x91, 0x87, 0x5a, 0xa6, 0x64, 0x8c, 0x90, 0xd0, 0x7c, 0x5d, 0x5b, 0xaa,
  0x6d, 0xb1, 0x5a, 0xab, 0x94, 0x9d, 0x6b, 0x80, 0x8f, 0x7c, 0x97, 0xb8,
  0x93, 0x8c, 0x6f, 0xb9, 0x86, 0x8c, 0x8f, 0xb6, 0x8c, 0xa8, 0x6c, 0x9e,
  0x75, 0x75, 0xa1, 0x96, 0x8d, 0x56, 0x8a, 0x92, 0x4b, 0xb4, 0x77, 0xd7,
  0xa7, 0x67, 0x79, 0x82, 0x84, 0xac, 0x5e, 0xd5, 0xa9, 0x73, 0x69, 0x90,
  0x8c, 0x92, 0x78, 0xcd, 0x92, 0xce, 0x65, 0xc4, 0x76, 0x92, 0x84, 0xb0,
  0x9f, 0xc2, 0x40, 0xcc, 0x7a, 0x85, 0x89, 0xb8, 0x91, 0xaa, 0x50, 0xae,
  0x92, 0x73, 0x69, 0xc5, 0x83, 0x79, 0x55, 0x98, 0x6d, 0x6e, 0x76, 0xae,
  0x94, 0x74, 0x6f, 0x9b, 0x7f, 0x75, 0x68, 0x7e, 0x7b, 0x71, 0x60, 0x8f,
  0xa3, 0x86, 0x74, 0xb2, 0x85, 0x70, 0x68, 0x81, 0xa6, 0x74, 0x7b, 0xb5,
  0x8c, 0x62, 0x72, 0x7b, 0x8f, 0x76, 0x77, 0xb0, 0x79, 0x61, 0x74, 0xa4,
  0x93, 0x90, 0x82, 0xc3, 0x76, 0x75, 0x5d, 0x87, 0x89, 0x51, 0x77, 0x69,
  0x6f, 0x9a, 0x6e, 0x95, 0x89, 0x83, 0x71, 0x74, 0x73, 0x90, 0x66, 0x84,
  0x8b, 0x91, 0x90, 0x98, 0x83, 0x61, 0x48, 0x91, 0x83, 0x7b, 0x80, 0xa9,
  0x73, 0x85, 0x62, 0xb8, 0x58, 0xd1, 0x58, 0x88, 0x81, 0xa9, 0x7b, 0xa5,
  0x68, 0x88, 0x72, 0xb0, 0x92, 0x9c, 0x81, 0xa8, 0x80, 0x73, 0x92, 0xad,
  0x72, 0x97, 0x6b, 0xae, 0x59, 0xa1, 0xa0, 0x94, 0x97, 0x72, 0x94, 0x8b,
  0x7f, 0xc9, 0x89, 0xda, 0xb7, 0x65, 0x8a, 0x90, 0x7b, 0xaa, 0x74, 0xd7,
  0xb4, 0x9c, 0x72, 0x84, 0x75, 0x89, 0x71, 0xc3, 0x8e, 0xad, 0x62, 0xbf,
  0x84, 0x70, 0x80, 0xc7, 0x86, 0xcf, 0x4e, 0xbb, 0x88, 0x7f, 0x74, 0xb5,
  0x85, 0xab, 0x60, 0xa4, 0x90, 0xa9, 0x90, 0xcb, 0x7c, 0x86, 0x6b, 0x92,
  0x77, 0x6f, 0x88, 0xaa, 0x8e, 0x87, 0x78, 0xa0, 0xa2, 0x5e, 0x8e, 0x7f,
  0x7a, 0x62, 0x64, 0x89, 0x79, 0x64, 0x7b, 0x9c, 0x7f, 0x83, 0x75, 0x87,
  0x85, 0x95, 0x7b, 0xc7, 0x90, 0x47, 0x6f, 0x96, 0x9c, 0x87, 0x85, 0x9c,
  0x7a, 0x68, 0x65, 0x90, 0x85, 0x75, 0x7c, 0x97, 0x77, 0x6b, 0x6f, 0x9b,
  0x8c, 0x7d, 0x82, 0x7e, 0x76, 0x6f, 0x6f, 0x98, 0x8e, 0x76, 0x6e, 0x8f,
  0x9d, 0x8b, 0x78, 0x7f, 0x63, 0xa0, 0x6a, 0x9c, 0x97, 0x93, 0x59, 0x86,
  0x81, 0x7e, 0x8d, 0xc6, 0x63, 0x94, 0x7f, 0xcf, 0x6e, 0xbd, 0x43, 0x9e,
  0x7f, 0x75, 0x78, 0xb0, 0x86, 0xa2, 0x6d, 0xb1, 0x65, 0xa5, 0x88, 0x8e,
  0x87, 0x81, 0x7b, 0x9f, 0x74, 0x92, 0x7b, 0x99, 0x53, 0x8d, 0x96, 0xb4,
  0x84, 0x5e, 0x8b, 0x81, 0x79, 0xab, 0x8f, 0xbe, 0xb7, 0x6a, 0x7c, 0x8b,
  0x66, 0xa6, 0x71, 0xc3, 0x8f, 0x74, 0x6d, 0x97, 0x4d, 0x7e, 0x7e, 0xb3,
  0x97, 0xc3, 0x7b, 0xca, 0x6e, 0x84, 0x86, 0xb2, 0x9e, 0xba, 0x59, 0xaf,
  0x9b, 0x85, 0x6a, 0xc5, 0x7e, 0xa2, 0x62, 0x8f, 0x80, 0xa2, 0x80, 0xbe,
  0x73, 0x83, 0x53, 0xa1, 0x8b, 0x67, 0x7d, 0xb5, 0xa0, 0x72, 0x62, 0x87,
  0x60, 0x6b, 0x71, 0x81, 0x73, 0x7c, 0x5e, 0x8e, 0x6a, 0x87, 0x7b, 0xb0,
  0x82, 0x52, 0x60, 0x9b, 0x6c, 0x77, 0x7e, 0xb5, 0x8c, 0x78, 0x75, 0x9f,
  0x84, 0x82, 0x6e, 0xa6, 0x7a, 0x4f, 0x67, 0xa6, 0x9c, 0x7e, 0x75, 0x9f,
  0x5b, 0x89, 0x64, 0x83, 0x7c, 0x52, 0x87, 0x95, 0x97, 0x9a, 0x5f, 0x8a,
  0x8c, 0x80, 0x75, 0x8c, 0x8b, 0x9f, 0x75, 0x7f, 0x72, 0x9c, 0x78, 0xa0,
  0x8f, 0x4b, 0x5d, 0x92, 0x81, 0x71, 0x88, 0xa6, 0x76, 0x61, 0x56, 0xca,
  0x78, 0xcb, 0x63, 0xa1, 0xa4, 0x76, 0x78, 0xa6, 0x72, 0x97, 0x72, 0xd1,
  0x78, 0xaf, 0x75, 0x9f, 0x84, 0x8b, 0x6f, 0xac, 0x4f, 0x89, 0x76, 0x86,
  0x65, 0x8b, 0x8c, 0x8f, 0x8f, 0x77, 0x80, 0x7c, 0x8a, 0xb7, 0x71, 0xb2,
  0xbd, 0x88, 0x70, 0x94, 0x70, 0xb9, 0x80, 0xb3, 0xa1, 0x97, 0x5e, 0xad,
  0x60, 0x93, 0x7d, 0xd3, 0x73, 0xb4, 0x55, 0xbc, 0x6f, 0x7b, 0x83, 0xc2,
  0x6c, 0xb8, 0x53, 0xc4, 0x79, 0x8d, 0x76, 0xb2, 0x9a, 0x91, 0x58, 0x87,
  0x95, 0x98, 0x95, 0xbd, 0x76, 0x78, 0x5e, 0x97, 0x7e, 0x72, 0x74, 0x92,
  0x68, 0x61, 0x69, 0x9c, 0x55, 0x72, 0x8a, 0x8c, 0x90, 0x81, 0x58, 0xa1,
  0x8c, 0x61, 0x82, 0x94, 0x88, 0x6f, 0x71, 0x89, 0x80, 0x95, 0x7f, 0xb5,
  0x8e, 0x5c, 0x82, 0x9e, 0x9f, 0x6e, 0x81, 0xc5, 0x7f, 0x68, 0x70, 0x8f,
  0x73, 0x7d, 0x74, 0x98, 0xa5, 0x6e, 0x5c, 0x7b, 0x7e, 0x67, 0x8d, 0x6a,
  0x83, 0x63, 0x4d, 0xa0, 0x73, 0x65, 0x81, 0x77, 0x98, 0x8d, 0x69, 0x73,
  0x5a, 0x94, 0x75, 0x7e, 0x63, 0x56, 0x56, 0x9c, 0x6f, 0x7c, 0x7c, 0xba,
  0x6f, 0x53, 0x76, 0xcd, 0x72, 0xb0, 0x44, 0xa5, 0x7b, 0x8f, 0x6c, 0xa5,
  0x8d, 0xa0, 0x63, 0xc9, 0x94, 0xb2, 0x65, 0x9f, 0x76, 0x74, 0x80, 0x9f,
  0x69, 0x98, 0x82, 0x99, 0x73, 0x82, 0x9b, 0x8e, 0x7b, 0x73, 0x8f, 0xa2,
  0x78, 0xb5, 0x7a, 0xa2, 0xa5, 0x6c, 0x76, 0x91, 0x65, 0xab, 0x6f, 0xc3,
  0xb1, 0x6b, 0x69, 0x97, 0x50, 0x9a, 0x93, 0xc4, 0x88, 0x99, 0x59, 0xb3,
  0x7f, 0x92, 0x91, 0xc8, 0x8d, 0xb9, 0x5d, 0xb1, 0x84, 0x7b, 0x87, 0xba,
  0x74, 0x8c, 0x5d, 0x96, 0x9e, 0x8b, 0x96, 0xbe, 0x7e, 0x66, 0x6f, 0x96,
  0x89, 0x71, 0x7f, 0xa3, 0x88, 0x66, 0x6e, 0x99, 0x58, 0x5a, 0x6f, 0x84,
  0x9a, 0x76, 0x54, 0x7a, 0x54, 0x7f, 0x76, 0xa9, 0x8b, 0x76, 0x55, 0x98,
  0x68, 0x77, 0x82, 0xb6, 0x80, 0x7d, 0x60, 0x94, 0x77, 0x71, 0x7f, 0xad,
  0x80, 0x78, 0x69, 0xad, 0x91, 0x7f, 0x7e, 0xa6, 0x8b, 0x61, 0x54, 0x7c,
  0x56, 0x6a, 0x6e, 0x96, 0x6c, 0x83, 0x60, 0xae, 0x76, 0x6d, 0x8d, 0x82,
  0x80, 0x77, 0x7e, 0x8d, 0x6d, 0xa2, 0x7d, 0x86, 0x66, 0x7e, 0x4d, 0x98,
  0x7f, 0x93, 0x7b, 0xb9, 0x6d, 0x85, 0x66, 0xd5, 0x81, 0xa2, 0x5d, 0x95,
  0x85, 0x83, 0x6e, 0xae, 0x7d, 0x95, 0x7e, 0xb5, 0x97, 0xac, 0x7b, 0xbb,
  0xa4, 0x7e, 0x72, 0x89, 0x76, 0x90, 0x91, 0x9c, 0x7f, 0x8c, 0xaf, 0xae,
  0x67, 0x77, 0x7c, 0x8b, 0x63, 0xad, 0x8b, 0xc1, 0xa1, 0x6f, 0x7d, 0x83,
  0x5c, 0xaf, 0x91, 0xb0, 0xa0, 0x86, 0x6a, 0xa6, 0x8b, 0xa5, 0x7a, 0xc8,
  0x71, 0x9b, 0x50, 0xc9, 0x83, 0x93, 0x91, 0xca, 0xa0, 0xc3, 0x54, 0xd2,
  0x9c, 0x79, 0x90, 0xa7, 0x69, 0xbb, 0x6b, 0xad, 0x84, 0x9a, 0x89, 0xaf,
  0x7a, 0x90, 0x66, 0xad, 0x91, 0x6d, 0x89, 0x95, 0x80, 0x79, 0x81, 0x77,
  0x73, 0x77, 0x6c, 0x8d, 0x81, 0x66, 0x6d, 0x93, 0x64, 0x86, 0x75, 0xaf,
  0x98, 0x87, 0x6d, 0x94, 0x55, 0x8c, 0x7a, 0xa2, 0x8c, 0x71, 0x65, 0xad,
  0x92, 0x6d, 0x90, 0xb5, 0x75, 0x4a, 0x50, 0xa8, 0x68, 0x6f, 0x6a, 0xaf,
  0x7e, 0x49, 0x5f, 0x8c, 0x4c, 0x53, 0x6c, 0x71, 0x8e, 0x89, 0x56, 0x82,
  0x8c, 0x81, 0x80, 0x82, 0xb1, 0x81, 0x70, 0x7f, 0x61, 0xa2, 0x89, 0x6e,
  0x3f, 0x5b, 0x58, 0xa9, 0x61, 0x8b, 0x81, 0xc5, 0x57, 0x8b, 0x8b, 0xc5,
  0x73, 0xaa, 0x59, 0xb6, 0x71, 0x74, 0x6e, 0xc3, 0x6b, 0x8c, 0x7f, 0xcb,
  0xb5, 0xb3, 0x8c, 0xc5, 0x60, 0x6b, 0x5e, 0x83, 0x4d, 0x89, 0x64, 0x85,
  0x77, 0x8b, 0x9b, 0xae, 0x75, 0x72, 0x78, 0x84, 0x6a, 0xac, 0xa5, 0xd3,
  0x9e, 0x73, 0x74, 0x8e, 0x64, 0xa5, 0x72, 0xc8, 0xa7, 0x6d, 0x66, 0x9c,
  0x75, 0x94, 0x8c, 0xb8, 0x63, 0x9a, 0x43, 0xb5, 0x81, 0x82, 0x9e, 0xd5,
  0x89, 0xb9, 0x5a, 0xcf, 0x8e, 0x84, 0x91, 0xaa, 0x7a, 0xaa, 0x57, 0xa8,
  0x94, 0xa2, 0x93, 0x9e, 0x6e, 0x85, 0x7e, 0xa2, 0x7c, 0x6e, 0x7c, 0x96,
  0x7c, 0x5e, 0x70, 0x82, 0x79, 0x83, 0x7f, 0x8e, 0x5c, 0x7f, 0x61, 0x92,
  0x88, 0x7b, 0x86, 0xaf, 0xa0, 0x7d, 0x59, 0x9f, 0x73, 0x7b, 0x70, 0xca,
  0x9c, 0x55, 0x63, 0x9b, 0x8a, 0x6e, 0x81, 0x92, 0x98, 0x7f, 0x5a, 0x89,
  0x74, 0x90, 0x78, 0xb6, 0x71, 0x68, 0x58, 0x91, 0x55, 0x69, 0x90, 0x74,
  0x76, 0x6a, 0x49, 0x99, 0x53, 0x89, 0x87, 0x91, 0x7a, 0x7b, 0x6f, 0x82,
  0xaa, 0x92, 0x80, 0x9e, 0x55, 0x9a, 0x79, 0x99, 0x6a, 0x97, 0x71, 0x93,
  0x50, 0x72, 0x6e, 0xc0, 0x8a, 0xa4, 0x5e, 0x9e, 0x9d, 0x85, 0x80, 0xc1,
  0x92, 0x84, 0x6f, 0xa2, 0xaa, 0x86, 0x88, 0xc8, 0xa1, 0x8a, 0x82, 0x9c,
  0x7c, 0x95, 0x7a, 0xa8, 0x82, 0x95, 0x89, 0xa4, 0x84, 0x86, 0x55, 0x99,
  0x6d, 0xaf, 0x83, 0xd2, 0xc9, 0x67, 0x73, 0x91, 0x7c, 0xd2, 0x74, 0xb1,
  0x92, 0xa5, 0x70, 0x9f, 0x67, 0x7a, 0x76, 0xb7, 0x82, 0x91, 0x66, 0xa1,
  0x66, 0x67, 0x7a, 0xa9, 0xa0, 0xab, 0x64, 0xbf, 0x86, 0x8f, 0x98, 0xb7,
  0x9a, 0xa9, 0x78, 0xbe, 0x6a, 0x7f, 0x9a, 0x99, 0x7b, 0x73, 0x85, 0xac,
  0x9b, 0x87, 0x8b, 0x93, 0x77, 0x65, 0x64, 0x8a, 0x92, 0x6f, 0x85, 0x6f,
  0x75, 0x70, 0x76, 0x96, 0x82, 0x7d, 0x7e, 0xa4, 0x88, 0x5f, 0x5d, 0xaa,
  0x66, 0x71, 0x6d, 0xb1, 0x9d, 0x5e, 0x5f, 0xb3, 0x8b, 0x86, 0x80, 0xa2,
  0x89, 0x6d, 0x49, 0x86, 0x74, 0x9c, 0x70, 0x97, 0x93, 0x72, 0x72, 0x8c,
  0x64, 0x7e, 0x7e, 0x84, 0x88, 0x7d, 0x4f, 0x8d, 0x4f, 0x81, 0x74, 0x6d,
  0xa3, 0x77, 0x6b, 0x85, 0x79, 0x99, 0x5b, 0x59, 0x58, 0x7a, 0x6c, 0x90,
  0x7c, 0x7d, 0x50, 0x9d, 0x65, 0x59, 0x71, 0xb8, 0x97, 0x91, 0x48, 0xac,
  0xa4, 0xa4, 0x63, 0x97, 0x8b, 0xad, 0x87, 0xa8, 0xaa, 0xa7, 0x9d, 0xb7,
  0x74, 0x96, 0x6b, 0xa7, 0x84, 0x82, 0x8a, 0xa2, 0x69, 0x9f, 0xa2, 0xb4,
  0x97, 0x82, 0x86, 0xa0, 0x4e, 0xc7, 0x95, 0xc3, 0xc2, 0x7b, 0x99, 0x9d,
  0x77, 0xc6, 0x6d, 0xab, 0xb9, 0x94, 0x63, 0xb3, 0x7d, 0x89, 0x7c, 0xb0,
  0x91, 0xae, 0x80, 0xb1, 0xa2, 0x84, 0x90, 0xbd, 0x94, 0xad, 0x70, 0xbc,
  0x7e, 0x9a, 0x7d, 0xc7, 0x77, 0x93, 0x72, 0xa3, 0x7e, 0xb6, 0x91, 0x9b,
  0x6b, 0x72, 0x8e, 0x9e, 0x75, 0xa4, 0x8c, 0x8e, 0x7c, 0x6a, 0x59, 0x97,
  0x85, 0x9b, 0x76, 0x79, 0x5a, 0x88, 0x56, 0x9c, 0x73, 0x81, 0x84, 0xa1,
  0xa2, 0x72, 0x54, 0xa4, 0x63, 0x7f, 0x6b, 0xb6, 0x78, 0x5e, 0x50, 0x94,
  0x75, 0x8e, 0x79, 0x95, 0x72, 0x68, 0x4c, 0x7d, 0x84, 0x87, 0x88, 0xb5,
  0x6f, 0x6e, 0x57, 0x91, 0x5a, 0x72, 0x6b, 0x7f, 0x84, 0x8f, 0x47, 0x99,
  0x41, 0x6a, 0x71, 0x7b, 0x69, 0x86, 0x3f, 0x85, 0xad, 0xa5, 0x7c, 0x7f,
  0x5d, 0x7d, 0x79, 0x7b, 0x70, 0xb4, 0x4c, 0x91, 0x49, 0x5b, 0x88, 0x86,
  0x9b, 0x89, 0x68, 0xa3, 0xa6, 0x93, 0x7d, 0x8c, 0x6c, 0xa7, 0x54, 0x99,
  0x9a, 0x86, 0x7d, 0x89, 0x63, 0x80, 0x5e, 0x86, 0x8b, 0x83, 0x86, 0x78,
  0x7f, 0x97, 0x88, 0x8e, 0x84, 0x68, 0x7e, 0x9a, 0x99, 0x9a, 0x92, 0xab,
  0xbe, 0x75, 0x86, 0x90, 0x85, 0xb7, 0x85, 0xb4, 0xac, 0x93, 0x87, 0xa7,
  0x97, 0x88, 0x95, 0xa4, 0x7e, 0x9b, 0x68, 0xab, 0xae, 0x7f, 0x8a, 0xa9,
  0x6d, 0x9f, 0x80, 0xb0, 0x84, 0x98, 0x70, 0xc4, 0x58, 0x97, 0x7e, 0xa5,
  0x67, 0x9f, 0x79, 0x8d, 0x5b, 0x6c, 0x70, 0x9a, 0xa2, 0x7e, 0x7b, 0x87,
  0x5e, 0x83, 0x66, 0x8a, 0x71, 0x82, 0x88, 0x9d, 0x87, 0x8e, 0x57, 0x79,
  0x78, 0x72, 0x68, 0xbd, 0x97, 0x94, 0x57, 0x89, 0x62, 0x87, 0x68, 0xbe,
  0x99, 0x89, 0x3d, 0x94, 0x88, 0x74, 0x79, 0xa1, 0x9e, 0x71, 0x44, 0x83,
  0x8a, 0x8e, 0x94, 0xa6, 0x8d, 0x81, 0x50, 0x89, 0x5f, 0xa4, 0x6b, 0x82,
  0x97, 0x57, 0x5f, 0x7e, 0x77, 0x62, 0x86, 0x8d, 0x57, 0x6d, 0x64, 0x89,
  0xa5, 0xaa, 0x6c, 0x6b, 0x7e, 0x71, 0x9a, 0x78, 0x84, 0x9e, 0x3e, 0xb1,
  0x61, 0x93, 0x88, 0x63, 0x92, 0x75, 0x46, 0xa8, 0x77, 0xa9, 0x9b, 0x78,
  0x79, 0xa2, 0x5c, 0x97, 0x93, 0xb6, 0x91, 0x76, 0xa3, 0x99, 0x66, 0x97,
  0xa1, 0x8d, 0x8c, 0x82, 0x8f, 0x88, 0x68, 0x89, 0x87, 0x9b, 0x92, 0x77,
  0x91, 0x98, 0x91, 0x9c, 0xca, 0x70, 0xa2, 0x95, 0x8c, 0xaf, 0x71, 0xad,
  0xa3, 0x92, 0x7f, 0x9e, 0x80, 0x7c, 0x7f, 0xb3, 0x80, 0xa0, 0x82, 0x99,
  0x74, 0x73, 0xb2, 0xbb, 0x6c, 0x9d, 0x65, 0xae, 0x91, 0x81, 0x99, 0xc2,
  0x9c, 0xa7, 0x61, 0x96, 0x77, 0xa2, 0x8d, 0x85, 0x80, 0x95, 0x7b, 0x95,
  0x95, 0x84, 0x7d, 0x80, 0x71, 0x5f, 0x72, 0x91, 0x7d, 0x8c, 0x5b, 0xa7,
  0x8d, 0x8e, 0x49, 0x8e, 0x78, 0x62, 0x6c, 0x9e, 0x8a, 0x7c, 0x63, 0x80,
  0x81, 0x84, 0x5a, 0x9a, 0xa7, 0x80, 0x56, 0x83, 0x82, 0x70, 0x7d, 0x8a,
  0x86, 0x67, 0x47, 0x86, 0x6e, 0x74, 0x77, 0x95, 0x8d, 0x5c, 0x66, 0x7f,
  0x7e, 0x88, 0x79, 0x7b, 0xa7, 0x60, 0x67, 0x64, 0x81, 0x74, 0x70, 0x67,
  0x9d, 0x77, 0x8e, 0x77, 0x8a, 0x8b, 0x84, 0x99, 0xa6, 0xa7, 0x73, 0x6f,
  0x8e, 0x72, 0x9a, 0x8d, 0xae, 0x9e, 0x86, 0x8d, 0xaa, 0x8f, 0x6b, 0x8f,
  0x7e, 0x63, 0x73, 0x69, 0x9d, 0xb1, 0x8c, 0x66, 0x8f, 0x92, 0x87, 0x7d,
  0x88, 0x8a, 0xa4, 0xa1, 0x82, 0x91, 0x97, 0x74, 0x9a, 0x68, 0xa0, 0x97,
  0x75, 0x8b, 0xb1, 0x77, 0xa7, 0xa3, 0x76, 0xa4, 0xb2, 0x70, 0xb1, 0x71,
  0x85, 0xab, 0x6c, 0x9c, 0x92, 0x94, 0xa4, 0x57, 0xae, 0x9f, 0x76, 0x92,
  0x84, 0x9f, 0x8a, 0xa3, 0xa4, 0x89, 0x91, 0x88, 0x60, 0x8b, 0x8f, 0x92,
  0xa2, 0x8c, 0x64, 0x8d, 0x7f, 0x5f, 0x9b, 0x85, 0x81, 0x90, 0x85, 0x96,
  0x60, 0x7e, 0xa0, 0x6d, 0x9b, 0x74, 0xad, 0x9b, 0x7b, 0x64, 0xa5, 0x6d,
  0x9b, 0x83, 0x85, 0x90, 0x76, 0x66, 0xab, 0x7f, 0x94, 0x7b, 0x87, 0x85,
  0x8d, 0xaa, 0x93, 0x75, 0x93, 0x93, 0x84, 0x9c, 0x77, 0x85, 0xb6, 0x65,
  0x76, 0x77, 0x95, 0x83, 0x8d, 0x7d, 0x9b, 0x7d, 0x8c, 0x63, 0x92, 0x6f,
  0x5a, 0x8d, 0x81, 0x7c, 0x8c, 0xb2, 0x70, 0x97, 0x98, 0x8b, 0x91, 0x83,
  0x8d, 0x80, 0x7c, 0x80, 0x92, 0x73, 0x7a, 0x9a, 0x84, 0x90, 0x82, 0x90,
  0x94, 0x8e, 0x80, 0x89, 0x95, 0x5c, 0x96, 0x8c, 0xa1, 0x80, 0x69, 0x6e,
  0xaa, 0x88, 0xb2, 0x6e, 0x9b, 0x98, 0x9a, 0x89, 0x8b, 0x94, 0x97, 0x8b,
  0x91, 0x82, 0x8e, 0xa1, 0x70, 0xaf, 0xa7, 0x93, 0x78, 0x70, 0x86, 0x90,
  0x8e, 0x9e, 0x8a, 0x6c, 0x64, 0xaa, 0x85, 0x91, 0x82, 0x9e, 0x81, 0x73,
  0x72, 0x8f, 0x8a, 0x59, 0x7c, 0x6b, 0x9c, 0x8e, 0x82, 0x6d, 0x87, 0x97,
  0x6d, 0x92, 0x87, 0x96, 0x76, 0x71, 0x90, 0x7c, 0x90, 0x75, 0x7e, 0x5f,
  0x70, 0x74, 0x88, 0xaf, 0x8a, 0x7c, 0x9b, 0x76, 0x87, 0xb0, 0x74, 0x98,
  0x81, 0x75, 0x86, 0x8f, 0x8e, 0x75, 0x79, 0xb4, 0x81, 0x7e, 0x91, 0x6d,
  0x94, 0x6d, 0x7f, 0x73, 0x7b, 0x6c, 0xae, 0x76, 0x7c, 0x95, 0x8b, 0x62,
  0x97, 0x7d, 0xa7, 0x81, 0x72, 0x6a, 0x8b, 0x89, 0x6e, 0x75, 0x99, 0xa6,
  0x65, 0x96, 0x8c, 0x89, 0x93, 0x7a, 0x84, 0x87, 0x82, 0x80, 0x7b, 0x64,
  0x7b, 0x71, 0x88, 0x89, 0x70, 0x7c, 0x7c, 0xa7, 0x9d, 0x9a, 0x8e, 0x73,
  0x54, 0x76, 0x81, 0x80, 0x81, 0x5b, 0x92, 0x8c, 0xb4, 0x95, 0xa1, 0x75,
  0x75, 0x87, 0x84, 0xaa, 0xb9, 0x76, 0x72, 0xa0, 0x9f, 0x91, 0x87, 0x67,
  0x6b, 0x77, 0x57, 0x82, 0x7d, 0x8e, 0x81, 0x64, 0x6a, 0x82, 0x61, 0x80,
  0x6f, 0xbd, 0x97, 0x77, 0x68, 0x9e, 0xa6, 0x7c, 0x61, 0xce, 0x7e, 0x6c,
  0x47, 0x78, 0x6e, 0x74, 0x7e, 0x99, 0x89, 0x5c, 0x79, 0x7c, 0x96, 0x93,
  0x72, 0x90, 0x73, 0x88, 0x6a, 0x86, 0x8f, 0x78, 0xab, 0x92, 0x89, 0x82,
  0x58, 0x8e, 0x8b, 0x82, 0x78, 0x81, 0x97, 0x99, 0x79, 0x97, 0x8f, 0x94,
  0x69, 0x78, 0x8d, 0x9c, 0x60, 0x71, 0x78, 0x9d, 0x7a, 0x84, 0x78, 0x99,
  0x70, 0x93, 0x7e, 0x87, 0x77, 0x75, 0x7c, 0x95, 0x86, 0x8b, 0x78, 0xa4,
  0x87, 0x46, 0xae, 0x90, 0x85, 0x86, 0x94, 0x93, 0x96, 0x79, 0x88, 0x86,
  0x99, 0x60, 0x9a, 0x73, 0x8d, 0x82, 0x72, 0x96, 0x81, 0xa1, 0xa0, 0x6e,
  0x94, 0x6b, 0x91, 0x85, 0x5e, 0x69, 0x9d, 0x61, 0x86, 0x6b, 0x84, 0x89,
  0x8d, 0x91, 0x81, 0x6c, 0x8e, 0x6a, 0x8f, 0x8d, 0x6a, 0x59, 0xa4, 0x81,
  0x86, 0x50, 0x87, 0x8d, 0x94, 0x66, 0x7f, 0x89, 0x6a, 0x7c, 0x7d, 0x81,
  0xb1, 0x8d, 0x76, 0x8d, 0x62, 0x77, 0x90, 0x77, 0x97, 0x6d, 0x98, 0x5b,
  0x87, 0x7d, 0x83, 0x82, 0x6f, 0x77, 0x81, 0x7e, 0x86, 0x96, 0x67, 0x68,
  0x7e, 0x9f, 0x91, 0x74, 0x85, 0xc6, 0x7c, 0x75, 0x61, 0x73, 0x80, 0x72,
  0x80, 0xd5, 0x95, 0x8b, 0x47, 0x6f, 0x8c, 0x6d, 0x67, 0xc1, 0x59, 0x64,
  0x5e, 0x79, 0x9d, 0x6a, 0x99, 0x91, 0x7a, 0x8b, 0x92, 0x9a, 0x7c, 0x7a,
  0x68, 0x8e, 0x85, 0x93, 0x7d, 0x7c, 0x96, 0x69, 0x99, 0x88, 0x8b, 0x87,
  0x82, 0x63, 0x7b, 0x9e, 0x97, 0x98, 0x78, 0x65, 0x8b, 0x8f, 0x96, 0x9b,
  0x8a, 0x59, 0x6f, 0x97, 0x95, 0xa1, 0x84, 0x87, 0x63, 0x61, 0x92, 0x83,
  0x72, 0x8c, 0x7a, 0x95, 0x60, 0x5d, 0x84, 0x8b, 0x66, 0x80, 0x94, 0x90,
  0x7a, 0x93, 0x87, 0x73, 0xa9, 0xa7, 0x7d, 0x96, 0xaa, 0x7d, 0x7b, 0x99,
  0x94, 0x96, 0x78, 0x7a, 0x7c, 0x7e, 0x8c, 0x75, 0x69, 0x7c, 0x7d, 0x75,
  0x66, 0x94, 0x60, 0x86, 0x63, 0x74, 0xac, 0x64, 0x99, 0x4d, 0x74, 0x7b,
  0x80, 0x5c, 0xad, 0x65, 0x7d, 0x7f, 0xa1, 0x9d, 0x73, 0x7c, 0x87, 0x7b,
  0x5d, 0x9c, 0x7c, 0x74, 0x56, 0x8d, 0x76, 0x7c, 0x6d, 0x93, 0x6c, 0x92,
  0x99, 0x77, 0x5e, 0x89, 0xa5, 0x82, 0x90, 0x7e, 0x62, 0x82, 0x8c, 0xa4,
  0x8b, 0x9b, 0x8a, 0x57, 0x65, 0x9e, 0x88, 0x86, 0x68, 0xcb, 0x89, 0x4e,
  0x83, 0x7c, 0xbb, 0x7b, 0x7b, 0xd8, 0x91, 0x7b, 0x66, 0x5c, 0x9a, 0x7e,
  0x7e, 0xad, 0x67, 0x62, 0x3b, 0x94, 0xb2, 0x5d, 0x79, 0x8e, 0x69, 0x8c,
  0x5f, 0x81, 0x8a, 0x93, 0x5f, 0x8e, 0x9c, 0x77, 0x84, 0x9a, 0x89, 0xa5,
  0x75, 0x84, 0x83, 0x93, 0x5e, 0x65, 0x8f, 0x64, 0x65, 0x99, 0x7a, 0x7a,
  0x7c, 0x9a, 0x8a, 0x7a, 0x91, 0x62, 0x7e, 0x85, 0xc8, 0x92, 0x64, 0x7d,
  0x74, 0x5e, 0x88, 0x58, 0x7b, 0xab, 0x4d, 0x9f, 0x52, 0x4b, 0x85, 0x98,
  0x87, 0xab, 0x73, 0x95, 0x92, 0x76, 0x79, 0x87, 0x76, 0x99, 0x84, 0x9d,
  0x57, 0x8e, 0x67, 0x97, 0x85, 0x9b, 0x99, 0x5c, 0x83, 0x81, 0x68, 0x7c,
  0xa2, 0x88, 0x94, 0x72, 0x7d, 0x71, 0x60, 0x60, 0x71, 0x76, 0xa1, 0x76,
  0x71, 0x6f, 0x97, 0x6f, 0x71, 0x54, 0x93, 0x83, 0x91, 0x71, 0x8c, 0x8e,
  0x78, 0x71, 0x84, 0x79, 0x95, 0x94, 0x7d, 0x7e, 0x9b, 0x7b, 0x8c, 0x6f,
  0xb0, 0x8c, 0x52, 0x76, 0x8f, 0x68, 0x73, 0x8f, 0x91, 0xac, 0x79, 0x80,
  0x69, 0x9a, 0x62, 0x8e, 0x5e, 0xb8, 0x87, 0x64, 0x4d, 0x8f, 0x96, 0x65,
  0x65, 0xe2, 0x8f, 0x56, 0x52, 0x6e, 0x9e, 0x74, 0x7b, 0xf0, 0x9c, 0x7a,
  0x6c, 0x62, 0xaf, 0x89, 0x75, 0xc5, 0x7a, 0x57, 0x61, 0x91, 0xa5, 0x72,
  0x7b, 0xa4, 0x52, 0x95, 0x8b, 0x96, 0x9d, 0x8c, 0x70, 0x8a, 0x77, 0x6d,
  0x8e, 0xa7, 0x94, 0x93, 0x74, 0x80, 0x6b, 0x4e, 0x95, 0x86, 0x9e, 0x8b,
  0x9c, 0x7d, 0x89, 0x6b, 0x66, 0x81, 0x91, 0x7f, 0x76, 0x52, 0x55, 0x72,
  0xb1, 0x91, 0x6d, 0x7a, 0x78, 0x60, 0x4e, 0x60, 0xa2, 0xaf, 0x75, 0x97,
  0x75, 0x51, 0x6e, 0x72, 0x7b, 0xaa, 0x6d, 0x8a, 0x69, 0x7c, 0x71, 0x78,
  0x8d, 0x73, 0x75, 0xae, 0x59, 0x7a, 0x7f, 0x8f, 0x7e, 0x95, 0x95, 0x85,
  0x64, 0x8f, 0x7d, 0x62, 0x90, 0x81, 0x98, 0x66, 0xa6, 0x8a, 0x81, 0x67,
  0x94, 0x74, 0xbd, 0x7d, 0x84, 0x75, 0x6c, 0x84, 0x89, 0x65, 0x8a, 0x89,
  0x8c, 0x70, 0x79, 0x8b, 0x60, 0x73, 0x83, 0x61, 0x8c, 0x84, 0x87, 0x77,
  0x58, 0x7e, 0x92, 0x75, 0x85, 0x86, 0x8b, 0x8a, 0x80, 0x93, 0x5b, 0x97,
  0x59, 0xa6, 0x81, 0x7d, 0x88, 0x54, 0x81, 0x9d, 0x7b, 0xc1, 0x91, 0x48,
  0x62, 0x91, 0x9d, 0x65, 0x6e, 0xd8, 0x81, 0x46, 0x4f, 0x6f, 0xb8, 0x57,
  0x72, 0xd1, 0xa5, 0x7f, 0x68, 0x64, 0xa2, 0x52, 0x7b, 0xce, 0x7b, 0x5e,
  0x7f, 0x6e, 0x91, 0x8a, 0x82, 0x97, 0x8e, 0x71, 0x69, 0x93, 0xa0, 0x93,
  0x78, 0x8c, 0x68, 0x76, 0x71, 0x98, 0x90, 0x82, 0x7c, 0x9d, 0x73, 0x5c,
  0x89, 0x93, 0x9c, 0x6d, 0x71, 0x73, 0x7b, 0x40, 0x8e, 0xba, 0x8c, 0x67,
  0x84, 0x57, 0x86, 0x85, 0xaa, 0xb2, 0x57, 0xab, 0x79, 0x6e, 0x79, 0x7f,
  0x8b, 0xb0, 0x49, 0x80, 0x7e, 0x60, 0x80, 0x75, 0x7c, 0xba, 0x83, 0x94,
  0x86, 0x86, 0x69, 0x83, 0x80, 0xa2, 0x5d, 0x71, 0x86, 0x97, 0x78, 0x96,
  0x83, 0x90, 0x85, 0x82, 0x79, 0x81, 0x53, 0x79, 0x84, 0x8c, 0x9b, 0x81,
  0x63, 0xab, 0x6c, 0x86, 0x6d, 0x79, 0xb0, 0x79, 0x7d, 0x97, 0x63, 0x59,
  0x90, 0x59, 0xa2, 0x5b, 0x7e, 0x50, 0x76, 0x89, 0x79, 0x65, 0x81, 0x58,
  0x5e, 0x84, 0x87, 0x91, 0x85, 0x79, 0x76, 0x7e, 0x84, 0x86, 0x65, 0xa3,
  0x7a, 0x81, 0x9f, 0x72, 0x82, 0x98, 0x6d, 0x5d, 0x88, 0x78, 0x5f, 0xa9,
  0x86, 0xd4, 0x80, 0x55, 0x75, 0x84, 0xca, 0x50, 0x6a, 0xd7, 0x63, 0x48,
  0x59, 0x5e, 0xb8, 0x4d, 0xa5, 0xe0, 0x92, 0x65, 0x5d, 0x76, 0x99, 0x64,
  0x8f, 0xb4, 0x76, 0x58, 0x65, 0x68, 0x8f, 0x83, 0x87, 0xa1, 0x7b, 0x5e,
  0x85, 0x7b, 0x8b, 0x81, 0x89, 0x89, 0x82, 0x57, 0x55, 0x8c, 0x8a, 0x99,
  0x9c, 0x7d, 0x69, 0x6d, 0x9f, 0x8f, 0x8a, 0x73, 0x77, 0x91, 0x79, 0x4d,
  0x93, 0x99, 0x76, 0x6f, 0x9a, 0x74, 0x87, 0x94, 0xa6, 0xba, 0x5e, 0xb9,
  0x85, 0x71, 0x7e, 0x69, 0x92, 0xbc, 0x48, 0x87, 0x7f, 0x7e, 0x7c, 0x6c,
  0x9f, 0xa7, 0x6a, 0x6e, 0x60, 0x89, 0x81, 0x90, 0xb7, 0x88, 0x5f, 0x97,
  0x9e, 0x95, 0x85, 0x8b, 0x79, 0xa2, 0x89, 0x90, 0x7f, 0x99, 0x81, 0x6c,
  0x8a, 0x7b, 0x81, 0x7c, 0x73, 0xb5, 0x73, 0x78, 0x86, 0x77, 0xb6, 0x52,
  0x81, 0x91, 0x70, 0x85, 0xa1, 0x4f, 0x8b, 0x57, 0x58, 0x83, 0x7e, 0x74,
  0x7a, 0x77, 0x88, 0x67, 0x56, 0xa1, 0x6e, 0x79, 0x9c, 0x7a, 0x69, 0x7f,
  0x83, 0xa1, 0x8d, 0x75, 0x78, 0x70, 0x88, 0x75, 0x84, 0x94, 0x6e, 0x5a,
  0x86, 0x8c, 0x86, 0x7b, 0x7e, 0xd7, 0x6f, 0x3e, 0x64, 0x9d, 0x98, 0x63,
  0x8d, 0xe4, 0x6e, 0x18, 0x5d, 0x59, 0xb2, 0x2e, 0x88, 0xd5, 0x8d, 0x53,
  0x75, 0x7b, 0xa4, 0x49, 0x9f, 0xd2, 0x6f, 0x53, 0x59, 0x90, 0x89, 0x6d,
  0x7e, 0xa6, 0x98, 0x4d, 0x77, 0x82, 0xa6, 0x76, 0x84, 0x57, 0x89, 0x61,
  0x7e, 0x8e, 0x84, 0x9d, 0x87, 0x94, 0x78, 0x80, 0x7f, 0x96, 0x86, 0x66,
  0x91, 0x87, 0x84, 0x5b, 0xa2, 0xa4, 0x76, 0x74, 0x81, 0x78, 0x83, 0x60,
  0x76, 0xbb, 0x49, 0xaa, 0x83, 0x70, 0x8b, 0x51, 0x9a, 0xb4, 0x32, 0x7e,
  0x98, 0x7d, 0x86, 0x80, 0xa0, 0xa8, 0x69, 0x75, 0x60, 0x75, 0x85, 0x76,
  0x82, 0x90, 0x50, 0x93, 0xa1, 0x74, 0x61, 0x83, 0x8d, 0x83, 0x80, 0x8c,
  0x94, 0x99, 0x80, 0x69, 0x87, 0x98, 0x87, 0x6f, 0x87, 0x7f, 0x7b, 0x70,
  0x76, 0x76, 0xab, 0x68, 0x7d, 0xa7, 0x6c, 0x7a, 0x90, 0x54, 0x9e, 0x64,
  0x69, 0x5f, 0x6e, 0x9a, 0x76, 0x62, 0x82, 0x54, 0x60, 0x6f, 0x68, 0x68,
  0xa9, 0x81, 0x88, 0x8d, 0x58, 0x96, 0x6b, 0x91, 0x84, 0x79, 0xa2, 0x93,
  0x85, 0xb9, 0x69, 0x60, 0x87, 0x75, 0xa6, 0x8a, 0x9b, 0xd8, 0x65, 0x5a,
  0x75, 0x87, 0xb6, 0x59, 0x6c, 0xd1, 0x5d, 0x00, 0x63, 0x66, 0xaa, 0x3c,
  0x66, 0xdd, 0x7e, 0x43, 0x5d, 0x80, 0xc1, 0x5b, 0x73, 0xd3, 0x76, 0x64,
  0x7d, 0x86, 0x8f, 0x78, 0x79, 0x87, 0x76, 0x4d, 0x90, 0x69, 0x78, 0x80,
  0x98, 0x91, 0x83, 0x50, 0x80, 0x86, 0x86, 0x9f, 0x85, 0x8e, 0x82, 0x86,
  0x8e, 0x85, 0xa8, 0x8d, 0x6d, 0xa1, 0x76, 0x51, 0x94, 0xc2, 0x82, 0x74,
  0x7c, 0x70, 0x7e, 0x72, 0x88, 0xc3, 0x56, 0xa7, 0x66, 0x67, 0x7d, 0x4e,
  0x98, 0xcd, 0x5a, 0x9d, 0x9f, 0x7f, 0x86, 0x80, 0xa8, 0xa7, 0x4a, 0x81,
  0x8a, 0x8a, 0x6d, 0x7a, 0x9e, 0xae, 0x55, 0x90, 0xa6, 0x95, 0x88, 0x8d,
  0x84, 0x86, 0x5e, 0x75, 0x65, 0xb2, 0x66, 0x72, 0x82, 0x7d, 0x86, 0x60,
  0x80, 0x85, 0x6e, 0x80, 0x93, 0x79, 0xa4, 0x7c, 0x86, 0xa4, 0x82, 0x85,
  0x87, 0x56, 0xbd, 0x6f, 0x4c, 0x8a, 0x8f, 0x74, 0x8a, 0x4e, 0x8a, 0x3e,
  0x57, 0x9e, 0x7a, 0x7c, 0x6f, 0x7f, 0x78, 0x81, 0x8b, 0x97, 0x85, 0x82,
  0x7a, 0x9c, 0x88, 0x7e, 0x88, 0xa2, 0x67, 0x6e, 0x84, 0x7c, 0x8a, 0x89,
  0x95, 0xd8, 0x77, 0x4c, 0x6d, 0x93, 0xba, 0x81, 0x72, 0xc7, 0x60, 0x2c,
  0x72, 0x65, 0xbd, 0x51, 0x5a, 0xbf, 0x86, 0x3f, 0x90, 0x73, 0xb6, 0x52,
  0x99, 0xc8, 0x8a, 0x52, 0x6e, 0x8f, 0x93, 0x75, 0x8a, 0x91, 0x84, 0x51,
  0x67, 0x76, 0x71, 0x8b, 0x8f, 0x89, 0x7d, 0x44, 0x5f, 0x78, 0x91, 0xa0,
  0x92, 0x8c, 0x7a, 0x82, 0x89, 0x82, 0x8e, 0xa4, 0x8e, 0xa7, 0x97, 0x76,
  0x7e, 0xb8, 0x95, 0x65, 0x85, 0x69, 0x7d, 0x6d, 0x80, 0xbb, 0x5e, 0xb0,
  0x6a, 0x80, 0x9c, 0x4a, 0x93, 0x8e, 0x54, 0x95, 0x87, 0x8b, 0x8a, 0x81,
  0x88, 0x97, 0x60, 0x91, 0x76, 0x8c, 0x7b, 0x67, 0x8e, 0xc7, 0x41, 0x91,
  0x6f, 0x81, 0x7d, 0x6e, 0x7a, 0xa3, 0x62, 0x97, 0x7f, 0x95, 0x5f, 0x4b,
  0x96, 0x92, 0x77, 0x62, 0x7f, 0xba, 0x85, 0x74, 0x86, 0x71, 0x9a, 0x5e,
  0x95, 0xaa, 0x71, 0x61, 0xae, 0x77, 0xc4, 0x77, 0x71, 0x5e, 0x82, 0x8b,
  0x6d, 0x68, 0x6c, 0x5b, 0x72, 0x76, 0x72, 0x7e, 0x7a, 0x70, 0x75, 0x7f,
  0x71, 0x9f, 0x7a, 0x7c, 0x73, 0x7f, 0x80, 0x6e, 0x9d, 0xa8, 0x5d, 0x82,
  0x70, 0xa4, 0x98, 0x8a, 0x8a, 0xd1, 0x7e, 0x50, 0x65, 0x7a, 0xa2, 0x82,
  0x63, 0xce, 0x61, 0x18, 0x77, 0x6a, 0xb6, 0x3c, 0x67, 0xc6, 0x5f, 0x2e,
  0x82, 0x8d, 0xc1, 0x5f, 0x98, 0xa2, 0x5e, 0x6b, 0x89, 0xa3, 0x9e, 0x7d,
  0xa7, 0x8e, 0x7b, 0x58, 0x78, 0x8b, 0x7b, 0x88, 0x89, 0x6a, 0x9b, 0x56,
  0x6f, 0x7b, 0x70, 0x94, 0x82, 0xa9, 0x98, 0x7f, 0x8c, 0x7d, 0x8d, 0x97,
  0x82, 0x8d, 0x67, 0x5b, 0x88, 0xb3, 0x90, 0x55, 0x71, 0x68, 0x74, 0x76,
  0x74, 0xc2, 0x78, 0x9d, 0x7a, 0x7a, 0x9a, 0x4d, 0x99, 0xc7, 0x4a, 0x7c,
  0x83, 0x8a, 0x77, 0x65, 0x9d, 0xa1, 0x65, 0x7a, 0x8f, 0xa0, 0x85, 0x6c,
  0x88, 0xa1, 0x48, 0x88, 0x73, 0x7e, 0x6e, 0x61, 0x8f, 0xb4, 0x76, 0x93,
  0x8e, 0xac, 0x85, 0x7f, 0x85, 0x8e, 0x8d, 0x71, 0x4b, 0xcc, 0x6b, 0x7d,
  0x84, 0x5f, 0x9f, 0x73, 0x67, 0xaa, 0x77, 0x50, 0x95, 0x69, 0xa4, 0x66,
  0x5d, 0x8a, 0x77, 0x6f, 0xa3, 0x63, 0x9c, 0x67, 0x41, 0x6f, 0x74, 0x7e,
  0x92, 0x89, 0x7a, 0x7e, 0x77, 0x8d, 0x79, 0x69, 0x92, 0x97, 0x71, 0x63,
  0x7e, 0x8f, 0x70, 0x67, 0x73, 0x73, 0xa0, 0x95, 0x98, 0xe0, 0x66, 0x62,
  0x7e, 0x7b, 0xbe, 0x73, 0x9c, 0xc6, 0x79, 0x29, 0x70, 0x5e, 0xbd, 0x5f,
  0x78, 0xd7, 0x5d, 0x4b, 0x97, 0x6e, 0xd5, 0x55, 0x81, 0xbf, 0x67, 0x67,
  0x9b, 0x91, 0x9b, 0x7b, 0x69, 0x97, 0x84, 0x42, 0x66, 0x84, 0x95, 0x6f,
  0x8b, 0x6f, 0x8f, 0x50, 0x7d, 0x86, 0x6d, 0x87, 0x75, 0x9b, 0x90, 0x7a,
  0x99, 0x8a, 0x6c, 0x70, 0x81, 0xa9, 0x91, 0x5e, 0x95, 0xb2, 0x8f, 0x67,
  0x78, 0x61, 0x8b, 0x67, 0x91, 0xca, 0x6f, 0xa4, 0x8e, 0x63, 0x9e, 0x54,
  0xac, 0x9c, 0x4f, 0xa6, 0x71, 0x80, 0x8f, 0x56, 0x92, 0xa5, 0x79, 0x91,
  0x83, 0x90, 0x73, 0x61, 0x77, 0xa8, 0x54, 0x9e, 0x76, 0x86, 0x7e, 0x6f,
  0x91, 0x90, 0x6e, 0x81, 0x86, 0x8b, 0x80, 0x7d, 0xb8, 0x82, 0x97, 0x86,
  0x83, 0x95, 0x75, 0x8a, 0x80, 0x68, 0x94, 0x80, 0x91, 0xb4, 0x70, 0x67,
  0xa2, 0x5b, 0xb2, 0x67, 0x6b, 0x78, 0x8a, 0x85, 0x97, 0x84, 0x8a, 0x40,
  0x52, 0x73, 0x6f, 0x8e, 0x9b, 0x71, 0x8c, 0x81, 0x86, 0x96, 0x6f, 0x91,
  0x84, 0x83, 0x7d, 0x90, 0x75, 0x9b, 0x68, 0x8a, 0x8f, 0x6a, 0xbf, 0x8e,
  0x71, 0xe4, 0x78, 0x55, 0x54, 0x90, 0xba, 0x70, 0xa8, 0xd9, 0x72, 0x3f,
  0x78, 0x5e, 0xd0, 0x47, 0x8a, 0xbd, 0x6d, 0x50, 0x9a, 0x6d, 0xbe, 0x4c,
  0x7f, 0xb9, 0x6b, 0x66, 0x93, 0x91, 0xac, 0x91, 0x81, 0x84, 0x8f, 0x31,
  0x6c, 0x7f, 0x92, 0x77, 0x79, 0x6e, 0x90, 0x4a, 0x7c, 0x88, 0x86, 0x71,
  0x8a, 0x93, 0x93, 0x80, 0x8b, 0xa4, 0x70, 0x81, 0x8d, 0x99, 0x7f, 0x54,
  0xaa, 0xb0, 0x79, 0x6f, 0x7f, 0x68, 0x88, 0x57, 0x7d, 0xb7, 0x6c, 0xa7,
  0x94, 0x65, 0xa8, 0x56, 0x86, 0xa0, 0x4a, 0xb4, 0x5e, 0x78, 0x9f, 0x3f,
  0xa3, 0xa8, 0x7a, 0x76, 0x8d, 0x94, 0x9b, 0x4c, 0x83, 0xa1, 0x77, 0xa9,
  0x86, 0x7c, 0x7d, 0x63, 0x8c, 0xb0, 0x68, 0x8a, 0x78, 0x85, 0x6c, 0x70,
  0xaa, 0x7c, 0x84, 0x67, 0x65, 0x9d, 0x7c, 0x7d, 0x95, 0x8a, 0xa1, 0x73,
  0x4e, 0x99, 0x73, 0x6b, 0x88, 0x64, 0xa5, 0x6e, 0x42, 0x87, 0x7d, 0x92,
  0x6b, 0x85, 0x8c, 0x4f, 0x32, 0x91, 0x88, 0x61, 0x7b, 0x7a, 0x64, 0x8a,
  0x98, 0x99, 0x8a, 0x9f, 0x82, 0xa4, 0x93, 0x89, 0x7c, 0xad, 0x85, 0x83,
  0x72, 0x8b, 0x99, 0x9d, 0xc4, 0xba, 0x69, 0x74, 0x5b, 0x86, 0xb6, 0x51,
  0x9f, 0xc8, 0x84, 0x2e, 0x83, 0x52, 0xc1, 0x52, 0x84, 0xe5, 0x83, 0x5b,
  0xa6, 0x88, 0xa6, 0x5c, 0x98, 0xae, 0x7c, 0x69, 0x90, 0x86, 0xae, 0xa3,
  0x87, 0x83, 0x81, 0x55, 0x5d, 0x74, 0x6c, 0x6b, 0x6b, 0x86, 0x7f, 0x59,
  0x64, 0x7d, 0x6a, 0x87, 0x92, 0x9a, 0x6f, 0x5e, 0x8e, 0x9b, 0x74, 0x8f,
  0x73, 0xbb, 0x79, 0x5d, 0xa2, 0xaf, 0x7b, 0x82, 0x90, 0x88, 0x86, 0x4c,
  0x97, 0xd0, 0x58, 0xa1, 0x7d, 0x47, 0x7b, 0x66, 0xa7, 0xa9, 0x4b, 0x9f,
  0x99, 0x87, 0x8c, 0x69, 0xab, 0xc5, 0x80, 0x75, 0x7e, 0x97, 0x6d, 0x53,
  0x6c, 0x98, 0x60, 0x90, 0xa8, 0x84, 0x7c, 0x64, 0x8b, 0xb1, 0x72, 0x8d,
  0x64, 0x93, 0x6f, 0x7d, 0x97, 0x80, 0x85, 0x54, 0x7b, 0x9a, 0x7f, 0x70,
  0x8a, 0x75, 0xaf, 0x71, 0x55, 0xb0, 0x82, 0x91, 0x91, 0x71, 0x98, 0x70,
  0x5a, 0x88, 0x80, 0x65, 0x78, 0x71, 0x81, 0x6e, 0x50, 0x5d, 0x80, 0x79,
  0x5f, 0x79, 0x6b, 0x80, 0xad, 0x8f, 0x91, 0x98, 0x88, 0x86, 0x8b, 0x6c,
  0x72, 0x92, 0x75, 0x5d, 0x78, 0x8f, 0xa7, 0x97, 0x93, 0xcb, 0x90, 0x42,
  0x4d, 0x9d, 0xc6, 0x71, 0x87, 0xd1, 0x66, 0x34, 0x81, 0x6f, 0xda, 0x4f,
  0x6e, 0xc7, 0x7c, 0x5c, 0x96, 0x78, 0xb4, 0x6e, 0x76, 0xdd, 0x72, 0x74,
  0xa0, 0xa8, 0xa8, 0x7e, 0x7c, 0x94, 0x84, 0x45, 0x6c, 0x74, 0x77, 0x86,
  0x67, 0x75, 0x82, 0x64, 0x5f, 0xa0, 0x69, 0x60, 0x7a, 0x8c, 0x75, 0x63,
  0x91, 0x95, 0x83, 0x8b, 0x87, 0x94, 0x7d, 0x64, 0xab, 0xbb, 0x89, 0x72,
  0x7e, 0x82, 0x6d, 0x54, 0x8a, 0xbf, 0x61, 0xa4, 0x70, 0x6f, 0x9e, 0x5f,
  0x95, 0xc1, 0x5b, 0xa7, 0x82, 0x7c, 0x9e, 0x6f, 0x9f, 0xcc, 0x81, 0x85,
  0x93, 0x99, 0x95, 0x66, 0x79, 0x97, 0x6e, 0x78, 0x96, 0x70, 0x82, 0x7d,
  0x75, 0xac, 0x71, 0x89, 0x99, 0x9b, 0x7e, 0x86, 0x9a, 0x89, 0x7b, 0x7b,
  0x69, 0x97, 0x8b, 0x6b, 0x8e, 0x75, 0xa1, 0x73, 0x93, 0x95, 0x8b, 0x6f,
  0x93, 0x6c, 0xb1, 0x76, 0x45, 0x9f, 0x8d, 0x86, 0x97, 0x62, 0x8f, 0x6a,
  0x5e, 0x75, 0x72, 0x8f, 0x86, 0x77, 0x77, 0x6e, 0x6a, 0x9a, 0x72, 0x7d,
  0x84, 0x71, 0xa7, 0x73, 0xb7, 0x9b, 0x7e, 0x8d, 0x60, 0xac, 0xa3, 0x99,
  0xa8, 0xbf, 0x7a, 0x50, 0x56, 0x73, 0xc9, 0x6c, 0x75, 0xde, 0x76, 0x29,
  0x48, 0x57, 0xe0, 0x3e, 0x6e, 0xce, 0x7d, 0x4c, 0xa4, 0x76, 0xcb, 0x5d,
  0x6f, 0xb3, 0x60, 0x76, 0x97, 0x8b, 0xa7, 0x8d, 0x78, 0x8a, 0x7e, 0x59,
  0x68, 0x84, 0x7e, 0x7b, 0x93, 0x6d, 0x7f, 0x48, 0x54, 0x86, 0x67, 0x95,
  0xa4, 0x88, 0x7e, 0x41, 0x97, 0x9a, 0x7a, 0x7f, 0x5c, 0xa5, 0x86, 0x32,
  0xbb, 0xbe, 0x8d, 0x6d, 0x9f, 0x81, 0x65, 0x55, 0x89, 0xbf, 0x63, 0x9a,
  0x7f, 0x6c, 0x89, 0x59, 0x7c, 0xc8, 0x40, 0xb2, 0x84, 0x7e, 0x87, 0x76,
  0xaa, 0xbb, 0x63, 0x71, 0x6f, 0x88, 0x6a, 0x68, 0x65, 0xb0, 0x65, 0x8b,
  0x5e, 0x85, 0x83, 0x7b, 0x80, 0x89, 0x6c, 0x8a, 0x85, 0x81, 0x7d, 0x75,
  0x85, 0x8c, 0x83, 0x6a, 0x94, 0x9a, 0x74, 0x78, 0x7e, 0x79, 0xa4, 0x89,
  0x78, 0x93, 0x83, 0x77, 0x7b, 0x79, 0xa5, 0x56, 0x43, 0x8c, 0x96, 0x95,
  0x4e, 0x8c, 0x8c, 0x6c, 0x38, 0x82, 0x87, 0x89, 0x67, 0x95, 0x6f, 0x81,
  0xa0, 0x98, 0x46, 0x5f, 0x93, 0x6f, 0xa5, 0x94, 0x97, 0x86, 0x6c, 0x6f,
  0x83, 0xaf, 0x78, 0x93, 0xb3, 0xbd, 0x90, 0x49, 0x54, 0x7b, 0xb2, 0x62,
  0xa5, 0xdb, 0x70, 0x51, 0x5b, 0x65, 0xbc, 0x46, 0x71, 0xd9, 0x6a, 0x59,
  0x7b, 0x6c, 0xc6, 0x5f, 0x8a, 0xb5, 0x42, 0x69, 0xba, 0x81, 0xa6, 0x8c,
  0x94, 0x91, 0x82, 0x45, 0x69, 0x9e, 0x7a, 0x72, 0x86, 0x71, 0x89, 0x58,
  0x75, 0xbd, 0x64, 0x8f, 0x8e, 0x95, 0x7e, 0x48, 0x8c, 0x9a, 0x66, 0x90,
  0x9f, 0x9b, 0x76, 0x49, 0xb1, 0xb3, 0x7b, 0x6b, 0x85, 0x88, 0x72, 0x48,
  0xa7, 0xc6, 0x57, 0x8f, 0x6e, 0x68, 0x99, 0x45, 0x7d, 0xbc, 0x4e, 0xae,
  0x6d, 0x83, 0x86, 0x52, 0x73, 0xaa, 0x65, 0x84, 0x8a, 0x8e, 0x7f, 0x67,
  0x77, 0x9d, 0x5d, 0x98, 0x8b, 0x65, 0x89, 0x66, 0x70, 0xa7, 0x83, 0x81,
  0x8f, 0x8e, 0x8a, 0x79, 0x93, 0x87, 0x8e, 0x6a, 0x79, 0xa0, 0x85, 0x8c,
  0x87, 0x99, 0xb4, 0x75, 0x74, 0x91, 0x85, 0x86, 0xab, 0x9d, 0xa5, 0x5c,
  0x43, 0x9e, 0x96, 0x70, 0x8c, 0x4b, 0x82, 0x80, 0x4d, 0x83, 0x89, 0x7c,
  0x6d, 0x7a, 0x6b, 0x6e, 0x8b, 0x92, 0x71, 0x9e, 0x6b, 0x70, 0x9a, 0x66,
  0x7b, 0x8e, 0x65, 0x92, 0x87, 0x68, 0x9e, 0x97, 0x90, 0xb5, 0x70, 0x57,
  0x3d, 0x8b, 0xbb, 0x5d, 0x77, 0xe4, 0x6e, 0x4d, 0x68, 0x51, 0xb2, 0x30,
  0x96, 0xba, 0x72, 0x5b, 0x87, 0x73, 0xd1, 0x70, 0x83, 0xa7, 0x52, 0x73,
  0x92, 0x8a, 0xb5, 0x7c, 0x74, 0x95, 0x7c, 0x3b, 0x5a, 0x70, 0x6b, 0x7f,
  0x77, 0x5f, 0x75, 0x5f, 0x65, 0x85, 0x7a, 0x97, 0x5d, 0x97, 0x91, 0x41,
  0xa4, 0x91, 0x62, 0x7d, 0x81, 0xa1, 0x6f, 0x41, 0xc0, 0xbb, 0x7b, 0x5f,
  0x5d, 0x75, 0x80, 0x6d, 0x7c, 0xc3, 0x55, 0xa8, 0x90, 0x60, 0x96, 0x5c,
  0x95, 0x9a, 0x53, 0x9d, 0x88, 0x82, 0x8d, 0x79, 0x81, 0xbc, 0x59, 0x7b,
  0x92, 0x6d, 0x74, 0x6c, 0x80, 0xa9, 0x69, 0x8c, 0x67, 0x88, 0x72, 0x7e,
  0x79, 0x9c, 0x6f, 0x8d, 0x7d, 0x82, 0x7e, 0x6a, 0x77, 0x86, 0x79, 0x66,
  0x6d, 0x93, 0x81, 0x85, 0x84, 0x91, 0xa5, 0x7d, 0x4d, 0x85, 0x8d, 0x8c,
  0x91, 0x94, 0x89, 0x54, 0x49, 0x94, 0x78, 0x8b, 0x85, 0x83, 0x98, 0x81,
  0x58, 0x8f, 0x8e, 0x8e, 0x72, 0x6c, 0x6e, 0x80, 0x69, 0xa6, 0x52, 0x85,
  0x92, 0x75, 0x7d, 0x52, 0x7a, 0x9c, 0x63, 0x71, 0x64, 0x9b, 0x88, 0xa8,
  0x7c, 0xbf, 0x67, 0x55, 0x30, 0x7d, 0xa5, 0x5c, 0x9b, 0xd9, 0x5c, 0x43,
  0x59, 0x58, 0xcc, 0x60, 0x96, 0xcc, 0x81, 0x4a, 0x94, 0x63, 0xd7, 0x66,
  0x86, 0xa8, 0x66, 0x8f, 0x8d, 0x8a, 0xba, 0x78, 0x70, 0x84, 0x85, 0x3b,
  0x5e, 0x72, 0x7f, 0x80, 0x80, 0x61, 0x9d, 0x57, 0x75, 0xa5, 0x77, 0x93,
  0x55, 0xa6, 0x73, 0x44, 0xa1, 0x89, 0x65, 0x91, 0x53, 0xac, 0x67, 0x4d,
  0xc6, 0xb1, 0x7f, 0x6e, 0x7d, 0x77, 0x78, 0x3d, 0x81, 0xcf, 0x6a, 0xa4,
  0x7c, 0x72, 0x81, 0x63, 0x92, 0xcd, 0x47, 0xab, 0x6b, 0x72, 0x9d, 0x54,
  0x9d, 0xb7, 0x7b, 0x80, 0x6b, 0x82, 0x71, 0x78, 0x7b, 0x98, 0x8d, 0x99,
  0x64, 0x8a, 0x6d, 0x8f, 0x8d, 0x9c, 0x82, 0x95, 0x75, 0x98, 0x81, 0x67,
  0x83, 0x87, 0x8d, 0x78, 0x51, 0xa3, 0x8e, 0x90, 0x80, 0x80, 0xaa, 0x75,
  0x51, 0x76, 0x7e, 0x8d, 0x86, 0x84, 0x94, 0x6e, 0x47, 0x76, 0x7b, 0x7a,
  0x8d, 0x81, 0x77, 0x64, 0x6b, 0x9e, 0x90, 0x84, 0x83, 0x7d, 0x74, 0x79,
  0x90, 0x99, 0x74, 0x77, 0x8c, 0x8e, 0x7a, 0x6b, 0x68, 0x8e, 0x6c, 0x97,
  0x89, 0x8f, 0xa6, 0x91, 0x8b, 0xdc, 0x5f, 0x74, 0x4b, 0x81, 0xbb, 0x66,
  0xad, 0xdb, 0x72, 0x66, 0x78, 0x5b, 0xd6, 0x68, 0x68, 0xbe, 0x4f, 0x50,
  0x96, 0x51, 0xb2, 0x5b, 0x7c, 0xa1, 0x68, 0x7d, 0xb2, 0x81, 0xa2, 0x6b,
  0x71, 0x79, 0x86, 0x4d, 0x65, 0x5b, 0x8d, 0x96, 0x84, 0x5e, 0x7d, 0x73,
  0x6e, 0x78, 0x7d, 0x87, 0x6b, 0x82, 0x81, 0x4d, 0x8f, 0x78, 0x58, 0x82,
  0x97, 0x8b, 0x69, 0x55, 0xa5, 0x95, 0x7c, 0x89, 0x71, 0x75, 0x74, 0x4d,
  0x7e, 0xd7, 0x5b, 0xa4, 0x68, 0x7e, 0x88, 0x5d, 0x81, 0xa7, 0x4f, 0xac,
  0x8f, 0x77, 0x80, 0x61, 0x92, 0xae, 0x5e, 0x8b, 0x6b, 0x7f, 0x7b, 0x79,
  0x62, 0xa0, 0x69, 0x8d, 0x7d, 0x76, 0x89, 0x89, 0x8b, 0xb6, 0x7b, 0x83,
  0x82, 0x85, 0x76, 0x7a, 0x81, 0x67, 0x92, 0x74, 0x62, 0x9a, 0x7b, 0x81,
  0x75, 0x8e, 0xba, 0x54, 0x78, 0x95, 0x93, 0xa3, 0x7a, 0x93, 0x91, 0x79,
  0x4f, 0xa0, 0x9e, 0x7a, 0x8d, 0x72, 0x85, 0x7d, 0x45, 0x7a, 0x8d, 0x8f,
  0x97, 0x82, 0x7d, 0x7b, 0x66, 0x90, 0x8a, 0x7c, 0x96, 0x52, 0x90, 0x64,
  0x8d, 0xa7, 0x56, 0x89, 0x7e, 0xb7, 0x8e, 0xa8, 0x94, 0xde, 0x76, 0x67,
  0x4c, 0x74, 0xae, 0x67, 0x85, 0xd9, 0x5d, 0x5a, 0x69, 0x50, 0xdb, 0x6b,
  0x9d, 0xd3, 0x84, 0x65, 0xac, 0x61, 0xbd, 0x7b, 0x6e, 0xc0, 0x50, 0x74,
  0x99, 0x8d, 0x8a, 0x6f, 0x74, 0x7f, 0x78, 0x4a, 0x6a, 0x6d, 0x8b, 0x67,
  0x6f, 0x98, 0x88, 0x74, 0x77, 0xaa, 0x70, 0x7c, 0x66, 0x7e, 0x79, 0x58,
  0xa1, 0x82, 0x67, 0x77, 0x90, 0x7c, 0x50, 0x62, 0xb7, 0x95, 0x78, 0x84,
  0x5f, 0x80, 0x7a, 0x7a, 0x87, 0xb7, 0x7d, 0xa2, 0x64, 0x5d, 0x98, 0x72,
  0x81, 0xa6, 0x64, 0x9f, 0xab, 0x86, 0x8f, 0x6a, 0x82, 0x9d, 0x7f, 0x98,
  0x88, 0x5e, 0x81, 0x79, 0x6c, 0x98, 0x77, 0x89, 0xa0, 0x7a, 0x86, 0x6e,
  0x77, 0x89, 0x90, 0x8e, 0x57, 0x87, 0x74, 0x73, 0x89, 0x75, 0x9a, 0x71,
  0x59, 0x8f, 0x85, 0x99, 0x90, 0x7c, 0x9a, 0x5f, 0x7e, 0x85, 0x82, 0x80,
  0xa3, 0x99, 0xa4, 0x79, 0x5c, 0x9d, 0x90, 0x87, 0x98, 0x93, 0x90, 0x84,
  0x69, 0x77, 0x82, 0x7d, 0x84, 0x72, 0x6e, 0x91, 0xac, 0x7c, 0x5c, 0xa0,
  0x8d, 0xa1, 0x71, 0x50, 0x61, 0x91, 0x4f, 0x78, 0x76, 0x79, 0x81, 0xa7,
  0xb0, 0xde, 0x69, 0x86, 0x25, 0x79, 0xa3, 0x56, 0x6e, 0xe2, 0x81, 0x7c,
  0x6e, 0x6b, 0xd1, 0x6e, 0x7e, 0xe2, 0x60, 0x6b, 0x99, 0x5b, 0xb7, 0x76,
  0x84, 0xb2, 0x63, 0x82, 0x92, 0x98, 0x9d, 0x6c, 0x68, 0xa4, 0x77, 0x54,
  0x55, 0x6e, 0x95, 0x66, 0x82, 0x72, 0x7e, 0x64, 0x51, 0x7f, 0x91, 0x82,
  0x6a, 0x7c, 0x6e, 0x6e, 0xbd, 0xa1, 0x89, 0xa8, 0x71, 0x9b, 0x67, 0x68,
  0xb8, 0x83, 0x90, 0x69, 0x58, 0x7c, 0x65, 0x60, 0x75, 0x89, 0x76, 0x84,
  0x80, 0x82, 0x8d, 0x85, 0x70, 0x98, 0x6e, 0x99, 0x8f, 0x8a, 0x81, 0x75,
  0x85, 0x89, 0x64, 0x92, 0x87, 0x8a, 0x68, 0x7a, 0x67, 0x9f, 0x7d, 0x90,
  0x81, 0x80, 0x8b, 0x78, 0x8c, 0xa3, 0x8d, 0x87, 0x74, 0x8c, 0x6a, 0x7c,
  0x7a, 0x88, 0x91, 0x73, 0x96, 0x97, 0x77, 0x83, 0x7c, 0x7c, 0xae, 0x63,
  0x81, 0x6b, 0x86, 0x82, 0x83, 0x83, 0x9d, 0x75, 0x65, 0xa7, 0x7b, 0x7d,
  0x89, 0x6e, 0xb5, 0x92, 0x5c, 0x86, 0x7a, 0x80, 0x66, 0x74, 0x79, 0x85,
  0x84, 0x7b, 0x9a, 0x85, 0x88, 0x55, 0x86, 0x5a, 0x89, 0xa7, 0x3f, 0x59,
  0x8a, 0xaa, 0x77, 0x86, 0xa0, 0xa0, 0x8e, 0x70, 0x6b, 0x72, 0xa4, 0x6d,
  0x9d, 0xaf, 0x75, 0x86, 0x9e, 0x79, 0xb3, 0x50, 0x74, 0x96, 0x74, 0x92,
  0x9e, 0x66, 0xc6, 0x42, 0x79, 0xb4, 0x56, 0x6e, 0x9d, 0x6d, 0xb2, 0x5d,
  0x65, 0x80, 0x8a, 0x6d, 0x69, 0x4d, 0x74, 0x62, 0x93, 0x8e, 0x8d, 0x76,
  0x76, 0x85, 0x70, 0x85, 0x7e, 0x7e, 0x7a, 0x8a, 0xaa, 0x8b, 0x6d, 0x99,
  0x6f, 0x90, 0x54, 0x67, 0x9d, 0x8b, 0x87, 0x65, 0x88, 0x6d, 0x58, 0x6e,
  0x60, 0x91, 0x86, 0x6e, 0x57, 0x73, 0x76, 0x6e, 0x77, 0x91, 0x8f, 0xa7,
  0x77, 0x79, 0x73, 0x6f, 0x80, 0x8a, 0x8f, 0x8d, 0xa9, 0x7b, 0x74, 0x78,
  0x89, 0xa7, 0x96, 0x75, 0x73, 0x78, 0x6d, 0x6f, 0x71, 0xad, 0x97, 0x68,
  0x92, 0x8f, 0x81, 0x8b, 0x8c, 0x9f, 0x95, 0x63, 0x87, 0x9f, 0x7e, 0x87,
  0xaf, 0xa1, 0xa3, 0x6d, 0x72, 0x9c, 0x9b, 0x8b, 0xa1, 0x8d, 0xa6, 0x7e,
  0xa2, 0xa0, 0x83, 0x7a, 0x58, 0x81, 0xc2, 0x90, 0x8e, 0x9a, 0x8c, 0x96,
  0x56, 0x7d, 0xab, 0x93, 0x95, 0x8c, 0x91, 0x8a, 0x96, 0x70, 0x83, 0x8e,
  0x72, 0xa2, 0x4d, 0x98, 0x9d, 0x88, 0x9a, 0x85, 0x93, 0x98, 0x72, 0x7b,
  0x7e, 0x90, 0xc4, 0x59, 0x68, 0x9d, 0x4c, 0x8b, 0x6f, 0x92, 0xb1, 0x66,
  0x65, 0xac, 0x6b, 0x73, 0x91, 0x8a, 0xbd, 0x59, 0xa1, 0x8b, 0x5a, 0x72,
  0xbe, 0x9d, 0x9e, 0x50, 0x9d, 0x80, 0x7b, 0x73, 0x62, 0x84, 0x9f, 0x72,
  0x82, 0x72, 0x88, 0x75, 0x84, 0x95, 0x69, 0x77, 0xab, 0x83, 0x80, 0x86,
  0x94, 0x8b, 0x7a, 0x7a, 0x7f, 0x8b, 0x5b, 0x87, 0xce, 0x97, 0x8d, 0x5f,
  0x92, 0x84, 0x49, 0x67, 0x93, 0x94, 0x8e, 0x5d, 0x67, 0x98, 0x8b, 0x70,
  0x8e, 0x91, 0x72, 0x88, 0x7b, 0x71, 0x7e, 0x73, 0x7e, 0xa5, 0x9d, 0x86,
  0x5f, 0x86, 0x57, 0x6b, 0xb0, 0x9e, 0x8c, 0x79, 0x8c, 0x8c, 0x66, 0x78,
  0xa8, 0x9a, 0x84, 0x53, 0x7a, 0xa4, 0x69, 0x78, 0x8c, 0x7a, 0x89, 0x6e,
  0x9d, 0x8e, 0x90, 0x6d, 0x98, 0x7a, 0xa3, 0x74, 0x8d, 0x8e, 0xa0, 0x7d,
  0x96, 0x8e, 0x94, 0x6a, 0x81, 0xa3, 0xa2, 0x85, 0x9f, 0x8a, 0xa4, 0x71,
  0x6f, 0xa4, 0x96, 0x79, 0x96, 0x98, 0x8e, 0x8b, 0x7c, 0xa0, 0x5c, 0xa4,
  0x98, 0x9c, 0x7f, 0x64, 0x7c, 0x9f, 0x6f, 0xa3, 0x9b, 0x7c, 0x76, 0x83,
  0xaa, 0x77, 0x59, 0x93, 0x91, 0x6a, 0x6e, 0x7b, 0x8c, 0x88, 0x78, 0x79,
  0x9d, 0xa5, 0x90, 0xa2, 0x8b, 0xa6, 0x84, 0x74, 0x99, 0x74, 0xa3, 0x8f,
  0x88, 0x54, 0x7a, 0xa8, 0x81, 0x78, 0xa6, 0x95, 0xa4, 0x8b, 0x77, 0x8b,
  0xb3, 0x75, 0x9b, 0x68, 0x80, 0x84, 0x90, 0x85, 0x91, 0x83, 0x9d, 0x81,
  0xa6, 0xab, 0x89, 0x8b, 0x8d, 0x94, 0x9c, 0x86, 0xa6, 0x8f, 0x6e, 0x97,
  0x74, 0x82, 0x98, 0x82, 0x95, 0x97, 0x6e, 0x85, 0x8f, 0x69, 0xab, 0x89,
  0x76, 0x8f, 0x5b, 0x7e, 0x57, 0x85, 0xc5, 0x6b, 0x92, 0x92, 0x7c, 0x9a,
  0x6c, 0x9d, 0xa7, 0x84, 0x8c, 0x8e, 0x5e, 0x6b, 0x72, 0x83, 0x9f, 0x71,
  0x84, 0x92, 0x78, 0x8f, 0x6e, 0x5b, 0x99, 0x65, 0x71, 0x67, 0x8a, 0x87,
  0x85, 0x88, 0x97, 0xa9, 0x5f, 0x8d, 0x79, 0x6d, 0x9a, 0x97, 0x8b, 0x74,
  0x79, 0x73, 0x7c, 0x6e, 0x79, 0x81, 0x6b, 0x84, 0x87, 0x65, 0xa3, 0x72,
  0xa0, 0x87, 0x86, 0x8b, 0x77, 0x7c, 0x74, 0x62, 0x71, 0x8e, 0x7a, 0x8e,
  0xad, 0x8a, 0x9b, 0x97, 0x7e, 0x71, 0x84, 0x89, 0x92, 0x6b, 0x7c, 0x79,
  0x9c, 0x7c, 0x82, 0x85, 0x99, 0x4d, 0x99, 0x70, 0x93, 0xa0, 0x6e, 0x6c,
  0x97, 0x84, 0x85, 0x7e, 0x95, 0x8b, 0x76, 0x8a, 0x99, 0x6b, 0x98, 0x84,
  0x81, 0x80, 0x93, 0x96, 0x86, 0x89, 0x91, 0x97, 0x94, 0x8b, 0x75, 0x66,
  0x8d, 0x7e, 0x8b, 0x53, 0x68, 0x8d, 0x84, 0x80, 0x8a, 0x73, 0x8e, 0x87,
  0x96, 0x7e, 0x95, 0x84, 0x8a, 0x66, 0x7c, 0x8e, 0x80, 0x6a, 0x89, 0x6a,
  0x96, 0x94, 0x83, 0xa0, 0x70, 0x6f, 0x89, 0x80, 0x8c, 0x6d, 0x71, 0x8b,
  0x57, 0x82, 0x8b, 0x6d, 0x7c, 0x96, 0x87, 0x64, 0x5e, 0x61, 0x9b, 0x98,
  0x7f, 0x9f, 0x9f, 0x75, 0x78, 0x74, 0x78, 0x7e, 0x98, 0x98, 0x97, 0x94,
  0x56, 0x9a, 0xa7, 0x9a, 0x89, 0x67, 0x8b, 0x77, 0x64, 0x7a, 0x8e, 0x64,
  0x8e, 0x5f, 0x82, 0x77, 0x6b, 0x76, 0x86, 0x97, 0x97, 0x95, 0x73, 0x80,
  0x79, 0x86, 0x71, 0xa3, 0x93, 0x7e, 0x67, 0x73, 0x96, 0x5a, 0x68, 0x71,
  0xa2, 0x86, 0x94, 0x5c, 0x82, 0x94, 0x85, 0x7a, 0x93, 0x6f, 0x6a, 0x83,
  0x88, 0x82, 0x97, 0x7c, 0x70, 0x7b, 0x6b, 0x98, 0xac, 0x93, 0x6f, 0x55,
  0x72, 0x91, 0x88, 0x7a, 0xb6, 0x83, 0x71, 0x54, 0x89, 0x84, 0x73, 0x8b,
  0x6b, 0x6e, 0x75, 0xac, 0x8d, 0x57, 0x71, 0x9e, 0x76, 0x9c, 0x89, 0x86,
  0x8e, 0x75, 0x7d, 0x82, 0x98, 0x8e, 0x70, 0x78, 0x86, 0x8e, 0x81, 0x84,
  0x81, 0x89, 0x83, 0x6c, 0x79, 0x95, 0x61, 0x67, 0x7c, 0x9c, 0x89, 0xa0,
  0x78, 0x8c, 0x5d, 0x8d, 0x79, 0x75, 0x80, 0x89, 0x91, 0xa1, 0x69, 0x67,
  0x63, 0x70, 0x96, 0x8a, 0x94, 0xb1, 0x98, 0x88, 0x70, 0x59, 0xa6, 0x7b,
  0x55, 0xa7, 0x76, 0x9b, 0x68, 0x6f, 0x92, 0x78, 0x79, 0x85, 0x7d, 0x9c,
  0x50, 0x75, 0x9c, 0x6b, 0x71, 0x82, 0x7d, 0x69, 0x5f, 0x53, 0x88, 0x91,
  0x97, 0x5d, 0x7f, 0x86, 0x6f, 0x82, 0x7c, 0x73, 0x64, 0x48, 0x9c, 0x9e,
  0x63, 0x7c, 0x96, 0x7d, 0x83, 0x86, 0x83, 0x89, 0x72, 0x83, 0x8a, 0x57,
  0x75, 0x71, 0x88, 0x7b, 0x7b, 0x9f, 0x7b, 0x89, 0x95, 0x79, 0x7c, 0x86,
  0x85, 0x89, 0x68, 0x8f, 0x91, 0x88, 0x96, 0x6c, 0x95, 0x61, 0x59, 0x96,
  0x87, 0x6b, 0x92, 0x7d, 0x98, 0x86, 0x55, 0x90, 0x84, 0x76, 0x6b, 0x92,
  0x8d, 0x5a, 0x67, 0xa8, 0x7e, 0x9b, 0x6e, 0x82, 0x67, 0x8a, 0x4d, 0x63,
  0x6b, 0x62, 0x61, 0x83, 0x9b, 0x85, 0x82, 0x91, 0x86, 0x52, 0x85, 0xc5,
  0x79, 0x93, 0x7c, 0x90, 0x69, 0x57, 0x68, 0x9a, 0x8d, 0x82, 0x63, 0xad,
  0x67, 0x55, 0x4f, 0xa0, 0xac, 0x8b, 0x86, 0x9e, 0x7d, 0x69, 0x6f, 0x77,
  0x9c, 0x91, 0x69, 0x8a, 0x77, 0x9c, 0x6b, 0x88, 0x63, 0x75, 0x91, 0x73,
  0x8f, 0xa5, 0x85, 0x5a, 0x58, 0x3f, 0x90, 0x85, 0x83, 0xbd, 0x67, 0x88,
  0x6e, 0x55, 0xbd, 0x6d, 0x7b, 0xae, 0x6c, 0x73, 0x56, 0x59, 0xbf, 0x7b,
  0x7f, 0x9a, 0x8d, 0x8b, 0x77, 0x6b, 0xb3, 0x80, 0x67, 0xa3, 0x5c, 0x60,
  0x77, 0x62, 0x85, 0x9d, 0x63, 0x75, 0x85, 0x7f, 0x4d, 0x81, 0xa5, 0x7e,
  0x9e, 0x75, 0x53, 0x96, 0x61, 0x9f, 0x74, 0x6c, 0x73, 0x60, 0x96, 0x8b,
  0x6c, 0x7e, 0x74, 0x8b, 0xa6, 0x74, 0x6a, 0x8a, 0x88, 0xa2, 0x67, 0x81,
  0x84, 0x7e, 0x7f, 0x7e, 0x85, 0x8b, 0x8a, 0x93, 0x73, 0x9a, 0x8c, 0x79,
  0x80, 0x6f, 0x6b, 0xa8, 0x9b, 0x7c, 0x7b, 0x70, 0x94, 0x78, 0x40, 0x7a,
  0x9d, 0x8e, 0x58, 0x7d, 0x8c, 0x70, 0x73, 0x62, 0x9c, 0x96, 0x60, 0x5b,
  0x81, 0x88, 0x60, 0x91, 0x9b, 0x4f, 0x8d, 0x8e, 0x68, 0x92, 0x87, 0x8e,
  0x71, 0x49, 0x4b, 0xa0, 0xa6, 0x9e, 0x73, 0xb4, 0x6e, 0x4e, 0x94, 0xa4,
  0xab, 0x88, 0x6e, 0x97, 0x7d, 0x61, 0x82, 0xae, 0xa6, 0xa5, 0x8c, 0xa4,
  0x85, 0x8b, 0x6a, 0x84, 0x8c, 0xa7, 0x81, 0x90, 0x7f, 0x94, 0x69, 0x56,
  0x6e, 0x94, 0x89, 0x6a, 0x7d, 0xb6, 0x96, 0x81, 0x50, 0x4d, 0xa2, 0x90,
  0x96, 0xcb, 0xa1, 0xa0, 0x69, 0x44, 0xc7, 0x50, 0x84, 0xb9, 0x71, 0x93,
  0x49, 0x4d, 0xbb, 0x74, 0x66, 0xa5, 0x87, 0x70, 0x7d, 0x5e, 0xbb, 0x70,
  0x93, 0x79, 0x8a, 0x98, 0x6c, 0x57, 0x85, 0x99, 0x79, 0x71, 0x84, 0x84,
  0x52, 0x7b, 0xa8, 0x59, 0x9d, 0x7a, 0x88, 0x75, 0x6d, 0x96, 0x8c, 0x68,
  0x8d, 0x6a, 0x62, 0x78, 0x68, 0x96, 0x58, 0x90, 0x93, 0x83, 0x50, 0x87,
  0x6d, 0x95, 0x73, 0x74, 0xa8, 0x7a, 0x73, 0xa6, 0x7a, 0x97, 0x83, 0x89,
  0x6d, 0x68, 0x90, 0x7a, 0x6b, 0x66, 0x57, 0xa1, 0xb4, 0x7d, 0x6f, 0x7f,
  0xa3, 0x6d, 0x5e, 0x68, 0x74, 0x87, 0x6b, 0xa6, 0x7d, 0x82, 0x89, 0x6c,
  0x7d, 0x9a, 0x53, 0x85, 0x6f, 0x99, 0x5b, 0x9f, 0x84, 0x47, 0x81, 0x9b,
  0x90, 0x93, 0x7c, 0x9f, 0x77, 0x71, 0x73, 0xb9, 0x93, 0x9e, 0x71, 0xbb,
  0x79, 0x49, 0x5d, 0xa1, 0xab, 0xa0, 0x69, 0xb7, 0x97, 0x6a, 0x6f, 0xc3,
  0x9f, 0xc4, 0x76, 0x86, 0x84, 0x82, 0x58, 0x7c, 0x83, 0xaa, 0x90, 0x9c,
  0x80, 0xa4, 0x93, 0x5e, 0x63, 0x9c, 0x86, 0x77, 0xa5, 0xb6, 0x95, 0x46,
  0x7b, 0x5a, 0xb4, 0x43, 0x5f, 0xba, 0x8c, 0x91, 0x32, 0x35, 0xca, 0x55,
  0x5e, 0xa1, 0x78, 0x5e, 0x32, 0x2c, 0xc7, 0x51, 0x62, 0xb0, 0x7b, 0x7a,
  0x83, 0x5e, 0xcc, 0x79, 0x83, 0x98, 0x6d, 0x8e, 0x57, 0x61, 0x9f, 0x77,
  0x79, 0x6a, 0xa5, 0x72, 0x69, 0x5f, 0x89, 0xa2, 0x5e, 0x71, 0x78, 0x87,
  0x8f, 0x6d, 0x7f, 0x6b, 0x98, 0x8c, 0x92, 0x80, 0x8d, 0x6d, 0x5f, 0x6f,
  0x8f, 0x71, 0x69, 0x8a, 0x67, 0x71, 0x69, 0x97, 0x87, 0x78, 0x66, 0x95,
  0x91, 0x8d, 0x62, 0xab, 0x99, 0x80, 0x70, 0x76, 0x7a, 0x76, 0x42, 0x8d,
  0x8b, 0x83, 0x79, 0x71, 0x99, 0x75, 0x72, 0x73, 0x81, 0x83, 0x91, 0x66,
  0x79, 0x84, 0xa3, 0xab, 0x7b, 0x86, 0x70, 0x7c, 0x72, 0x84, 0x79, 0x65,
  0x7e, 0x47, 0x8b, 0xa0, 0x61, 0x81, 0x81, 0x97, 0x7b, 0x6e, 0x5c, 0xc8,
  0x71, 0x9c, 0x7f, 0xab, 0x70, 0x46, 0x95, 0xa5, 0x95, 0x9c, 0x60, 0xa9,
  0x80, 0x63, 0x8b, 0xa7, 0xc8, 0xaf, 0x7a, 0xa6, 0x82, 0x7d, 0x92, 0x7d,
  0x7f, 0xa2, 0x86, 0x9f, 0xa8, 0xad, 0x85, 0x51, 0x64, 0x88, 0x9c, 0x5d,
  0x9e, 0xd0, 0x7f, 0x55, 0x86, 0x49, 0xb9, 0x55, 0x8a, 0xa6, 0x8c, 0x90,
  0x49, 0x3e, 0xc9, 0x51, 0x84, 0xa4, 0x77, 0x66, 0x4a, 0x11, 0xc4, 0x57,
  0x70, 0xb6, 0x86, 0xae, 0x52, 0x51, 0xb9, 0x47, 0x6a, 0x9c, 0x69, 0x69,
  0x40, 0x82, 0x92, 0x70, 0x77, 0x7f, 0x83, 0x90, 0x5e, 0x6c, 0x83, 0x58,
  0x8e, 0xa9, 0x71, 0x83, 0x75, 0x8c, 0x84, 0x76, 0x5f, 0x9a, 0x71, 0x7e,
  0x64, 0x92, 0x75, 0x86, 0xaa, 0x6b, 0x74, 0x8c, 0x7e, 0x82, 0x51, 0x83,
  0x81, 0x7a, 0x5c, 0x93, 0x84, 0x89, 0x4e, 0x97, 0xa3, 0x70, 0x69, 0x6b,
  0x83, 0x82, 0x4c, 0x8a, 0x6a, 0x83, 0x8d, 0x8d, 0x7b, 0x75, 0x61, 0x72,
  0x6f, 0x76, 0x81, 0x65, 0x7c, 0x85, 0x99, 0xa8, 0x89, 0x7f, 0x56, 0x8f,
  0x6e, 0x72, 0x60, 0x7e, 0x86, 0x34, 0x82, 0xa5, 0x98, 0x86, 0x91, 0xae,
  0xad, 0x7e, 0x5c, 0xd3, 0x7a, 0xa2, 0x7b, 0xbb, 0x84, 0x5d, 0x87, 0xc4,
  0xa9, 0x99, 0x57, 0xa1, 0x8b, 0x53, 0x80, 0x9c, 0x98, 0xa4, 0x59, 0x9a,
  0x8b, 0x83, 0x7b, 0x76, 0x82, 0xa3, 0x79, 0xa4, 0x7c, 0xb3, 0x87, 0x41,
  0x58, 0x81, 0x94, 0x72, 0x86, 0xa3, 0x7d, 0x76, 0x6d, 0x2b, 0xa2, 0x46,
  0x67, 0xc9, 0x83, 0x95, 0x5e, 0x1d, 0xcc, 0x77, 0x74, 0xbd, 0x84, 0x68,
  0x38, 0x1a, 0xc1, 0x57, 0x82, 0xc3, 0x86, 0x99, 0x66, 0x59, 0xab, 0x62,
  0x71, 0xaf, 0x75, 0x7a, 0x5f, 0x79, 0x98, 0x4d, 0x8c, 0x87, 0x9b, 0xa2,
  0x7e, 0x75, 0x8f, 0x9f, 0x77, 0xa5, 0x8a, 0x91, 0x51, 0x6d, 0x98, 0x65,
  0xa0, 0x8a, 0x84, 0x7c, 0x74, 0x77, 0x65, 0x7a, 0x95, 0x87, 0x70, 0x90,
  0x7e, 0x8c, 0x48, 0x93, 0x74, 0x65, 0x65, 0x93, 0x8a, 0xa4, 0x46, 0x89,
  0x96, 0x93, 0x6d, 0x6a, 0x8a, 0x81, 0x53, 0x96, 0x95, 0x77, 0x82, 0x73,
  0x99, 0x71, 0x59, 0x83, 0x8a, 0x9b, 0x4f, 0xae, 0x85, 0x9e, 0x9c, 0x88,
  0x98, 0x5d, 0x69, 0x6a, 0x77, 0x94, 0x84, 0x78, 0xa1, 0x36, 0x75, 0x9c,
  0x84, 0x73, 0x56, 0xa2, 0x59, 0x91, 0x63, 0xdb, 0x69, 0x94, 0x6e, 0xa5,
  0xa5, 0x68, 0x85, 0xbe, 0x9f, 0xa2, 0x50, 0xaa, 0x83, 0x6b, 0x77, 0x84,
  0x85, 0xbf, 0x55, 0x96, 0x60, 0xa3, 0x8a, 0x5f, 0x72, 0xb3, 0x92, 0x8d,
  0x98, 0x7e, 0x8c, 0x35, 0x72, 0x84, 0x84, 0x4e, 0x75, 0xaa, 0x80, 0x67,
  0x6f, 0x48, 0xa7, 0x4a, 0xa3, 0xb3, 0x86, 0xb3, 0x63, 0x24, 0xbe, 0x45,
  0x86, 0xc9, 0x80, 0x4c, 0x36, 0x07, 0xad, 0x30, 0x83, 0xae, 0x7c, 0x9b,
  0x73, 0x7f, 0xa7, 0x5c, 0x7a, 0xa3, 0x66, 0x8a, 0x68, 0x82, 0x8d, 0x60,
  0xa3, 0x75, 0x93, 0x84, 0x6d, 0x63, 0x8a, 0x5c, 0x75, 0x79, 0x79, 0x7c,
  0x61, 0x76, 0x9c, 0x5a, 0x63, 0x89, 0x95, 0x8c, 0x77, 0x83, 0x5c, 0x86,
  0x7a, 0x63, 0x91, 0x95, 0x7a, 0x8b, 0x36, 0x87, 0x6e, 0x70, 0x68, 0x9e,
  0x81, 0xb1, 0x48, 0x97, 0x9d, 0x67, 0x7b, 0x91, 0x9e, 0x8c, 0x51, 0x98,
  0x9f, 0x75, 0x8b, 0x60, 0x99, 0x6f, 0x7a, 0x8b, 0x5e, 0x93, 0x6f, 0x76,
  0x89, 0x91, 0xae, 0xaf, 0x97, 0x7f, 0x76, 0x81, 0x6c, 0x85, 0x89, 0x8d,
  0x71, 0x3d, 0x72, 0xc0, 0x7f, 0x6b, 0x6e, 0x8d, 0x8c, 0x8a, 0x6b, 0xb7,
  0x79, 0xb1, 0x6f, 0xbf, 0x86, 0x71, 0x77, 0xb2, 0x88, 0x9e, 0x66, 0xa9,
  0x96, 0x71, 0x6d, 0x9a, 0x88, 0xcd, 0x59, 0x94, 0x8f, 0x86, 0x69, 0x5e,
  0x80, 0xa0, 0x73, 0x96, 0x79, 0xb7, 0x82, 0x56, 0x7a, 0x7a, 0x9a, 0x63,
  0x7e, 0xb1, 0x7f, 0x47, 0x7c, 0x45, 0xc9, 0x4c, 0x69, 0xc7, 0x80, 0x84,
  0x6f, 0x19, 0xc6, 0x54, 0x7b, 0xa9, 0x77, 0x39, 0x66, 0x17, 0xad, 0x2d,
  0x6e, 0xb4, 0x6c, 0x9d, 0x68, 0x84, 0xbb, 0x67, 0x80, 0x90, 0x70, 0x85,
  0x6e, 0x83, 0x8d, 0x71, 0x85, 0x86, 0x7e, 0x72, 0x73, 0x82, 0xaa, 0x62,
  0x88, 0xb2, 0x97, 0x8b, 0x68, 0x60, 0x70, 0x6e, 0x80, 0x9d, 0x90, 0x84,
  0x69, 0x69, 0x76, 0x6c, 0xa0, 0x58, 0x7c, 0x85, 0x8e, 0xa0, 0x3d, 0x71,
  0x95, 0x66, 0x82, 0xa8, 0x71, 0xb2, 0x6c, 0x96, 0x99, 0x77, 0x86, 0x6c,
  0x75, 0x81, 0x60, 0x7f, 0xa1, 0x6f, 0x9d, 0x76, 0x7f, 0x70, 0x67, 0x75,
  0x6a, 0x98, 0x9d, 0x82, 0x73, 0xb6, 0x83, 0xad, 0x71, 0x83, 0x6c, 0x74,
  0x5b, 0x81, 0x7c, 0x8b, 0x86, 0x2e, 0x82, 0x9f, 0x8d, 0x81, 0x7d, 0xb1,
  0x67, 0x7e, 0x59, 0xdd, 0x8e, 0xa2, 0x64, 0xaf, 0x8e, 0x5f, 0x63, 0xb7,
  0xaa, 0x94, 0x52, 0x92, 0x8d, 0x6c, 0x7b, 0x83, 0x97, 0xba, 0x5a, 0x88,
  0x7a, 0x8e, 0x7f, 0x7c, 0x57, 0xaf, 0x66, 0x9c, 0x90, 0xbf, 0x7c, 0x5c,
  0x67, 0x7f, 0xad, 0x62, 0x8f, 0xa5, 0x6f, 0x51, 0x7a, 0x31, 0xae, 0x4d,
  0x67, 0xce, 0x9c, 0x7e, 0x63, 0x0e, 0xd2, 0x60, 0x8f, 0xa2, 0x70, 0x3f,
  0x59, 0x2e, 0xc1, 0x2d, 0x6d, 0xc3, 0x7f, 0x8a, 0x6f, 0x63, 0xca, 0x6a,
  0x77, 0x9e, 0x72, 0x88, 0x4c, 0x72, 0x98, 0x82, 0x6b, 0x88, 0x9c, 0x7c,
  0x6e, 0x95, 0xa8, 0x6a, 0x9e, 0x95, 0x7d, 0x7a, 0x6c, 0x63, 0x8a, 0x61,
  0x66, 0x8e, 0x73, 0x6b, 0x72, 0x92, 0x5f, 0x87, 0x82, 0x9e, 0xa1, 0x90,
  0x80, 0xaf, 0x3d, 0x7a, 0x75, 0x88, 0x7a, 0x95, 0x93, 0xc4, 0x6c, 0xa5,
  0x9f, 0x4d, 0x8e, 0x8c, 0x8e, 0x9a, 0x3a, 0x9f, 0xb0, 0x7e, 0x8a, 0x78,
  0x9d, 0x61, 0x7b, 0x81, 0x98, 0x9b, 0x8b, 0x76, 0x6e, 0x90, 0x8a, 0x7b,
  0xa5, 0x79, 0x6c, 0x6c, 0x6a, 0x6b, 0x8a, 0x62, 0x6f, 0x1c, 0x8d, 0xb8,
  0x77, 0x6b, 0x63, 0xae, 0x98, 0x75, 0x63, 0xc1, 0x95, 0x94, 0x62, 0xa9,
  0x8f, 0x6e, 0x4c, 0x92, 0x9d, 0xb8, 0x4e, 0x96, 0x78, 0x5f, 0x5b, 0x94,
  0x85, 0xc5, 0x6c, 0x8d, 0x8e, 0x98, 0x7b, 0x8b, 0x71, 0xc1, 0x7a, 0xa5,
  0x89, 0xa2, 0x92, 0x78, 0x77, 0x85, 0x99, 0x5f, 0x73, 0xba, 0x83, 0x46,
  0x7f, 0x35, 0xb9, 0x52, 0x77, 0x99, 0x75, 0x65, 0x65, 0x08, 0xc5, 0x3e,
  0x6a, 0xa8, 0x7d, 0x55, 0x58, 0x0c, 0xc6, 0x26, 0x7e, 0xc9, 0x82, 0x83,
  0x70, 0x86, 0xc0, 0x41, 0x8a, 0xa1, 0x73, 0x6b, 0x5f, 0x64, 0x83, 0x67,
  0x63, 0x93, 0x90, 0x78, 0x82, 0x78, 0x9d, 0x5f, 0x79, 0x9e, 0x86, 0x73,
  0x8a, 0x8f, 0x92, 0x7d, 0x58, 0xa3, 0x8d, 0x8f, 0x60, 0x8d, 0x74, 0x7b,
  0x98, 0xa2, 0x86, 0x91, 0x7d, 0x9b, 0x3f, 0x6a, 0x8f, 0x89, 0x7e, 0x88,
  0x80, 0xaf, 0x5a, 0x93, 0x99, 0x82, 0x78, 0x70, 0x94, 0x88, 0x68, 0xa5,
  0x9b, 0x9b, 0x88, 0x7e, 0x8d, 0x7f, 0x7e, 0x77, 0x8b, 0x8d, 0x72, 0x7d,
  0x86, 0x89, 0x95, 0x7a, 0x99, 0x6e, 0x6c, 0x4e, 0x67, 0x83, 0x89, 0x7b,
  0xa6, 0x4e, 0x78, 0xb8, 0x98, 0x60, 0x6e, 0xa5, 0x81, 0x6d, 0x74, 0xd8,
  0x90, 0x84, 0x68, 0xce, 0x77, 0x7e, 0x54, 0xac, 0xb2, 0x80, 0x5c, 0x90,
  0x7c, 0x60, 0x55, 0x8c, 0x8a, 0xb2, 0x71, 0x95, 0x93, 0x96, 0x85, 0x6f,
  0x68, 0xb4, 0x8a, 0x79, 0x7f, 0xb1, 0x99, 0x6f, 0x69, 0x8c, 0x9d, 0x5b,
  0x7b, 0xb4, 0x86, 0x67, 0x92, 0x44, 0xa5, 0x45, 0x75, 0xbc, 0x8d, 0x4e,
  0x6c, 0x0c, 0xc8, 0x63, 0x79, 0xa7, 0x84, 0x53, 0x79, 0x1d, 0xc4, 0x30,
  0x89, 0xb0, 0x85, 0x74, 0x7f, 0x5b, 0xc8, 0x62, 0x8e, 0x93, 0x7f, 0x65,
  0x57, 0x66, 0xac, 0x73, 0xa3, 0x8d, 0x94, 0x65, 0x78, 0x77, 0x9b, 0x6e,
  0x6f, 0xa7, 0x93, 0x81, 0x7a, 0x73, 0x89, 0x5a, 0x6d, 0x94, 0x93, 0x9c,
  0x90, 0x84, 0x79, 0xa9, 0x68, 0x77, 0x87, 0x96, 0x5e, 0xa6, 0x48, 0x84,
  0x71, 0x9a, 0x7e, 0x89, 0x8a, 0xa1, 0x5b, 0x8d, 0x9a, 0x8a, 0x8b, 0x7d,
  0x8b, 0xb3, 0x63, 0x7e, 0xac, 0xab, 0x7a, 0x83, 0xa4, 0x72, 0x86, 0x84,
  0x78, 0x8c, 0x85, 0x69, 0x71, 0xa7, 0x85, 0x7d, 0x73, 0x80, 0x66, 0x5e,
  0x7f, 0x75, 0x89, 0x61, 0x96, 0x42, 0x84, 0x8a, 0x76, 0x8c, 0x63, 0xa5,
  0x87, 0x86, 0x6e, 0xd1, 0xa2, 0x88, 0x63, 0xab, 0x8a, 0x72, 0x53, 0xb2,
  0xaa, 0x9c, 0x52, 0x92, 0x8c, 0x5e, 0x5c, 0x99, 0x95, 0xb1, 0x79, 0x9e,
  0xa1, 0x87, 0x84, 0x75, 0x73, 0xac, 0x84, 0x87, 0x73, 0xa1, 0x96, 0x59,
  0x6e, 0x7a, 0xb1, 0x52, 0x7c, 0xb0, 0x89, 0x71, 0x90, 0x43, 0xb7, 0x2c,
  0x6a, 0xab, 0x7a, 0x82, 0x6a, 0x1e, 0xa5, 0x65, 0x73, 0x9e, 0x89, 0x44,
  0x64, 0x12, 0xc0, 0x45, 0x75, 0xaf, 0x90, 0x76, 0x6b, 0x60, 0xb6, 0x6b,
  0x71, 0x97, 0x90, 0x61, 0x75, 0x5c, 0xb3, 0x6b, 0x79, 0x92, 0xb1, 0x65,
